{
  "version": "1.0",
  "truncation": null,
  "padding": null,
  "added_tokens": [
    {
      "id": 0,
      "content": "<pad>",
      "single_word": false,
      "lstrip": false,
      "rstrip": false,
      "normalized": false,
      "special": true
    },
    {
      "id": 1,
      "content": "<eot_human>",
      "single_word": false,
      "lstrip": false,
      "rstrip": false,
      "normalized": false,
      "special": true
    },
    {
      "id": 2,
      "content": "<eot_model>",
      "single_word": false,
      "lstrip": false,
      "rstrip": false,
      "normalized": false,
      "special": true
    }
  ],
  "normalizer": null,
  "pre_tokenizer": {
    "type": "ByteLevel",
    "add_prefix_space": false,
    "trim_offsets": true,
    "use_regex": true
  },
  "post_processor": {
    "type": "ByteLevel",
    "add_prefix_space": true,
    "trim_offsets": false,
    "use_regex": true
  },
  "decoder": {
    "type": "ByteLevel",
    "add_prefix_space": true,
    "trim_offsets": true,
    "use_regex": true
  },
  "model": {
    "type": "BPE",
    "dropout": null,
    "unk_token": null,
    "continuing_subword_prefix": null,
    "end_of_word_suffix": null,
    "fuse_unk": false,
    "byte_fallback": false,
    "ignore_merges": false,
    "vocab": {
      "<pad>": 0,
      "<eot_human>": 1,
      "<eot_model>": 2,
      "!": 3,
      "\"": 4,
      "#": 5,
      "$": 6,
      "%": 7,
      "&": 8,
      "'": 9,
      "(": 10,
      ")": 11,
      "*": 12,
      "+": 13,
      ",": 14,
      "-": 15,
      ".": 16,
      "/": 17,
      "0": 18,
      "1": 19,
      "2": 20,
      "3": 21,
      "4": 22,
      "5": 23,
      "6": 24,
      "7": 25,
      "8": 26,
      "9": 27,
      ":": 28,
      ";": 29,
      "<": 30,
      "=": 31,
      ">": 32,
      "?": 33,
      "@": 34,
      "A": 35,
      "B": 36,
      "C": 37,
      "D": 38,
      "E": 39,
      "F": 40,
      "G": 41,
      "H": 42,
      "I": 43,
      "J": 44,
      "K": 45,
      "L": 46,
      "M": 47,
      "N": 48,
      "O": 49,
      "P": 50,
      "Q": 51,
      "R": 52,
      "S": 53,
      "T": 54,
      "U": 55,
      "V": 56,
      "W": 57,
      "X": 58,
      "Y": 59,
      "Z": 60,
      "[": 61,
      "\\": 62,
      "]": 63,
      "^": 64,
      "_": 65,
      "`": 66,
      "a": 67,
      "b": 68,
      "c": 69,
      "d": 70,
      "e": 71,
      "f": 72,
      "g": 73,
      "h": 74,
      "i": 75,
      "j": 76,
      "k": 77,
      "l": 78,
      "m": 79,
      "n": 80,
      "o": 81,
      "p": 82,
      "q": 83,
      "r": 84,
      "s": 85,
      "t": 86,
      "u": 87,
      "v": 88,
      "w": 89,
      "x": 90,
      "y": 91,
      "z": 92,
      "{": 93,
      "|": 94,
      "}": 95,
      "~": 96,
      "¡": 97,
      "¢": 98,
      "£": 99,
      "¤": 100,
      "¥": 101,
      "¦": 102,
      "§": 103,
      "¨": 104,
      "©": 105,
      "ª": 106,
      "«": 107,
      "¬": 108,
      "®": 109,
      "¯": 110,
      "°": 111,
      "±": 112,
      "²": 113,
      "³": 114,
      "´": 115,
      "µ": 116,
      "¶": 117,
      "·": 118,
      "¸": 119,
      "¹": 120,
      "º": 121,
      "»": 122,
      "¼": 123,
      "½": 124,
      "¾": 125,
      "¿": 126,
      "À": 127,
      "Á": 128,
      "Â": 129,
      "Ã": 130,
      "Ä": 131,
      "Å": 132,
      "Æ": 133,
      "Ç": 134,
      "È": 135,
      "É": 136,
      "Ê": 137,
      "Ë": 138,
      "Ì": 139,
      "Í": 140,
      "Î": 141,
      "Ï": 142,
      "Ð": 143,
      "Ñ": 144,
      "Ò": 145,
      "Ó": 146,
      "Ô": 147,
      "Õ": 148,
      "Ö": 149,
      "×": 150,
      "Ø": 151,
      "Ù": 152,
      "Ú": 153,
      "Û": 154,
      "Ü": 155,
      "Ý": 156,
      "Þ": 157,
      "ß": 158,
      "à": 159,
      "á": 160,
      "â": 161,
      "ã": 162,
      "ä": 163,
      "å": 164,
      "æ": 165,
      "ç": 166,
      "è": 167,
      "é": 168,
      "ê": 169,
      "ë": 170,
      "ì": 171,
      "í": 172,
      "î": 173,
      "ï": 174,
      "ð": 175,
      "ñ": 176,
      "ò": 177,
      "ó": 178,
      "ô": 179,
      "õ": 180,
      "ö": 181,
      "÷": 182,
      "ø": 183,
      "ù": 184,
      "ú": 185,
      "û": 186,
      "ü": 187,
      "ý": 188,
      "þ": 189,
      "ÿ": 190,
      "Ā": 191,
      "ā": 192,
      "Ă": 193,
      "ă": 194,
      "Ą": 195,
      "ą": 196,
      "Ć": 197,
      "ć": 198,
      "Ĉ": 199,
      "ĉ": 200,
      "Ċ": 201,
      "ċ": 202,
      "Č": 203,
      "č": 204,
      "Ď": 205,
      "ď": 206,
      "Đ": 207,
      "đ": 208,
      "Ē": 209,
      "ē": 210,
      "Ĕ": 211,
      "ĕ": 212,
      "Ė": 213,
      "ė": 214,
      "Ę": 215,
      "ę": 216,
      "Ě": 217,
      "ě": 218,
      "Ĝ": 219,
      "ĝ": 220,
      "Ğ": 221,
      "ğ": 222,
      "Ġ": 223,
      "ġ": 224,
      "Ģ": 225,
      "ģ": 226,
      "Ĥ": 227,
      "ĥ": 228,
      "Ħ": 229,
      "ħ": 230,
      "Ĩ": 231,
      "ĩ": 232,
      "Ī": 233,
      "ī": 234,
      "Ĭ": 235,
      "ĭ": 236,
      "Į": 237,
      "į": 238,
      "İ": 239,
      "ı": 240,
      "Ĳ": 241,
      "ĳ": 242,
      "Ĵ": 243,
      "ĵ": 244,
      "Ķ": 245,
      "ķ": 246,
      "ĸ": 247,
      "Ĺ": 248,
      "ĺ": 249,
      "Ļ": 250,
      "ļ": 251,
      "Ľ": 252,
      "ľ": 253,
      "Ŀ": 254,
      "ŀ": 255,
      "Ł": 256,
      "ł": 257,
      "Ń": 258,
      "Ġa": 259,
      "Ġt": 260,
      "in": 261,
      "re": 262,
      "he": 263,
      "on": 264,
      "Ġc": 265,
      "Ġs": 266,
      "at": 267,
      "nd": 268,
      "er": 269,
      "es": 270,
      "or": 271,
      "ing": 272,
      "it": 273,
      "ou": 274,
      "Ġthe": 275,
      "an": 276,
      "Ġand": 277,
      "Ġp": 278,
      "en": 279,
      "al": 280,
      "Ġm": 281,
      "Ġf": 282,
      "Ġw": 283,
      "Ġto": 284,
      "Ġb": 285,
      "Ġo": 286,
      "ion": 287,
      "Ġin": 288,
      "is": 289,
      "ic": 290,
      "Ġd": 291,
      "le": 292,
      "om": 293,
      "ar": 294,
      "ed": 295,
      "Ġof": 296,
      "Ġy": 297,
      "ve": 298,
      "Ġyou": 299,
      "Ġe": 300,
      "ct": 301,
      "Ġre": 302,
      "Ġth": 303,
      "ent": 304,
      "Ġh": 305,
      "us": 306,
      "as": 307,
      "ro": 308,
      "Ġl": 309,
      "ation": 310,
      "Ġcan": 311,
      "Ġbe": 312,
      "im": 313,
      "ers": 314,
      "Ġg": 315,
      "il": 316,
      "el": 317,
      "ra": 318,
      "ch": 319,
      "Ġthat": 320,
      "Ġn": 321,
      "id": 322,
      "ĠI": 323,
      "Ġfor": 324,
      "ow": 325,
      "ot": 326,
      "Ġst": 327,
      "et": 328,
      "ol": 329,
      "ce": 330,
      "Ġor": 331,
      "ul": 332,
      "ay": 333,
      "ĠT": 334,
      "Ġyour": 335,
      "Ġon": 336,
      "ess": 337,
      "Ġis": 338,
      "ig": 339,
      "ly": 340,
      "ith": 341,
      "ir": 342,
      "Ġare": 343,
      "if": 344,
      "Ġan": 345,
      "Ġwith": 346,
      "Ġcon": 347,
      "Ġpro": 348,
      "Ġmo": 349,
      "Ġhe": 350,
      "Ġsu": 351,
      "Ġit": 352,
      "Ġha": 353,
      "ge": 354,
      "ut": 355,
      "Ġex": 356,
      "Ġcom": 357,
      "se": 358,
      "ak": 359,
      "st": 360,
      "ver": 361,
      "ate": 362,
      "ive": 363,
      "ĠA": 364,
      "am": 365,
      "ies": 366,
      "ort": 367,
      "iv": 368,
      "Ġas": 369,
      "ity": 370,
      "ment": 371,
      "her": 372,
      "ab": 373,
      "ere": 374,
      "ect": 375,
      "ur": 376,
      "ure": 377,
      "Ġal": 378,
      "'s": 379,
      "un": 380,
      "Ġwh": 381,
      "op": 382,
      "oc": 383,
      "Ġhave": 384,
      "Ġim": 385,
      "ome": 386,
      "ions": 387,
      "out": 388,
      "ĠS": 389,
      "Ġde": 390,
      "Ġv": 391,
      "pp": 392,
      "ial": 393,
      "ust": 394,
      "Ġch": 395,
      "ant": 396,
      "Ġtheir": 397,
      "oo": 398,
      "qu": 399,
      "Ġimp": 400,
      "ud": 401,
      "ad": 402,
      "Ġne": 403,
      "Ġen": 404,
      "Ġhel": 405,
      "Ġhelp": 406,
      "Ġus": 407,
      "nt": 408,
      "age": 409,
      "est": 410,
      "em": 411,
      "ain": 412,
      "ĠC": 413,
      "ist": 414,
      "Ġle": 415,
      "ac": 416,
      "res": 417,
      "Ġint": 418,
      "Ġte": 419,
      "Ġfe": 420,
      "igh": 421,
      "ip": 422,
      "iz": 423,
      "Ġr": 424,
      "ĠH": 425,
      "ie": 426,
      "ations": 427,
      "rom": 428,
      "Ġsh": 429,
      "Ġexp": 430,
      "ind": 431,
      "able": 432,
      "og": 433,
      "ther": 434,
      "pe": 435,
      "th": 436,
      "ake": 437,
      "Ġmore": 438,
      "ĠThe": 439,
      "Ġse": 440,
      "Ġsome": 441,
      "ill": 442,
      "ke": 443,
      "ide": 444,
      "Ġcomp": 445,
      "ff": 446,
      "our": 447,
      "ces": 448,
      "ld": 449,
      "os": 450,
      "reat": 451,
      "Ġad": 452,
      "du": 453,
      "art": 454,
      "ang": 455,
      "Ġwor": 456,
      "all": 457,
      "are": 458,
      "and": 459,
      "ĠB": 460,
      "Ġother": 461,
      "act": 462,
      "ice": 463,
      "Ġinc": 464,
      "fere": 465,
      "ult": 466,
      "ical": 467,
      "Ġtr": 468,
      "ight": 469,
      "Ġres": 470,
      "pt": 471,
      "Ġu": 472,
      "ĠP": 473,
      "Ġnot": 474,
      "Ġpers": 475,
      "cess": 476,
      "ĠD": 477,
      "ter": 478,
      "orm": 479,
      "ance": 480,
      "ĠM": 481,
      "ine": 482,
      "Ġab": 483,
      "ual": 484,
      "ign": 485,
      "ful": 486,
      "ĠTh": 487,
      "Ġac": 488,
      "rou": 489,
      "ract": 490,
      "Ġany": 491,
      "Ġpl": 492,
      "ib": 493,
      "um": 494,
      "Ġmay": 495,
      "ien": 496,
      "Ġdif": 497,
      "Ġfrom": 498,
      "form": 499,
      "ould": 500,
      "ĠW": 501,
      "Ġmod": 502,
      "so": 503,
      "Ġj": 504,
      "Ġem": 505,
      "ĠThis": 506,
      "Ġman": 507,
      "ional": 508,
      "ress": 509,
      "Ġsuch": 510,
      "Ġwe": 511,
      "ard": 512,
      "Ġperson": 513,
      "ast": 514,
      "ack": 515,
      "ĠR": 516,
      "ĠIt": 517,
      "Ġdo": 518,
      "ood": 519,
      "Ġby": 520,
      "ag": 521,
      "ore": 522,
      "Ġwork": 523,
      "angu": 524,
      "ĠF": 525,
      "ell": 526,
      "Ġind": 527,
      "ĠE": 528,
      "Ġwhe": 529,
      "ime": 530,
      "Ġcont": 531,
      "Ġalso": 532,
      "Ġcl": 533,
      "Ġlangu": 534,
      "Ġli": 535,
      "Ġprov": 536,
      "Ġcomm": 537,
      "Ġat": 538,
      "vel": 539,
      "Ġbut": 540,
      "Ġapp": 541,
      "Ġpre": 542,
      "ep": 543,
      "Ġme": 544,
      "Ġmed": 545,
      "Ġthem": 546,
      "Ġthey": 547,
      "Ġlanguage": 548,
      "Ġmodel": 549,
      "av": 550,
      "Ġcons": 551,
      "Ġexper": 552,
      "od": 553,
      "chn": 554,
      "Ġdiffere": 555,
      "ile": 556,
      "pl": 557,
      "'t": 558,
      "ach": 559,
      "Ġhow": 560,
      "Ġtra": 561,
      "ors": 562,
      "Ġimport": 563,
      "ities": 564,
      "ific": 565,
      "ĠAI": 566,
      "gh": 567,
      "low": 568,
      "Ġtechn": 569,
      "Ġout": 570,
      "Ġhas": 571,
      "ich": 572,
      "Ġpersonal": 573,
      "ely": 574,
      "Ġway": 575,
      "Ġtime": 576,
      "Ġun": 577,
      "Ġabout": 578,
      "Ġlike": 579,
      "one": 580,
      "king": 581,
      "ru": 582,
      "Ġrec": 583,
      "ular": 584,
      "Ġpe": 585,
      "Ġimportant": 586,
      "ĠG": 587,
      "ans": 588,
      "Ġdifferent": 589,
      "ous": 590,
      "Ġthere": 591,
      "Ġmake": 592,
      "pport": 593,
      "ass": 594,
      "Ġeff": 595,
      "ong": 596,
      "dit": 597,
      "As": 598,
      "Ġoff": 599,
      "ĠL": 600,
      "Ġpract": 601,
      "aking": 602,
      "Ġcol": 603,
      "Ġspe": 604,
      "ry": 605,
      "Ġact": 606,
      "Ġwhich": 607,
      "Ġrel": 608,
      "Ġk": 609,
      "Ġnew": 610,
      "Ġcre": 611,
      "Ġso": 612,
      "Ġthese": 613,
      "ue": 614,
      "Ġar": 615,
      "ips": 616,
      "olog": 617,
      "ating": 618,
      "nds": 619,
      "Ġincl": 620,
      "ility": 621,
      "Ġev": 622,
      "ks": 623,
      "Ġuse": 624,
      "ience": 625,
      "ated": 626,
      "ings": 627,
      "ness": 628,
      "ents": 629,
      "ild": 630,
      "Ġneed": 631,
      "ople": 632,
      "Ġdis": 633,
      "Ġstud": 634,
      "Ġqu": 635,
      "ĠU": 636,
      "Ġsoc": 637,
      "Ġgo": 638,
      "Ġexam": 639,
      "ace": 640,
      "ices": 641,
      "alth": 642,
      "ments": 643,
      "Ġwill": 644,
      "Ġpr": 645,
      "Ġdes": 646,
      "end": 647,
      "Ġpos": 648,
      "elf": 649,
      "erv": 650,
      "Ġund": 651,
      "now": 652,
      "Ġover": 653,
      "ever": 654,
      "arn": 655,
      "Ġfeel": 656,
      "duct": 657,
      "Ġpeople": 658,
      "ount": 659,
      "ures": 660,
      "ink": 661,
      "Ġinclud": 662,
      "ĠHow": 663,
      "ize": 664,
      "ential": 665,
      "erst": 666,
      "Ġcommun": 667,
      "ert": 668,
      "ater": 669,
      "ail": 670,
      "Ġup": 671,
      "Ġprovide": 672,
      "Ġpart": 673,
      "ark": 674,
      "ire": 675,
      "Ġhealth": 676,
      "erstand": 677,
      "iness": 678,
      "rit": 679,
      "ber": 680,
      "Ġtechnolog": 681,
      "Ġop": 682,
      "Ġinv": 683,
      "iet": 684,
      "ocus": 685,
      "Ġif": 686,
      "Ġfind": 687,
      "pect": 688,
      "ons": 689,
      "Ġsm": 690,
      "ts": 691,
      "Ġco": 692,
      "cis": 693,
      "iqu": 694,
      "als": 695,
      "Ġbet": 696,
      "Ġmany": 697,
      "Ġimpro": 698,
      "Ġwhat": 699,
      "hy": 700,
      "ĠIn": 701,
      "Ġlearn": 702,
      "velop": 703,
      "Ġwhen": 704,
      "oy": 705,
      "ia": 706,
      "Ġdon": 707,
      "ary": 708,
      "Ġspec": 709,
      "Ġunderstand": 710,
      "Ġcult": 711,
      "Ġcreat": 712,
      "ĠHowever": 713,
      "Ġmind": 714,
      "Ġwho": 715,
      "Ġsc": 716,
      "Ġsp": 717,
      "usiness": 718,
      "ck": 719,
      "les": 720,
      "ĠDo": 721,
      "ĠO": 722,
      "Ġinform": 723,
      "Ġcreate": 724,
      "Ġmy": 725,
      "Ġper": 726,
      "Ġreg": 727,
      "Ġke": 728,
      "Ġbra": 729,
      "Ġsee": 730,
      "Ġ-": 731,
      "Ġproduct": 732,
      "ns": 733,
      "Ġgreat": 734,
      "ivid": 735,
      "Ġdevelop": 736,
      "Ġknow": 737,
      "uring": 738,
      "Ġlead": 739,
      "Ġacc": 740,
      "Ġart": 741,
      "ens": 742,
      "ious": 743,
      "Ġbusiness": 744,
      "ased": 745,
      "ally": 746,
      "Ġthink": 747,
      "Ġtips": 748,
      "Ġjust": 749,
      "Ġall": 750,
      "ting": 751,
      "ality": 752,
      "ividual": 753,
      "Ġdesign": 754,
      "ative": 755,
      "Ġsupport": 756,
      "Ġadv": 757,
      "Ġindividual": 758,
      "ues": 759,
      "Ġwhile": 760,
      "lic": 761,
      "its": 762,
      "Ġmus": 763,
      "itive": 764,
      "Ġro": 765,
      "Ġsocial": 766,
      "Ġfocus": 767,
      "ook": 768,
      "omm": 769,
      "ider": 770,
      "hat": 771,
      "Ġimpact": 772,
      "get": 773,
      "Ġstr": 774,
      "ple": 775,
      "ditional": 776,
      "ural": 777,
      "Ġmedit": 778,
      "Ġshould": 779,
      "ange": 780,
      "Ġgam": 781,
      "ms": 782,
      "Ġwell": 783,
      "Ġtry": 784,
      "ustom": 785,
      "rough": 786,
      "Ġeffect": 787,
      "hing": 788,
      "erest": 789,
      "we": 790,
      "ĠN": 791,
      "ĠSt": 792,
      "Ġtechnology": 793,
      "Ġav": 794,
      "ase": 795,
      "line": 796,
      "Ġinto": 797,
      "Ġpop": 798,
      "Ġits": 799,
      "fore": 800,
      "lect": 801,
      "The": 802,
      "Ġredu": 803,
      "Ġone": 804,
      "gg": 805,
      "ree": 806,
      "arch": 807,
      "very": 808,
      "ap": 809,
      "ics": 810,
      "Ġcustom": 811,
      "wor": 812,
      "Ġval": 813,
      "ov": 814,
      "ible": 815,
      "Ġinter": 816,
      "Ġbu": 817,
      "Ġadd": 818,
      "Yes": 819,
      "rap": 820,
      "ject": 821,
      "Ġatt": 822,
      "Ġothers": 823,
      "Ġinterest": 824,
      "ember": 825,
      "ources": 826,
      "ĠY": 827,
      "ory": 828,
      "ose": 829,
      "Ġcompan": 830,
      "Ġty": 831,
      "cial": 832,
      "Ġimprove": 833,
      "Ġbec": 834,
      "Ġinformation": 835,
      "Ġtake": 836,
      "Ġgood": 837,
      "Ġbel": 838,
      "Ġfl": 839,
      "Ġsk": 840,
      "ient": 841,
      "arket": 842,
      "ite": 843,
      "Ġens": 844,
      "Ġprocess": 845,
      "Ġprom": 846,
      "Ġcould": 847,
      "ll": 848,
      "wn": 849,
      "ĠHere": 850,
      "led": 851,
      "iew": 852,
      "Ġthrough": 853,
      "ten": 854,
      "ef": 855,
      "ior": 856,
      "Ġopt": 857,
      "ays": 858,
      "Ġ\"": 859,
      "iety": 860,
      "Ġfew": 861,
      "Ġthis": 862,
      "Ġsign": 863,
      "ound": 864,
      "Ġpol": 865,
      "Ġused": 866,
      "Ġexperience": 867,
      "ards": 868,
      "allen": 869,
      "ives": 870,
      "Ġoffer": 871,
      "iron": 872,
      "Ġmeditation": 873,
      "Ġmarket": 874,
      "Ġsy": 875,
      "Ġpopular": 876,
      "Ġserv": 877,
      "viron": 878,
      "feren": 879,
      "ivers": 880,
      "Ġam": 881,
      "Ġchallen": 882,
      "Ġgrou": 883,
      "Ġsty": 884,
      "Ġemot": 885,
      "Ġvar": 886,
      "Ġgen": 887,
      "Ġbelie": 888,
      "Ġsa": 889,
      "Ġbl": 890,
      "Ġide": 891,
      "Ġpractice": 892,
      "Ġenviron": 893,
      "Ġshow": 894,
      "Ġspecific": 895,
      "Ġget": 896,
      "ware": 897,
      "ique": 898,
      "ata": 899,
      "Ġduring": 900,
      "Ġpromot": 901,
      "erg": 902,
      "Ġprog": 903,
      "Ġass": 904,
      "Ġph": 905,
      "Ġusing": 906,
      "ough": 907,
      "ertain": 908,
      "ife": 909,
      "ommend": 910,
      "Ġmusic": 911,
      "ne": 912,
      "Ġrecommend": 913,
      "It": 914,
      "ence": 915,
      "Ġindust": 916,
      "back": 917,
      "Ġincre": 918,
      "Ġensure": 919,
      "Ġfood": 920,
      "Ġinst": 921,
      "xt": 922,
      "Ġag": 923,
      "Ġhigh": 924,
      "Ġcommunic": 925,
      "old": 926,
      "nect": 927,
      "Ġdata": 928,
      "Ġenvironment": 929,
      "ving": 930,
      "stem": 931,
      "self": 932,
      "Ġrese": 933,
      "Ġmedia": 934,
      "Ġcomple": 935,
      "Ġoften": 936,
      "Ġpot": 937,
      "Ġfr": 938,
      "gan": 939,
      "Ġstay": 940,
      "Ġmaking": 941,
      "cy": 942,
      "Ġgu": 943,
      "ates": 944,
      "ident": 945,
      "Ġresp": 946,
      "Ġown": 947,
      "ced": 948,
      "Ġprof": 949,
      "ustain": 950,
      "ub": 951,
      "Ġrem": 952,
      "Ġdisc": 953,
      "Ġstart": 954,
      "Ġloc": 955,
      "Ġtool": 956,
      "Ġour": 957,
      "Ġbest": 958,
      "Ġallow": 959,
      "ash": 960,
      "Ġtrans": 961,
      "Ġvis": 962,
      "Ġappro": 963,
      "ram": 964,
      "Ġonline": 965,
      "ivity": 966,
      "Ġpositive": 967,
      "Ġbeen": 968,
      "ise": 969,
      "ather": 970,
      "Ġbeing": 971,
      "Ġmost": 972,
      "ized": 973,
      "Ġwhere": 974,
      "Ġkeep": 975,
      "hes": 976,
      "cing": 977,
      "ost": 978,
      "Ġeng": 979,
      "Ġways": 980,
      "int": 981,
      "Ġed": 982,
      "Ġstre": 983,
      "Ġthan": 984,
      "Ġclass": 985,
      "arm": 986,
      "Ġplay": 987,
      "enef": 988,
      "Ġaccess": 989,
      "Ġlearning": 990,
      "Ġexperien": 991,
      "Ġca": 992,
      "Ġbre": 993,
      "Ġsustain": 994,
      "ples": 995,
      "Ġdecis": 996,
      "ish": 997,
      "Ġneeds": 998,
      "Ġpreferen": 999,
      "Ġgroup": 1000,
      "Ġbuild": 1001,
      "'m": 1002,
      "Ġset": 1003,
      "Ġbenef": 1004,
      "oth": 1005,
      "ify": 1006,
      "Ġopin": 1007,
      "Ġbetter": 1008,
      "Ġchalleng": 1009,
      "edback": 1010,
      "row": 1011,
      "Ġresearch": 1012,
      "ves": 1013,
      "Ġess": 1014,
      "Ġbefore": 1015,
      "ccess": 1016,
      "oid": 1017,
      "Ġ(": 1018,
      "ĠIf": 1019,
      "ower": 1020,
      "Ġrequ": 1021,
      "ob": 1022,
      "Ġconnect": 1023,
      "ĠAd": 1024,
      "ĠCh": 1025,
      "Ġunique": 1026,
      "Ġlong": 1027,
      "per": 1028,
      "Ġincluding": 1029,
      "Ġyourself": 1030,
      "Ġconf": 1031,
      "Ġresources": 1032,
      "ruct": 1033,
      "Ġeach": 1034,
      "ĠBe": 1035,
      "Ġeffective": 1036,
      "Ġpotential": 1037,
      "Ġworld": 1038,
      "Ġfeedback": 1039,
      "Ġbrand": 1040,
      "Ġreduce": 1041,
      "ade": 1042,
      "Ġprovid": 1043,
      "Ġstudy": 1044,
      "ĠĊ": 1045,
      "use": 1046,
      "Ġorgan": 1047,
      "Ġconsider": 1048,
      "ee": 1049,
      "Ġexample": 1050,
      "Ġinvol": 1051,
      "avor": 1052,
      "'re": 1053,
      "round": 1054,
      "Ġmanage": 1055,
      "Ġec": 1056,
      "Ġcle": 1057,
      "estions": 1058,
      "ĠThey": 1059,
      "Ġment": 1060,
      "Ġpat": 1061,
      "Ġessential": 1062,
      "Ġindividuals": 1063,
      "Ġsignific": 1064,
      "Ġfeat": 1065,
      "emember": 1066,
      "Ġskill": 1067,
      "Ġrep": 1068,
      "Ġright": 1069,
      "Ġtyp": 1070,
      "ability": 1071,
      "ric": 1072,
      "Ġgener": 1073,
      "ately": 1074,
      "ĠUse": 1075,
      "ways": 1076,
      "Ġins": 1077,
      "ists": 1078,
      "Ġsugg": 1079,
      "Ġsuccess": 1080,
      "bs": 1081,
      "Ġexamples": 1082,
      "Ġ2": 1083,
      "ord": 1084,
      "ear": 1085,
      "Ġmindful": 1086,
      "uc": 1087,
      "ĠK": 1088,
      "ationsh": 1089,
      "ĠYou": 1090,
      "ĠV": 1091,
      "omet": 1092,
      "Ġiss": 1093,
      "ense": 1094,
      "Ġsystem": 1095,
      "Ġaff": 1096,
      "Ġhum": 1097,
      "ick": 1098,
      "ollow": 1099,
      "Ġgoals": 1100,
      "Ġident": 1101,
      "'ll": 1102,
      "Ġevery": 1103,
      "Ġrelationsh": 1104,
      "Ġbelief": 1105,
      "Ġconc": 1106,
      "Ġeven": 1107,
      "atch": 1108,
      "Ġstill": 1109,
      "akes": 1110,
      "ody": 1111,
      "Ġche": 1112,
      "Ġfact": 1113,
      "Ġnat": 1114,
      "Ġpartic": 1115,
      "Ġwater": 1116,
      "Ġchang": 1117,
      "por": 1118,
      "Ġinn": 1119,
      "Ġpreferences": 1120,
      "cept": 1121,
      "Ġprot": 1122,
      "ition": 1123,
      "Ġsignificant": 1124,
      "Ġris": 1125,
      "olut": 1126,
      "Ġbr": 1127,
      "air": 1128,
      "ĠFor": 1129,
      "Ġsmall": 1130,
      "Ġstudents": 1131,
      "fort": 1132,
      "ily": 1133,
      "ĠJ": 1134,
      "Ġcare": 1135,
      "Ġeas": 1136,
      "ax": 1137,
      "Ġlife": 1138,
      "Ġindustry": 1139,
      "work": 1140,
      "wards": 1141,
      "Ġcompanies": 1142,
      "Ġhere": 1143,
      "Ġbal": 1144,
      "atform": 1145,
      "Ġaud": 1146,
      "Ġexperiences": 1147,
      "Ġthose": 1148,
      "Ġbetwe": 1149,
      "Ġbetween": 1150,
      "Ġalways": 1151,
      "ines": 1152,
      "ng": 1153,
      "oura": 1154,
      "ri": 1155,
      "Ġinf": 1156,
      "Ġexc": 1157,
      "joy": 1158,
      "isten": 1159,
      "oose": 1160,
      "ically": 1161,
      "Ġwant": 1162,
      "Ġemp": 1163,
      "Ġmain": 1164,
      "ond": 1165,
      "Ġwas": 1166,
      "Ġinnov": 1167,
      "Ġbeliefs": 1168,
      "ft": 1169,
      "Ġmet": 1170,
      "essional": 1171,
      "Ġactiv": 1172,
      "ĠSome": 1173,
      "ved": 1174,
      "Ġinclude": 1175,
      "ism": 1176,
      "Ġmin": 1177,
      "Ġfollow": 1178,
      "pportun": 1179,
      "Ġdef": 1180,
      "ibility": 1181,
      "Ġopinions": 1182,
      "Ġra": 1183,
      "Ġdist": 1184,
      "Ġbusinesses": 1185,
      "bject": 1186,
      "chie": 1187,
      "Ġopportun": 1188,
      "Ġskills": 1189,
      "Ġplatform": 1190,
      "Ġachie": 1191,
      "Ġself": 1192,
      "az": 1193,
      "Ġcontin": 1194,
      "ization": 1195,
      "uture": 1196,
      "Ġsure": 1197,
      "Ġbased": 1198,
      "Ġmot": 1199,
      "Ġref": 1200,
      "Ġdepe": 1201,
      "Ġexpl": 1202,
      "ĠRe": 1203,
      "Ġposs": 1204,
      "Ġ3": 1205,
      "ateg": 1206,
      "coura": 1207,
      "Ġwithout": 1208,
      "Ġmade": 1209,
      "Ġfuture": 1210,
      "Ġinvest": 1211,
      "Ġchild": 1212,
      "Ġeduc": 1213,
      "Ġmem": 1214,
      "Ġchange": 1215,
      "Ġbody": 1216,
      "Ġrespons": 1217,
      "How": 1218,
      "aly": 1219,
      "Ġ1": 1220,
      "ĠBy": 1221,
      "Ġfam": 1222,
      "Ġdow": 1223,
      "Ġrev": 1224,
      "ages": 1225,
      "tain": 1226,
      "Ġcommunication": 1227,
      "ove": 1228,
      "resent": 1229,
      "ier": 1230,
      "Ġsim": 1231,
      "Ġoptions": 1232,
      "Ġprofessional": 1233,
      "Ġtre": 1234,
      "ĠAs": 1235,
      "ame": 1236,
      "aging": 1237,
      "Ġdiff": 1238,
      "Ġtowards": 1239,
      "ases": 1240,
      "uch": 1241,
      "Ġavoid": 1242,
      "ict": 1243,
      "aterial": 1244,
      "Ġenjoy": 1245,
      "ern": 1246,
      "Ġla": 1247,
      "Ġsit": 1248,
      "Ġdet": 1249,
      "Ġcolor": 1250,
      "ries": 1251,
      "ĠThese": 1252,
      "ergy": 1253,
      "red": 1254,
      "Ġtoo": 1255,
      "Ġchar": 1256,
      "Ġcomfort": 1257,
      "Ġstrateg": 1258,
      "Ġbecome": 1259,
      "oga": 1260,
      "Ġperspect": 1261,
      "ational": 1262,
      "Ġpractices": 1263,
      "ining": 1264,
      "Ġgrow": 1265,
      "Ġperform": 1266,
      "Ġbeh": 1267,
      "Ġlook": 1268,
      "Ġfeatures": 1269,
      "Ġactivities": 1270,
      "Ġback": 1271,
      "ploy": 1272,
      "hen": 1273,
      "Ġmaterial": 1274,
      "Ġprior": 1275,
      "Ġcrit": 1276,
      "Ġboth": 1277,
      "Ġeffort": 1278,
      "Ġwould": 1279,
      "hys": 1280,
      "Ġsomet": 1281,
      "Ġview": 1282,
      "Ġprev": 1283,
      "Ġavail": 1284,
      "Ġstyle": 1285,
      "verall": 1286,
      "Ġunderstanding": 1287,
      "Ġform": 1288,
      "Ġgr": 1289,
      "In": 1290,
      "rib": 1291,
      "Ġsmart": 1292,
      "Ġsaf": 1293,
      "Ġfun": 1294,
      "aste": 1295,
      "Ġbenefits": 1296,
      "ush": 1297,
      "ble": 1298,
      "Ġpromote": 1299,
      "cur": 1300,
      "Ġhelps": 1301,
      "ledge": 1302,
      "imately": 1303,
      "Ġtraditional": 1304,
      "Ġservices": 1305,
      "oot": 1306,
      "Ġwrit": 1307,
      "Ġsever": 1308,
      "ercis": 1309,
      "Ġcontent": 1310,
      "Ġoffers": 1311,
      "Ġfin": 1312,
      "ited": 1313,
      "Ġissues": 1314,
      "ances": 1315,
      "Ġenergy": 1316,
      "Ġvisual": 1317,
      "Ġmuch": 1318,
      "Ġneg": 1319,
      "Ġcultural": 1320,
      "ied": 1321,
      "ublic": 1322,
      "imes": 1323,
      "Ġlevel": 1324,
      "ĠPro": 1325,
      "Ġproducts": 1326,
      "Ġstress": 1327,
      "Ġsustainable": 1328,
      "Ġprotect": 1329,
      "orpor": 1330,
      "Ġphys": 1331,
      "Ġseveral": 1332,
      "Ġsense": 1333,
      "Ġmotiv": 1334,
      "Ġ5": 1335,
      "ning": 1336,
      "nding": 1337,
      "Ġreally": 1338,
      "Ġapproach": 1339,
      "Ġtools": 1340,
      "abor": 1341,
      "be": 1342,
      "Ġcreating": 1343,
      "Ġbreak": 1344,
      "Ġdefin": 1345,
      "Ġaround": 1346,
      "onom": 1347,
      "Ġguid": 1348,
      "ention": 1349,
      "Ġphot": 1350,
      "Ġgive": 1351,
      "te": 1352,
      "Ġpower": 1353,
      "Ġwear": 1354,
      "What": 1355,
      "iques": 1356,
      "Ġlight": 1357,
      "Ġshare": 1358,
      "Ġcustomer": 1359,
      "Ġrecommendations": 1360,
      "Ġeth": 1361,
      "ants": 1362,
      "Ġmight": 1363,
      "Ġexercis": 1364,
      "Ġpo": 1365,
      "Ġreal": 1366,
      "Ġdown": 1367,
      "Ġaccount": 1368,
      "Ġpur": 1369,
      "Ġopen": 1370,
      "Ġbalance": 1371,
      "Ġday": 1372,
      "Ġregular": 1373,
      "Ġsomeone": 1374,
      "Ġdevelopment": 1375,
      "Ġtechniques": 1376,
      "not": 1377,
      "Ġsal": 1378,
      "Ġfil": 1379,
      "Ġdivers": 1380,
      "ered": 1381,
      "ograp": 1382,
      "ogn": 1383,
      "Ġquality": 1384,
      "Ġent": 1385,
      "Ġteam": 1386,
      "Ġcommon": 1387,
      "Ġanaly": 1388,
      "Ġkey": 1389,
      "Ġemotions": 1390,
      "Ġcertain": 1391,
      "Ġthough": 1392,
      "ditionally": 1393,
      "vers": 1394,
      "Ġrespect": 1395,
      "Ġnatural": 1396,
      "Ġavailable": 1397,
      "Ġemploy": 1398,
      "ren": 1399,
      "Ġrequire": 1400,
      "Ġchanges": 1401,
      "ave": 1402,
      "Ġnet": 1403,
      "Ġhand": 1404,
      "up": 1405,
      "Ġrole": 1406,
      "Ġaudience": 1407,
      "Ġpossible": 1408,
      "Ġgl": 1409,
      "Ġhuman": 1410,
      "Ġ4": 1411,
      "assion": 1412,
      "Ġcustomers": 1413,
      "hers": 1414,
      "ead": 1415,
      "Ġaut": 1416,
      "iend": 1417,
      "Ġcompet": 1418,
      "icult": 1419,
      "Ġvalues": 1420,
      "itud": 1421,
      "itely": 1422,
      "Ġaddress": 1423,
      "Ġcal": 1424,
      "Ġplan": 1425,
      "Ġcount": 1426,
      "Ġgaming": 1427,
      "Ġemotional": 1428,
      "Ġtext": 1429,
      "Ġcar": 1430,
      "Ġsur": 1431,
      "Ġvarious": 1432,
      "Ġbi": 1433,
      "Ġclear": 1434,
      "Ġbehav": 1435,
      "Ġdoes": 1436,
      "Ġdifficult": 1437,
      "ribut": 1438,
      "hile": 1439,
      "Ġdem": 1440,
      "Ġlocal": 1441,
      "ination": 1442,
      "Ġtaking": 1443,
      "Ġhelpful": 1444,
      "Ġsound": 1445,
      "Ġresult": 1446,
      "ix": 1447,
      "Ġno": 1448,
      "Ġrout": 1449,
      "Ġworks": 1450,
      "iting": 1451,
      "Ġpublic": 1452,
      "labor": 1453,
      "ner": 1454,
      "ĠEn": 1455,
      "Ġhealthy": 1456,
      "lu": 1457,
      "Ġcomb": 1458,
      "ital": 1459,
      "These": 1460,
      "Ġdefinitely": 1461,
      "Ġmaintain": 1462,
      "com": 1463,
      "arent": 1464,
      "That": 1465,
      "Overall": 1466,
      "Ġsitu": 1467,
      "Ġidentify": 1468,
      "Ġfactors": 1469,
      "ph": 1470,
      "Ġopportunities": 1471,
      "Ġconsum": 1472,
      "Ġcur": 1473,
      "Ġdr": 1474,
      "Ġext": 1475,
      "ually": 1476,
      "Ġinteresting": 1477,
      "Ġdecision": 1478,
      "Ġideas": 1479,
      "Ġaware": 1480,
      "erm": 1481,
      "iment": 1482,
      "Ġchallenges": 1483,
      "Ġtypes": 1484,
      "Ġclim": 1485,
      "Ġmult": 1486,
      "Ġhome": 1487,
      "Ġtea": 1488,
      "Ġbreat": 1489,
      "hed": 1490,
      "Ġmon": 1491,
      "Ġtop": 1492,
      "Ġnegative": 1493,
      "Ġes": 1494,
      "Ġaf": 1495,
      "Ġrelationships": 1496,
      "gin": 1497,
      "Ġlisten": 1498,
      "Ġpolic": 1499,
      "ian": 1500,
      "Ġmeth": 1501,
      "Ġphysical": 1502,
      "Can": 1503,
      "Ġnecess": 1504,
      "Ġclot": 1505,
      "Ġcompany": 1506,
      "Ġcharact": 1507,
      "Ġread": 1508,
      "Ġpriorit": 1509,
      "Ġmethod": 1510,
      "eg": 1511,
      "Ġcolors": 1512,
      "Ġstrong": 1513,
      "ger": 1514,
      "Ġyoga": 1515,
      "icing": 1516,
      "ĠCons": 1517,
      "Ġidea": 1518,
      "Ġempat": 1519,
      "ah": 1520,
      "Ġdeep": 1521,
      "Ġincorpor": 1522,
      "Ġmanagement": 1523,
      "Ġethical": 1524,
      "Ġtransp": 1525,
      "Ġaffect": 1526,
      "Ġequ": 1527,
      "Ġthings": 1528,
      "ories": 1529,
      "Ġmental": 1530,
      "Ġmeet": 1531,
      "over": 1532,
      "Ġdec": 1533,
      "Ġencoura": 1534,
      "Ġstory": 1535,
      "ling": 1536,
      "Ġful": 1537,
      "ason": 1538,
      "Ġculture": 1539,
      "Ġknowledge": 1540,
      "Ġlim": 1541,
      "Ġstep": 1542,
      "Ġrange": 1543,
      "Ġcommunity": 1544,
      "Sure": 1545,
      "Ġchoose": 1546,
      "Ġprevent": 1547,
      "tern": 1548,
      "Ġincrease": 1549,
      "'ve": 1550,
      "ool": 1551,
      "Ġtem": 1552,
      "ĠAdditionally": 1553,
      "âĢ": 1554,
      "ĠThere": 1555,
      "Ġinflu": 1556,
      "izations": 1557,
      "Ġbrands": 1558,
      "Ġeducation": 1559,
      "Ġstand": 1560,
      "Ġeconom": 1561,
      "any": 1562,
      "ilities": 1563,
      "br": 1564,
      "mm": 1565,
      "Ġtas": 1566,
      "ĠSh": 1567,
      "itude": 1568,
      "aut": 1569,
      "Ġflavor": 1570,
      "hip": 1571,
      "lt": 1572,
      "izing": 1573,
      "bers": 1574,
      "Ġfree": 1575,
      "Ġdev": 1576,
      "ffee": 1577,
      "Ġsuggestions": 1578,
      "Ġevents": 1579,
      "atter": 1580,
      "Ġmeas": 1581,
      "Ġlar": 1582,
      "iving": 1583,
      "Ġexpress": 1584,
      "Ġinteract": 1585,
      "oice": 1586,
      "Ġwere": 1587,
      "ocol": 1588,
      "Ġmove": 1589,
      "irt": 1590,
      "lement": 1591,
      "Ġrest": 1592,
      "ains": 1593,
      "ones": 1594,
      "oring": 1595,
      "Ġcomplex": 1596,
      "Ġcomfortable": 1597,
      "iate": 1598,
      "Ġcost": 1599,
      "Ġgroups": 1600,
      "Ġmov": 1601,
      "Ġrecogn": 1602,
      "Ġmaterials": 1603,
      "Ġareas": 1604,
      "Ġrelax": 1605,
      "Ġengage": 1606,
      "Ġusers": 1607,
      "ros": 1608,
      "Ġcam": 1609,
      "Ġdel": 1610,
      "ĠRemember": 1611,
      "Ġfeelings": 1612,
      "read": 1613,
      "Ġsoft": 1614,
      "Ġcreative": 1615,
      "cially": 1616,
      "asing": 1617,
      "ĠTake": 1618,
      "Ġproject": 1619,
      "Ġstrategies": 1620,
      "ds": 1621,
      "Ġfre": 1622,
      "Ġmean": 1623,
      "ty": 1624,
      "Ġless": 1625,
      "Ġdecisions": 1626,
      "Ġconflic": 1627,
      "iven": 1628,
      "ights": 1629,
      "Ġsomething": 1630,
      "Ġsociety": 1631,
      "Ġcru": 1632,
      "Ġhard": 1633,
      "Ġprin": 1634,
      "Remember": 1635,
      "urn": 1636,
      "Ġexpect": 1637,
      "Ġcome": 1638,
      "Ġvariety": 1639,
      "Ġinvolves": 1640,
      "reen": 1641,
      "Ġsou": 1642,
      "uss": 1643,
      "Ġallows": 1644,
      "care": 1645,
      "ancial": 1646,
      "arget": 1647,
      "less": 1648,
      "ashion": 1649,
      "Ġcour": 1650,
      "Ġachieve": 1651,
      "ltimately": 1652,
      "fr": 1653,
      "ners": 1654,
      "Ġhist": 1655,
      "ĠCon": 1656,
      "ditions": 1657,
      "Ġquestions": 1658,
      "ooking": 1659,
      "pecially": 1660,
      "Ġoverall": 1661,
      "Ġorganizations": 1662,
      "iss": 1663,
      "ars": 1664,
      "Ġgames": 1665,
      "olution": 1666,
      "Ġbehavior": 1667,
      "Ġproble": 1668,
      "ands": 1669,
      "Ġtype": 1670,
      "Ġplatforms": 1671,
      "rams": 1672,
      "Ġcoffee": 1673,
      "Ġespecially": 1674,
      "Ġcannot": 1675,
      "ĠInst": 1676,
      "Ġtarget": 1677,
      "Ġfit": 1678,
      "Ġtest": 1679,
      "Ġparticular": 1680,
      "Ġhad": 1681,
      "Ġoutf": 1682,
      "Ġattention": 1683,
      "Ġperformance": 1684,
      "being": 1685,
      "ock": 1686,
      "iendly": 1687,
      "Ġlove": 1688,
      "Ġshows": 1689,
      "curity": 1690,
      "cast": 1691,
      "Ġprogress": 1692,
      "Ġchallenging": 1693,
      "ocolate": 1694,
      "Ġyear": 1695,
      "ĠEx": 1696,
      "Ġnecessary": 1697,
      "erns": 1698,
      "Ġagree": 1699,
      "Ġrisk": 1700,
      "Ġtrack": 1701,
      "Ġfocused": 1702,
      "Ġinnovation": 1703,
      "Ġve": 1704,
      "Ġeating": 1705,
      "Ġcollabor": 1706,
      "anced": 1707,
      "Ġmess": 1708,
      "Ġleg": 1709,
      "Ġcontinue": 1710,
      "Ġperspectives": 1711,
      "ires": 1712,
      "Ġwebs": 1713,
      "ering": 1714,
      "ross": 1715,
      "inking": 1716,
      "eep": 1717,
      "Ġability": 1718,
      "ope": 1719,
      "istic": 1720,
      "acy": 1721,
      "Ġbring": 1722,
      "Ġfavor": 1723,
      "Ġsuccessful": 1724,
      "Ġmindfulness": 1725,
      "ients": 1726,
      "Ġgra": 1727,
      "Ġconst": 1728,
      "Ġvide": 1729,
      "Ġcontribut": 1730,
      "Ġpresent": 1731,
      "Ġempathy": 1732,
      "Ġrele": 1733,
      "Ġteac": 1734,
      "Ġregul": 1735,
      "Ġgrowth": 1736,
      "ele": 1737,
      "Ġharm": 1738,
      "Ġcontro": 1739,
      "Ġreview": 1740,
      "Ġlik": 1741,
      "Ġsuggest": 1742,
      "Ġtrust": 1743,
      "Ġspace": 1744,
      "ming": 1745,
      "Ġcultures": 1746,
      "Ġprioritize": 1747,
      "iel": 1748,
      "Ġfamily": 1749,
      "lus": 1750,
      "iver": 1751,
      "Ġfashion": 1752,
      "Ġconcerns": 1753,
      "Ġtrends": 1754,
      "Ġproviding": 1755,
      "ets": 1756,
      "ĠPract": 1757,
      "Ġstream": 1758,
      "Ġsubject": 1759,
      "ems": 1760,
      "Ġflow": 1761,
      "Ġartists": 1762,
      "Ġtoget": 1763,
      "Ġprograms": 1764,
      "Ġtogether": 1765,
      "Ġable": 1766,
      "ĠWhen": 1767,
      "Ġappre": 1768,
      "Ġsun": 1769,
      "Ġdistract": 1770,
      "Ġonly": 1771,
      "Ġeveryone": 1772,
      "ushi": 1773,
      "eah": 1774,
      "Ġsat": 1775,
      "Ġdig": 1776,
      "els": 1777,
      "ees": 1778,
      "Yeah": 1779,
      "Ġhab": 1780,
      "Ġdifferen": 1781,
      "Ġenh": 1782,
      "Ġuser": 1783,
      "Ġplace": 1784,
      "Ġfinancial": 1785,
      "Ġser": 1786,
      "elebr": 1787,
      "chool": 1788,
      "ĠGP": 1789,
      "Ġprovides": 1790,
      "Ġmakes": 1791,
      "Ġclothing": 1792,
      "Ġmust": 1793,
      "vern": 1794,
      "Ġknown": 1795,
      "based": 1796,
      "ex": 1797,
      "Ġsources": 1798,
      "Ġanx": 1799,
      "ĠCan": 1800,
      "io": 1801,
      "Ġtour": 1802,
      "Ġactions": 1803,
      "Ġgovern": 1804,
      "Ġbegin": 1805,
      "ĠAm": 1806,
      "ĠCom": 1807,
      "Ġsoftware": 1808,
      "Ġchocolate": 1809,
      "irect": 1810,
      "Ġparticip": 1811,
      "Ġcritical": 1812,
      "Ġsame": 1813,
      "Ġimplement": 1814,
      "Ġcommunities": 1815,
      "ese": 1816,
      "apt": 1817,
      "Ġapprec": 1818,
      "Ġcash": 1819,
      "Ġsens": 1820,
      "elves": 1821,
      "ĠTry": 1822,
      "Ġbuilding": 1823,
      "Ġcheck": 1824,
      "light": 1825,
      "Ġhold": 1826,
      "ĠMany": 1827,
      "Ġcream": 1828,
      "Ġclassic": 1829,
      "Ġbeaut": 1830,
      "iple": 1831,
      "Ġmarketing": 1832,
      "Ġafter": 1833,
      "Ġeffectively": 1834,
      "irst": 1835,
      "aling": 1836,
      "ven": 1837,
      "Ġcap": 1838,
      "Ġlot": 1839,
      "Ġshort": 1840,
      "friendly": 1841,
      "Ġtaste": 1842,
      "alk": 1843,
      "Ġcomput": 1844,
      "selves": 1845,
      "let": 1846,
      "ause": 1847,
      "ĠAn": 1848,
      "Ġremember": 1849,
      "ward": 1850,
      "Ġstyles": 1851,
      "Ġreflect": 1852,
      "ins": 1853,
      "Ġend": 1854,
      "Ġgain": 1855,
      "Ġstreng": 1856,
      "Ġconvers": 1857,
      "Ġreducing": 1858,
      "Ġmembers": 1859,
      "Ġsushi": 1860,
      "Ġobject": 1861,
      "Ġcrucial": 1862,
      "ĠGPS": 1863,
      "Ġwine": 1864,
      "Ġflav": 1865,
      "Ġtasks": 1866,
      "atitude": 1867,
      "quality": 1868,
      "emic": 1869,
      "Ġgame": 1870,
      "Ġinsp": 1871,
      "here": 1872,
      "Ġcompassion": 1873,
      "Ġnon": 1874,
      "ĠWith": 1875,
      "Ġpracticing": 1876,
      "Ġadvice": 1877,
      "Ġintern": 1878,
      "Ġdiscuss": 1879,
      "Ġwriting": 1880,
      "Ġthoughts": 1881,
      "Ġtraining": 1882,
      "Ġpair": 1883,
      "Ġcollect": 1884,
      "ura": 1885,
      "rop": 1886,
      "Ġmodern": 1887,
      "Ġrisks": 1888,
      "Ġclimate": 1889,
      "Ġear": 1890,
      "oss": 1891,
      "ĠWhat": 1892,
      "ĠWhile": 1893,
      "Ġvalu": 1894,
      "Ġenvironmental": 1895,
      "Ġefforts": 1896,
      "Ġroutine": 1897,
      "Ġactive": 1898,
      "Ġconsid": 1899,
      "Ġsystems": 1900,
      "Ġtreat": 1901,
      "Ġphotograp": 1902,
      "Ġpay": 1903,
      "Ġmor": 1904,
      "Ġservice": 1905,
      "oots": 1906,
      "Ġeffic": 1907,
      "Ġrelig": 1908,
      "orth": 1909,
      "Ġsteps": 1910,
      "Ġanxiety": 1911,
      "abl": 1912,
      "Ġimm": 1913,
      "Ġkind": 1914,
      "aring": 1915,
      "Ġtravel": 1916,
      "Ġmethods": 1917,
      "day": 1918,
      "Ġjob": 1919,
      "Ġapps": 1920,
      "Ġcomes": 1921,
      "opt": 1922,
      "Ġpolit": 1923,
      "Ġsess": 1924,
      "Ġfore": 1925,
      "imize": 1926,
      "Ġtrying": 1927,
      "Ġrelationship": 1928,
      "Ġfollowing": 1929,
      "Ġmonit": 1930,
      "ches": 1931,
      "Ġparent": 1932,
      "dition": 1933,
      "Ġsmartph": 1934,
      "ĠApp": 1935,
      "terns": 1936,
      "Ġpatterns": 1937,
      "Ġeconomic": 1938,
      "Wow": 1939,
      "Ġsecurity": 1940,
      "Ġspecial": 1941,
      "Ġpolicies": 1942,
      "ok": 1943,
      "Ġtell": 1944,
      "Ġpie": 1945,
      "Ġwatch": 1946,
      "Ġchildren": 1947,
      "Ġflavors": 1948,
      "to": 1949,
      "Ġdress": 1950,
      "Ġoutfit": 1951,
      "Ġsle": 1952,
      "Ġfiel": 1953,
      "Ġdirect": 1954,
      "Ġconsidered": 1955,
      "idence": 1956,
      "ĠDon": 1957,
      "Ġgeneral": 1958,
      "Ġemployees": 1959,
      "ĠConsider": 1960,
      "Ġthen": 1961,
      "Ġstate": 1962,
      "ĠTe": 1963,
      "Ġprodu": 1964,
      "quen": 1965,
      "Ġpromoting": 1966,
      "Ġclean": 1967,
      "Ġdeterm": 1968,
      "uck": 1969,
      "Ġcor": 1970,
      "Ġmultiple": 1971,
      "Ġfavorite": 1972,
      "fer": 1973,
      "lex": 1974,
      "Ġleading": 1975,
      "Ġprogram": 1976,
      "Ġeasy": 1977,
      "Ġlikely": 1978,
      "sing": 1979,
      "Ġpain": 1980,
      "Ġreality": 1981,
      "Ġexperiment": 1982,
      "Ġbud": 1983,
      "ĠPl": 1984,
      "ĠMake": 1985,
      "Ġpriv": 1986,
      "Ġyears": 1987,
      "Ġbreath": 1988,
      "ource": 1989,
      "ging": 1990,
      "Ġboots": 1991,
      "ration": 1992,
      "Ġcommit": 1993,
      "fact": 1994,
      "just": 1995,
      "way": 1996,
      "Ġtechnologies": 1997,
      "Ġexercise": 1998,
      "place": 1999,
      "aily": 2000,
      "Ġdiverse": 2001,
      "Ġnetwork": 2002,
      "Fi": 2003,
      "Ġtw": 2004,
      "oci": 2005,
      "istent": 2006,
      "ĠEm": 2007,
      "Ġamount": 2008,
      "Ġencourage": 2009,
      "ĠPractice": 2010,
      "Ġele": 2011,
      "ooks": 2012,
      "Ġfinding": 2013,
      "come": 2014,
      "lying": 2015,
      "iends": 2016,
      "There": 2017,
      "Ġeasier": 2018,
      "âĢĻ": 2019,
      "Ġfac": 2020,
      "ĠSet": 2021,
      "ĠKeep": 2022,
      "Ġgratitude": 2023,
      "Ġvalue": 2024,
      "Ġrequires": 2025,
      "ew": 2026,
      "fect": 2027,
      "pro": 2028,
      "Ġworking": 2029,
      "ites": 2030,
      "aries": 2031,
      "Ġask": 2032,
      "ides": 2033,
      "Ġsupp": 2034,
      "Ġinterests": 2035,
      "Ġmotivated": 2036,
      "cking": 2037,
      "Ġprep": 2038,
      "Ġfast": 2039,
      "Ġret": 2040,
      "Ġones": 2041,
      "Ġexplore": 2042,
      "ape": 2043,
      "Ġcy": 2044,
      "ĠBut": 2045,
      "Ġweather": 2046,
      "Ġcent": 2047,
      "ĠHave": 2048,
      "Ġnote": 2049,
      "Ġfeeling": 2050,
      "Ġtypically": 2051,
      "Ġrun": 2052,
      "resh": 2053,
      "Ġbecause": 2054,
      "rent": 2055,
      "Ġleaders": 2056,
      "Ġest": 2057,
      "Ġrece": 2058,
      "Ġfriends": 2059,
      "Ġdigital": 2060,
      "Ġtherap": 2061,
      "Ġadapt": 2062,
      "elling": 2063,
      "ĠUn": 2064,
      "ĠOn": 2065,
      "bo": 2066,
      "ats": 2067,
      "ature": 2068,
      "alu": 2069,
      "Ġgetting": 2070,
      "Ġoc": 2071,
      "Ġdance": 2072,
      "ĠAl": 2073,
      "Ġjour": 2074,
      "Ġjustice": 2075,
      "Ġlevels": 2076,
      "ĠCl": 2077,
      "Ġhope": 2078,
      "Ġhapp": 2079,
      "Ġrather": 2080,
      "term": 2081,
      "ik": 2082,
      "gment": 2083,
      "Ġconcept": 2084,
      "Ġsumm": 2085,
      "Ġcause": 2086,
      "Ġenhance": 2087,
      "Ġsol": 2088,
      "Ġhaving": 2089,
      "Do": 2090,
      "ters": 2091,
      "Ġdaily": 2092,
      "Ġadvant": 2093,
      "Ġaction": 2094,
      "ired": 2095,
      "Ġsounds": 2096,
      "ints": 2097,
      "Ġschool": 2098,
      "Ġmom": 2099,
      "Ġanim": 2100,
      "Ġperfect": 2101,
      "Ġengaging": 2102,
      "Ġsales": 2103,
      "Ġdue": 2104,
      "other": 2105,
      "Ġconditions": 2106,
      "Ġprop": 2107,
      "Ġcountries": 2108,
      "uce": 2109,
      "Ġcr": 2110,
      "ĠUltimately": 2111,
      "Ġdepending": 2112,
      "Ġthinking": 2113,
      "ĠInt": 2114,
      "ptop": 2115,
      "ĠLook": 2116,
      "Ġlaptop": 2117,
      "Ġfirst": 2118,
      "Ġbas": 2119,
      "Ġarea": 2120,
      "ables": 2121,
      "urther": 2122,
      "estion": 2123,
      "Ġpost": 2124,
      "Ġassoci": 2125,
      "Ġcontrol": 2126,
      "making": 2127,
      "ted": 2128,
      "Ġdesigned": 2129,
      "By": 2130,
      "cle": 2131,
      "ĠWi": 2132,
      "Ġwhether": 2133,
      "Ġcreativity": 2134,
      "Ġsn": 2135,
      "Ġstru": 2136,
      "ervation": 2137,
      "ral": 2138,
      "tle": 2139,
      "Ġinformed": 2140,
      "Ġaccur": 2141,
      "Ġmeaning": 2142,
      "Ġing": 2143,
      "Ġpress": 2144,
      "Ġenough": 2145,
      "aces": 2146,
      "rast": 2147,
      "Ġswe": 2148,
      "Ġeffects": 2149,
      "Ġpres": 2150,
      "Ġadopt": 2151,
      "Ġinsights": 2152,
      "Ġpowerful": 2153,
      "Ġel": 2154,
      "utes": 2155,
      "osp": 2156,
      "Ġemerg": 2157,
      "Ġquick": 2158,
      "Ġfru": 2159,
      "ety": 2160,
      "ĠSp": 2161,
      "Ġthemselves": 2162,
      "Ġawareness": 2163,
      "Ġstrugg": 2164,
      "Ġdam": 2165,
      "ilar": 2166,
      "Ġamong": 2167,
      "ructure": 2168,
      "Ġsafe": 2169,
      "Ġresponsibility": 2170,
      "life": 2171,
      "Ġice": 2172,
      "Ġwhy": 2173,
      "Ġindustries": 2174,
      "Ġcaus": 2175,
      "Ġpoint": 2176,
      "Ġtransport": 2177,
      "Ġdevices": 2178,
      "Ġbudget": 2179,
      "era": 2180,
      "ale": 2181,
      "Ġreach": 2182,
      "Ġlov": 2183,
      "istance": 2184,
      "Ġprefer": 2185,
      "Ġmodels": 2186,
      "iveness": 2187,
      "alking": 2188,
      "Ġworth": 2189,
      "ĠDe": 2190,
      "Ġsustainability": 2191,
      "Ġlegal": 2192,
      "orts": 2193,
      "Ġdep": 2194,
      "Ġcommunicate": 2195,
      "Ġafford": 2196,
      "Ġperspective": 2197,
      "Ġsituation": 2198,
      "Ġlow": 2199,
      "Ġlooking": 2200,
      "Ġscient": 2201,
      "Ġoption": 2202,
      "Ġwebsite": 2203,
      "Ġstreaming": 2204,
      "for": 2205,
      "ĠComp": 2206,
      "Ġbro": 2207,
      "thing": 2208,
      "ums": 2209,
      "Ġinclus": 2210,
      "Ġstrength": 2211,
      "der": 2212,
      "Ġbur": 2213,
      "Ġlocation": 2214,
      "Ġcurrent": 2215,
      "Ġexpens": 2216,
      "Ġoper": 2217,
      "Ġestabl": 2218,
      "pri": 2219,
      "Ġelect": 2220,
      "Ġsuns": 2221,
      "Ġsec": 2222,
      "Ġreli": 2223,
      "Ġappropri": 2224,
      "Ġsafety": 2225,
      "Ġingred": 2226,
      "und": 2227,
      "Ġ6": 2228,
      "Ġmil": 2229,
      "Ġflex": 2230,
      "ĠAr": 2231,
      "Ġsimple": 2232,
      "Ġlistening": 2233,
      "Ġsleep": 2234,
      "oes": 2235,
      "Ġtrue": 2236,
      "Ġimproving": 2237,
      "Ġsetting": 2238,
      "Ġvaluable": 2239,
      "Ġfound": 2240,
      "Ġbag": 2241,
      "Ġlives": 2242,
      "igate": 2243,
      "Ġvary": 2244,
      "Ġincreasing": 2245,
      "Ġrights": 2246,
      "ĠAv": 2247,
      "Ġjud": 2248,
      "Ġconsistent": 2249,
      "oney": 2250,
      "iod": 2251,
      "Ġcelebr": 2252,
      "Ġrepresent": 2253,
      "ron": 2254,
      "Ġattract": 2255,
      "Ġlarge": 2256,
      "Ġsnack": 2257,
      "ike": 2258,
      "Ġnut": 2259,
      "rupt": 2260,
      "Ġadvance": 2261,
      "Ġinvolved": 2262,
      "Ġregularly": 2263,
      "Ġanalyz": 2264,
      "Certain": 2265,
      "vant": 2266,
      "Ġanother": 2267,
      "Ġsituations": 2268,
      "Ġcharacters": 2269,
      "Ġsay": 2270,
      "Ġpass": 2271,
      "Ġnow": 2272,
      "ote": 2273,
      "Certainly": 2274,
      "hel": 2275,
      "vey": 2276,
      "ĠBl": 2277,
      "Ġrain": 2278,
      "know": 2279,
      "Ġbecom": 2280,
      "Ġbound": 2281,
      "Ġinteg": 2282,
      "ĠLe": 2283,
      "Ġcharacter": 2284,
      "Ġteachers": 2285,
      "Ġtimes": 2286,
      "Ġfas": 2287,
      "Ġadjust": 2288,
      "Ġpred": 2289,
      "ann": 2290,
      "Ġhig": 2291,
      "ĠFocus": 2292,
      "Ġdepends": 2293,
      "Ġport": 2294,
      "Ġbeer": 2295,
      "Ġnum": 2296,
      "Ġphone": 2297,
      "Ġinstruct": 2298,
      "Ġexercises": 2299,
      "Ġter": 2300,
      "Ġtakes": 2301,
      "Ġlog": 2302,
      "Ġchoice": 2303,
      "Ġagain": 2304,
      "Ġgovernment": 2305,
      "oices": 2306,
      "Ġincludes": 2307,
      "Ġidentity": 2308,
      "Ġpolitical": 2309,
      "hold": 2310,
      "hedu": 2311,
      "Ġpar": 2312,
      "Ġwithin": 2313,
      "Ġlet": 2314,
      "ared": 2315,
      "Ġacross": 2316,
      "Ġperiod": 2317,
      "Ġdra": 2318,
      "igin": 2319,
      "Ġblaz": 2320,
      "quences": 2321,
      "Ġacad": 2322,
      "irtual": 2323,
      "Ġmovies": 2324,
      "Ġaspect": 2325,
      "ocial": 2326,
      "Ġmeasures": 2327,
      "ges": 2328,
      "atic": 2329,
      "thlet": 2330,
      "Ġmeans": 2331,
      "Ġattend": 2332,
      "Ġingredients": 2333,
      "ĠIs": 2334,
      "olutions": 2335,
      "azing": 2336,
      "Ġproper": 2337,
      "ĠStart": 2338,
      "hic": 2339,
      "pre": 2340,
      "ĠChoose": 2341,
      "Ġfunct": 2342,
      "ath": 2343,
      "Ġwide": 2344,
      "Ġever": 2345,
      "ney": 2346,
      "Ġreput": 2347,
      "Ġtemper": 2348,
      "Ġinfluen": 2349,
      "Ġface": 2350,
      "ication": 2351,
      "erson": 2352,
      "Ġalign": 2353,
      "Ġaccept": 2354,
      "achine": 2355,
      "ology": 2356,
      "Ġclasses": 2357,
      "Ġnetwor": 2358,
      "Ġappreciate": 2359,
      "ĠApple": 2360,
      "Ġdetermine": 2361,
      "Ġmis": 2362,
      "Ġfresh": 2363,
      "Ġnever": 2364,
      "ĠChe": 2365,
      "Ġbuy": 2366,
      "Ġthroughout": 2367,
      "Ġinnovative": 2368,
      "Ġbreaks": 2369,
      "Ġfield": 2370,
      "hedule": 2371,
      "Ġluck": 2372,
      "sequences": 2373,
      "Ġseen": 2374,
      "Ġwaste": 2375,
      "akers": 2376,
      "Ġevol": 2377,
      "Ġamazing": 2378,
      "ĠAvoid": 2379,
      "ses": 2380,
      "Ġminutes": 2381,
      "Ġcamp": 2382,
      "Ġult": 2383,
      "Ġpast": 2384,
      "Ġmount": 2385,
      "edom": 2386,
      "ĠInd": 2387,
      "Ġvers": 2388,
      "Ġimportance": 2389,
      "ĠInc": 2390,
      "Ġreviews": 2391,
      "ency": 2392,
      "ished": 2393,
      "Ġhy": 2394,
      "Ġconsequences": 2395,
      "Ġsub": 2396,
      "Ġdoing": 2397,
      "Ġactivity": 2398,
      "Ġgoing": 2399,
      "ĠEncoura": 2400,
      "Ġtwo": 2401,
      "Ġlit": 2402,
      "Ġlive": 2403,
      "ored": 2404,
      "ĠOne": 2405,
      "Ġincreased": 2406,
      "Ġslow": 2407,
      "ift": 2408,
      "new": 2409,
      "Ġcareer": 2410,
      "Ġglob": 2411,
      "Ġdemand": 2412,
      "Ġprivacy": 2413,
      "Ġboundaries": 2414,
      "Ġtable": 2415,
      "atives": 2416,
      "Ġgreater": 2417,
      "Ġcomplet": 2418,
      "Ġhistory": 2419,
      "Ġtim": 2420,
      "Ġforms": 2421,
      "ffic": 2422,
      "Ġfrust": 2423,
      "Ġconnection": 2424,
      "Ġtransportation": 2425,
      "00": 2426,
      "time": 2427,
      "Ġsolutions": 2428,
      "ouse": 2429,
      "Ġbatter": 2430,
      "Ġregard": 2431,
      "Ġcontribute": 2432,
      "Ġhealthcare": 2433,
      "Ġincorporating": 2434,
      "Ġexpectations": 2435,
      "Ġacademic": 2436,
      "cip": 2437,
      "gy": 2438,
      "Ġadvantage": 2439,
      "Ġaffordable": 2440,
      "Ġhigher": 2441,
      "de": 2442,
      "Ġwarm": 2443,
      "Ġant": 2444,
      "Ġsearch": 2445,
      "Ġchallenge": 2446,
      "Ġpurp": 2447,
      "Ġbo": 2448,
      "ising": 2449,
      "ording": 2450,
      "Ġproblems": 2451,
      "Ġassociated": 2452,
      "Ġquestion": 2453,
      "Ġtransl": 2454,
      "Ġveget": 2455,
      "Ġbig": 2456,
      "Ġnav": 2457,
      "Ġher": 2458,
      "Ġsym": 2459,
      "eric": 2460,
      "ĠSo": 2461,
      "ĠComm": 2462,
      "lications": 2463,
      "Ġfull": 2464,
      "Ġdistractions": 2465,
      "Ġparents": 2466,
      "ined": 2467,
      "Ġoce": 2468,
      "Ġaltern": 2469,
      "Ġissue": 2470,
      "Ġpurch": 2471,
      "Ġpieces": 2472,
      "Ġmoment": 2473,
      "Ġput": 2474,
      "Ġarg": 2475,
      "Ġdiversity": 2476,
      "Ġreason": 2477,
      "Ġseason": 2478,
      "Ġopportunity": 2479,
      "Ġlaw": 2480,
      "mosp": 2481,
      "Ġcra": 2482,
      "Ġmix": 2483,
      "ops": 2484,
      "Ġlect": 2485,
      "agram": 2486,
      "ĠTV": 2487,
      "Ġinfluence": 2488,
      "itors": 2489,
      "Ġfair": 2490,
      "Ġweight": 2491,
      "Ġevalu": 2492,
      "Ġpartners": 2493,
      "Ġstaying": 2494,
      "Ġfreedom": 2495,
      "ium": 2496,
      "rip": 2497,
      "Ġer": 2498,
      "ĠSocial": 2499,
      "ĠMind": 2500,
      "Ġpeace": 2501,
      "Ġresults": 2502,
      "ĠCol": 2503,
      "Ġjo": 2504,
      "aged": 2505,
      "odcast": 2506,
      "Ġinterested": 2507,
      "Ġexciting": 2508,
      "Ġbackg": 2509,
      "Ġefficient": 2510,
      "10": 2511,
      "Ġathlet": 2512,
      "Ġcases": 2513,
      "Ġinstead": 2514,
      "Ġnature": 2515,
      "Ġsometimes": 2516,
      "Ġcalm": 2517,
      "Ġcompletely": 2518,
      "ystem": 2519,
      "ression": 2520,
      "ĠRed": 2521,
      "Ġwilling": 2522,
      "Ġcompetitive": 2523,
      "Ġmovie": 2524,
      "Ġvideo": 2525,
      "Ġsatis": 2526,
      "Ġhabit": 2527,
      "con": 2528,
      "Ġgoal": 2529,
      "Ġparticularly": 2530,
      "Ġappropriate": 2531,
      "ery": 2532,
      "ĠCre": 2533,
      "ĠInstagram": 2534,
      "Ġconstruct": 2535,
      "Ġelements": 2536,
      "rating": 2537,
      "Ġair": 2538,
      "oud": 2539,
      "Ġorigin": 2540,
      "Ġseems": 2541,
      "Ġatmosp": 2542,
      "Ġdeveloping": 2543,
      "Ġbelieve": 2544,
      "Ġaccountable": 2545,
      "ĠSu": 2546,
      "Ġguidance": 2547,
      "Ġdoesn": 2548,
      "Ġrecognize": 2549,
      "Ġinit": 2550,
      "icial": 2551,
      "Ġred": 2552,
      "Ġfoods": 2553,
      "rim": 2554,
      "itut": 2555,
      "ocking": 2556,
      "aches": 2557,
      "Ġconservation": 2558,
      "Ġseek": 2559,
      "Ġconflict": 2560,
      "by": 2561,
      "ians": 2562,
      "ĠTra": 2563,
      "Ġnext": 2564,
      "ĠGood": 2565,
      "Ġsmo": 2566,
      "Ġsimilar": 2567,
      "Ġrelevant": 2568,
      "gle": 2569,
      "Ġuses": 2570,
      "porary": 2571,
      "Ġlimit": 2572,
      "ĠAmeric": 2573,
      "Ġpodcast": 2574,
      "Ġgrap": 2575,
      "Ġopinion": 2576,
      "Ġorganization": 2577,
      "Ġinvolve": 2578,
      "ently": 2579,
      "Ġheard": 2580,
      "Ġusually": 2581,
      "Ġcool": 2582,
      "Ġcourse": 2583,
      "Ġmar": 2584,
      "Ġlif": 2585,
      "Ġhair": 2586,
      "Ġadditional": 2587,
      "Ġincorporate": 2588,
      "Ġproblem": 2589,
      "face": 2590,
      "ores": 2591,
      "til": 2592,
      "wer": 2593,
      "Ġtou": 2594,
      "Ġschedule": 2595,
      "go": 2596,
      "gar": 2597,
      "rated": 2598,
      "Ġloss": 2599,
      "Ġvol": 2600,
      "fully": 2601,
      "Ġdamage": 2602,
      "Ġpredict": 2603,
      "Ġbattery": 2604,
      "Ġwild": 2605,
      "Ġhot": 2606,
      "Ġgreen": 2607,
      "Ġallowing": 2608,
      "Ġstudying": 2609,
      "Ġpatient": 2610,
      "Ġinvestment": 2611,
      "Ġimpacts": 2612,
      "Ġsauce": 2613,
      "Ġsweet": 2614,
      "Ġglobal": 2615,
      "yle": 2616,
      "het": 2617,
      "Ġworkout": 2618,
      "Ġstarted": 2619,
      "Ġsmartw": 2620,
      "hent": 2621,
      "Ġfost": 2622,
      "ption": 2623,
      "ĠEng": 2624,
      "ĠProv": 2625,
      "Ġbiases": 2626,
      "Ġcombination": 2627,
      "Ġsessions": 2628,
      "Ġans": 2629,
      "Ġheav": 2630,
      "ĠAt": 2631,
      "Ġregions": 2632,
      "Ġadvanced": 2633,
      "Ġinternet": 2634,
      "Ġmoral": 2635,
      "Ġterms": 2636,
      "ĠIm": 2637,
      "Ġbeauty": 2638,
      "Ġultimately": 2639,
      "onest": 2640,
      "uth": 2641,
      "Ġteach": 2642,
      "Ġcourses": 2643,
      "Ġmoney": 2644,
      "chit": 2645,
      "Ġemail": 2646,
      "Ġdepend": 2647,
      "Ġvisualization": 2648,
      "Ġfitness": 2649,
      "co": 2650,
      "set": 2651,
      "rect": 2652,
      "Ġsl": 2653,
      "iring": 2654,
      "Ġupd": 2655,
      "Ġproductivity": 2656,
      "ĠStay": 2657,
      "Ġexcell": 2658,
      "Ġlimited": 2659,
      "Ġdifferences": 2660,
      "Ġaccurate": 2661,
      "gor": 2662,
      "inations": 2663,
      "asons": 2664,
      "ĠSe": 2665,
      "osystem": 2666,
      "Ġrelaxation": 2667,
      "iation": 2668,
      "pr": 2669,
      "Ġcas": 2670,
      "atches": 2671,
      "erve": 2672,
      "itation": 2673,
      "Ġmachine": 2674,
      "Ġdesigns": 2675,
      "Ġaccessible": 2676,
      "Ġchanging": 2677,
      "Ġresponsible": 2678,
      "Ġfamil": 2679,
      "Ġpressure": 2680,
      "Ġquickly": 2681,
      "Ġfall": 2682,
      "Ġlower": 2683,
      "duc": 2684,
      "Ġground": 2685,
      "Ġeco": 2686,
      "Ġguided": 2687,
      "Ġconflicts": 2688,
      "Ġdifference": 2689,
      "Ġphotography": 2690,
      "au": 2691,
      "oad": 2692,
      "itual": 2693,
      "Ġnorm": 2694,
      "ĠSc": 2695,
      "Ġvirtual": 2696,
      "ĠRes": 2697,
      "Ġskin": 2698,
      "Ġdelic": 2699,
      "Ġhistor": 2700,
      "Ġagainst": 2701,
      "ĠCreate": 2702,
      "nam": 2703,
      "oor": 2704,
      "Ġexist": 2705,
      "ellig": 2706,
      "Ġcapt": 2707,
      "Ġbenefit": 2708,
      "Ġvideos": 2709,
      "Ġtouch": 2710,
      "sis": 2711,
      "ince": 2712,
      "Ġrenew": 2713,
      "antum": 2714,
      "ibr": 2715,
      "Ġstudent": 2716,
      "Ġlonger": 2717,
      "ricult": 2718,
      "chitect": 2719,
      "side": 2720,
      "Ġoil": 2721,
      "ified": 2722,
      "Ġchann": 2723,
      "Ġinde": 2724,
      "Ġevidence": 2725,
      "Ġstarting": 2726,
      "Ġecosystem": 2727,
      "Ġfilters": 2728,
      "Ġthought": 2729,
      "Ġconversation": 2730,
      "Ġtherapy": 2731,
      "gorith": 2732,
      "While": 2733,
      "ipp": 2734,
      "Ġlands": 2735,
      "Ġconduct": 2736,
      "ĠHe": 2737,
      "Ġproduction": 2738,
      "gers": 2739,
      "mon": 2740,
      "rate": 2741,
      "Ġcall": 2742,
      "ancing": 2743,
      "ury": 2744,
      "Ġremain": 2745,
      "Ġauthent": 2746,
      "ĠMindful": 2747,
      "ext": 2748,
      "Ġaid": 2749,
      "Ġchoices": 2750,
      "Ġappear": 2751,
      "Ġoffering": 2752,
      "Ġentertain": 2753,
      "Ġtexture": 2754,
      "Ġequip": 2755,
      "ĠCommun": 2756,
      "af": 2757,
      "whel": 2758,
      "Ġvery": 2759,
      "Ġsolution": 2760,
      "Ġdiet": 2761,
      "Ġvoice": 2762,
      "Ġbrain": 2763,
      "Ġprojects": 2764,
      "Ġcollaboration": 2765,
      "ek": 2766,
      "Ġbold": 2767,
      "ulation": 2768,
      "Ġalgorith": 2769,
      "Ġrice": 2770,
      "Ġovercome": 2771,
      "Ġdesigners": 2772,
      "Ġgradu": 2773,
      "ufact": 2774,
      "wit": 2775,
      "Ġsong": 2776,
      "Ġdone": 2777,
      "ules": 2778,
      "Ġsharing": 2779,
      "pend": 2780,
      "Ġnews": 2781,
      "Ġoverwhel": 2782,
      "Ġscen": 2783,
      "Ġassign": 2784,
      "Ġfeature": 2785,
      "However": 2786,
      "sh": 2787,
      "Ġunivers": 2788,
      "Ġneeded": 2789,
      "Ġprocesses": 2790,
      "Ġmaintaining": 2791,
      "Ġpolicy": 2792,
      "Ġreligious": 2793,
      "Ġmonitor": 2794,
      "Tok": 2795,
      "ring": 2796,
      "rics": 2797,
      "unte": 2798,
      "Ġsociet": 2799,
      "Ġminimize": 2800,
      "Ġcontinu": 2801,
      "Ġsunr": 2802,
      "ikTok": 2803,
      "Ġequipment": 2804,
      "Ġsource": 2805,
      "Ġmist": 2806,
      "Ġdest": 2807,
      "Ġhour": 2808,
      "ĠAf": 2809,
      "Ġstudies": 2810,
      "Ġcover": 2811,
      "Ġstandards": 2812,
      "bon": 2813,
      "Ġcir": 2814,
      "izes": 2815,
      "Ġunder": 2816,
      "Ġspir": 2817,
      "Ġreport": 2818,
      "Ġgenerally": 2819,
      "Ġstrategy": 2820,
      "inating": 2821,
      "ĠTikTok": 2822,
      "opp": 2823,
      "ĠSm": 2824,
      "Ġtruth": 2825,
      "Ġnotes": 2826,
      "Ġrelated": 2827,
      "Ġpartner": 2828,
      "Ġrespond": 2829,
      "Ġsmaller": 2830,
      "Ġprofessionals": 2831,
      "Ġtrend": 2832,
      "Ġobjective": 2833,
      "ĠQ": 2834,
      "Ġfab": 2835,
      "imal": 2836,
      "abilities": 2837,
      "ready": 2838,
      "Ġreliable": 2839,
      "Ġexcellent": 2840,
      "Ġcasual": 2841,
      "fall": 2842,
      "atory": 2843,
      "Ġlast": 2844,
      "iful": 2845,
      "Ġalready": 2846,
      "Ġcultiv": 2847,
      "Ġshowc": 2848,
      "Ġ20": 2849,
      "ĠEncourage": 2850,
      ",\"": 2851,
      "Ġhead": 2852,
      "Ġselect": 2853,
      "Ġspread": 2854,
      "Ġblack": 2855,
      "Ġassess": 2856,
      "Ġmeasure": 2857,
      "Ġreceive": 2858,
      "Ġwa": 2859,
      "Ġdark": 2860,
      "elines": 2861,
      "Ġpersonalized": 2862,
      "Ġadding": 2863,
      "Ġexcited": 2864,
      "has": 2865,
      "Ġfu": 2866,
      "Ġlat": 2867,
      "ĠTr": 2868,
      "Ġaddition": 2869,
      "Ġbeautiful": 2870,
      "Ġsmartphones": 2871,
      "Ġscientific": 2872,
      "ots": 2873,
      "Ġhear": 2874,
      "indness": 2875,
      "Ġmanufact": 2876,
      "Ġcamera": 2877,
      "ĠCheck": 2878,
      "Ġatmosphere": 2879,
      "Ġfurther": 2880,
      "room": 2881,
      "ibilities": 2882,
      "sole": 2883,
      "Ġfeels": 2884,
      "Ġmovements": 2885,
      "uracy": 2886,
      "ciples": 2887,
      "hor": 2888,
      "ators": 2889,
      "ishing": 2890,
      "Ġtracking": 2891,
      "Ġemphas": 2892,
      "Ġbreathing": 2893,
      "Ġhabits": 2894,
      "Ġbecoming": 2895,
      "Ġlandsc": 2896,
      "uild": 2897,
      "Ġob": 2898,
      "vert": 2899,
      "Ġintro": 2900,
      "Ġriver": 2901,
      "Ġcontext": 2902,
      "Ġuntil": 2903,
      "Ġhealthier": 2904,
      "Ġ19": 2905,
      "Ġcosts": 2906,
      "Ġregulations": 2907,
      "Ġaway": 2908,
      "ching": 2909,
      "ott": 2910,
      "Ġstra": 2911,
      "Ġrespectful": 2912,
      "Ġocc": 2913,
      "Ġdraw": 2914,
      "app": 2915,
      "Ġsize": 2916,
      "ams": 2917,
      "Ġmeditations": 2918,
      "ĠAdd": 2919,
      "Ġmeaningful": 2920,
      "Ġsmooth": 2921,
      "Th": 2922,
      "Ġcase": 2923,
      "Ġfoot": 2924,
      "aken": 2925,
      "Ġcreated": 2926,
      "Ġprinciples": 2927,
      "ĠInstead": 2928,
      "Ġcomputer": 2929,
      "Ġcou": 2930,
      "arr": 2931,
      "oogle": 2932,
      "Ġinterv": 2933,
      "Ġphotos": 2934,
      "tings": 2935,
      "ator": 2936,
      "Ġey": 2937,
      "Ġshap": 2938,
      "Ġreson": 2939,
      "Ġlanguages": 2940,
      "ĠGoogle": 2941,
      "Ġarchitect": 2942,
      "Ġanalysis": 2943,
      "Ġengagement": 2944,
      "Ġcirc": 2945,
      "iol": 2946,
      "tics": 2947,
      "Ġwond": 2948,
      "Ġaccuracy": 2949,
      "Ġinvesting": 2950,
      "Ġsmartphone": 2951,
      "Ġcorrect": 2952,
      "elligence": 2953,
      "tra": 2954,
      "Ġfarm": 2955,
      "ĠDis": 2956,
      "aur": 2957,
      "enue": 2958,
      "Ġmatter": 2959,
      "Ġimage": 2960,
      "Ġappe": 2961,
      "Ġfries": 2962,
      "Ġnumber": 2963,
      "Ġtemperature": 2964,
      "Ġrenewable": 2965,
      "Ġhis": 2966,
      "Ġstructure": 2967,
      "Ġwhite": 2968,
      "Ġagricult": 2969,
      "Ġtopics": 2970,
      "ĠTherefore": 2971,
      "Ġimmers": 2972,
      "Ġaspects": 2973,
      "Ġbit": 2974,
      "Ġbook": 2975,
      "ĠTo": 2976,
      "Ġitems": 2977,
      "ĠSee": 2978,
      "Ġtried": 2979,
      "ological": 2980,
      "ender": 2981,
      "Ġathletic": 2982,
      "book": 2983,
      "gra": 2984,
      "Ġheart": 2985,
      "Ġrecommended": 2986,
      "Ġeasily": 2987,
      "Ġdevice": 2988,
      "Ġlarger": 2989,
      "Ġchannels": 2990,
      "Ġcup": 2991,
      "Ġtoday": 2992,
      "oost": 2993,
      "oosing": 2994,
      "ification": 2995,
      "Ġtechnique": 2996,
      "Ġseeking": 2997,
      "ĠNet": 2998,
      "ĠReg": 2999,
      "Ġfully": 3000,
      "Ġinteractive": 3001,
      "Ġblazer": 3002,
      "kindness": 3003,
      "eries": 3004,
      "Ġwalking": 3005,
      "Ġlack": 3006,
      "irm": 3007,
      "Ġmood": 3008,
      "Ġmeat": 3009,
      "Ġevent": 3010,
      "Ġhumans": 3011,
      "Ġcritic": 3012,
      "Ġmovement": 3013,
      "Ġestablish": 3014,
      ".\"": 3015,
      "Ġeat": 3016,
      "Ġrecent": 3017,
      "Ġaccording": 3018,
      "ĠYoga": 3019,
      "Ġblocking": 3020,
      "Ġbias": 3021,
      "Ġextra": 3022,
      "Ġrestaur": 3023,
      "Ġlecture": 3024,
      "Ġpack": 3025,
      "Ġconclus": 3026,
      "Ġcountry": 3027,
      "Ġcarbon": 3028,
      "Ġconsumers": 3029,
      "Ġactively": 3030,
      "Ġanimals": 3031,
      "cies": 3032,
      "li": 3033,
      "land": 3034,
      "ane": 3035,
      "Ġwid": 3036,
      "Ġstake": 3037,
      "Ġpoll": 3038,
      "Ġtourism": 3039,
      "Ġforecast": 3040,
      "Ġjourney": 3041,
      "Ġinclusive": 3042,
      "Ġsing": 3043,
      "itable": 3044,
      "estiv": 3045,
      "Ġtend": 3046,
      "ĠPr": 3047,
      "ĠDes": 3048,
      "ĠEduc": 3049,
      "aving": 3050,
      "play": 3051,
      "Ġspeed": 3052,
      "oyal": 3053,
      "Ġhomework": 3054,
      "Ġloving": 3055,
      "):": 3056,
      "po": 3057,
      "Ġage": 3058,
      "ont": 3059,
      "iced": 3060,
      "Ġded": 3061,
      "omen": 3062,
      "Ġhonest": 3063,
      "urt": 3064,
      "Ġexpert": 3065,
      "Ġcolle": 3066,
      "Ġadvoc": 3067,
      "Ġinstitut": 3068,
      "Ġdiscrim": 3069,
      "Ġstret": 3070,
      "Ġrevenue": 3071,
      "Ġhandle": 3072,
      "Ġmessage": 3073,
      "Ġschools": 3074,
      "aj": 3075,
      "Ġi": 3076,
      "Ġcrop": 3077,
      "Ġbar": 3078,
      "Ġrely": 3079,
      "ĠMus": 3080,
      "Ġharmful": 3081,
      "Ġpurpose": 3082,
      "Ġhistorical": 3083,
      "ai": 3084,
      "onse": 3085,
      "Ġdid": 3086,
      "Ġdry": 3087,
      "aren": 3088,
      "ĠMed": 3089,
      "Ġanything": 3090,
      "ĠFind": 3091,
      "Ġautom": 3092,
      "Ġconcepts": 3093,
      "Ġbroad": 3094,
      "Ġstick": 3095,
      "Ġexpos": 3096,
      "ĠPe": 3097,
      "Ġacknow": 3098,
      "ĠEar": 3099,
      "Ġapplications": 3100,
      "Ġrecip": 3101,
      "Ġbeginners": 3102,
      "aves": 3103,
      "Ġediting": 3104,
      "Ġviewers": 3105,
      "Ġguidelines": 3106,
      "Ġhyd": 3107,
      "Ġiniti": 3108,
      "crip": 3109,
      "ged": 3110,
      "rong": 3111,
      "Ġmob": 3112,
      "oph": 3113,
      "Ġshoes": 3114,
      "Ġconfident": 3115,
      "Ġprinting": 3116,
      "force": 3117,
      "Ġexpenses": 3118,
      "Ġstakehold": 3119,
      "arency": 3120,
      "anies": 3121,
      "Ġmit": 3122,
      "Ġfans": 3123,
      "Ġstories": 3124,
      "Ġconsole": 3125,
      "Ġled": 3126,
      "Ġworkplace": 3127,
      "ĠOff": 3128,
      "Ġentire": 3129,
      "Ġjourn": 3130,
      "Ġflexibility": 3131,
      "Ġanalyze": 3132,
      "Ġalgorithms": 3133,
      "med": 3134,
      "Ġsince": 3135,
      "icy": 3136,
      "ilt": 3137,
      "ĠAc": 3138,
      "Ġalong": 3139,
      "iency": 3140,
      "Ġprice": 3141,
      "Ġassist": 3142,
      "Ġdetail": 3143,
      "issions": 3144,
      "Ġfruit": 3145,
      "aign": 3146,
      "Ġinj": 3147,
      "Ġshape": 3148,
      "ended": 3149,
      "Ġhighly": 3150,
      "Ġbasic": 3151,
      "Ġanswer": 3152,
      "Ġlatest": 3153,
      "inct": 3154,
      "Ġdeb": 3155,
      "Ġvot": 3156,
      "Ġhelping": 3157,
      "ĠFin": 3158,
      "Ġpreference": 3159,
      "olutely": 3160,
      "Ġachieving": 3161,
      "comp": 3162,
      "yond": 3163,
      "ĠâĢ": 3164,
      "ork": 3165,
      "Ġstat": 3166,
      "ution": 3167,
      "Ġdeveloped": 3168,
      "Ġwearing": 3169,
      "coming": 3170,
      "Ġalternative": 3171,
      "chers": 3172,
      "Ġble": 3173,
      "Ġloyal": 3174,
      "ray": 3175,
      "raid": 3176,
      "Ġemb": 3177,
      "Ġscience": 3178,
      "Ġfocusing": 3179,
      "Ġseries": 3180,
      "Ġfrustrating": 3181,
      "Ultimately": 3182,
      "Ġcity": 3183,
      "Ġcod": 3184,
      "eration": 3185,
      "Ġlay": 3186,
      "Ġchains": 3187,
      "Ġseem": 3188,
      "Ġacqu": 3189,
      "Ġexperts": 3190,
      "Ġpractical": 3191,
      "ĠStud": 3192,
      "Ġresponse": 3193,
      "Ġmonitoring": 3194,
      "Ġsunset": 3195,
      "Ġmilk": 3196,
      "Ġadvancements": 3197,
      "Ġoccas": 3198,
      "Ġobs": 3199,
      "ulate": 3200,
      "ĠAnd": 3201,
      "Ġchoosing": 3202,
      "ief": 3203,
      "Ġmedical": 3204,
      "Ġconsult": 3205,
      "Ġbright": 3206,
      "ĠAsk": 3207,
      "Ġmotivation": 3208,
      "Ġglad": 3209,
      "Ġafraid": 3210,
      "Ġearly": 3211,
      "ĠArt": 3212,
      "Ġreputation": 3213,
      "Ġcampaign": 3214,
      "Ġwildlife": 3215,
      "cious": 3216,
      "Ġtaken": 3217,
      "Ġban": 3218,
      "Ġonce": 3219,
      "Ġintelligence": 3220,
      "Ġactually": 3221,
      "Ġdishes": 3222,
      "ĠExper": 3223,
      "Ġsession": 3224,
      "Ġsnacks": 3225,
      "Ġvegetables": 3226,
      "Ġocean": 3227,
      "Ġsunrise": 3228,
      "lish": 3229,
      "Ġ7": 3230,
      "Ġbooks": 3231,
      "Ġreasons": 3232,
      "Ġthing": 3233,
      "igation": 3234,
      "Ġoutside": 3235,
      "Ġuseful": 3236,
      "Ġpopularity": 3237,
      "Ġsettings": 3238,
      "ĠVis": 3239,
      "Ġcarefully": 3240,
      "nother": 3241,
      "Ġwebsites": 3242,
      "Ġteacher": 3243,
      "Ġimplementing": 3244,
      "Ġsummary": 3245,
      "Ġbaggy": 3246,
      "Ġtranslation": 3247,
      "part": 3248,
      "Ġdram": 3249,
      "Ġpersonality": 3250,
      "Ġplayers": 3251,
      "rench": 3252,
      "Ġconversations": 3253,
      "ĠCompanies": 3254,
      "Ġfasc": 3255,
      "Ġparks": 3256,
      "Ġgradually": 3257,
      "Ġcard": 3258,
      "Ġmat": 3259,
      "Ġdy": 3260,
      "Ġliving": 3261,
      "chan": 3262,
      "uly": 3263,
      "ived": 3264,
      "Ġintu": 3265,
      "Ġplant": 3266,
      "apan": 3267,
      "Ġtopic": 3268,
      "Ġwonder": 3269,
      "ĠSeek": 3270,
      "hics": 3271,
      "itions": 3272,
      "Ġboost": 3273,
      "Ġbeyond": 3274,
      "ĠSomet": 3275,
      "Ġhelped": 3276,
      "oreover": 3277,
      "iction": 3278,
      "Ġdelicious": 3279,
      "ĠEarth": 3280,
      "bol": 3281,
      "Ġtone": 3282,
      "Ġturn": 3283,
      "Ġlist": 3284,
      "Ġimages": 3285,
      "ĠMar": 3286,
      "ĠWh": 3287,
      "iled": 3288,
      "ĠListen": 3289,
      "Ġcomplement": 3290,
      "Ġcomplete": 3291,
      "rame": 3292,
      "Ġgenerate": 3293,
      "Ġpoints": 3294,
      "Ġconstant": 3295,
      "Ġelse": 3296,
      "yc": 3297,
      "Ġtal": 3298,
      "Ġpush": 3299,
      "Ġviol": 3300,
      "Ġoutd": 3301,
      "Ġoutcom": 3302,
      "Ġqual": 3303,
      "Ġinterpre": 3304,
      "Ġfriend": 3305,
      "Ġguide": 3306,
      "ĠJapan": 3307,
      "Ġsurround": 3308,
      "board": 3309,
      "Ġsecure": 3310,
      "Ġecosystems": 3311,
      "Ġoutcomes": 3312,
      "load": 3313,
      "ises": 3314,
      "ung": 3315,
      "Ġimag": 3316,
      "Ġtraditions": 3317,
      "Ġimproved": 3318,
      "ension": 3319,
      "Ġoccur": 3320,
      "ronic": 3321,
      "Ġwidely": 3322,
      "Ġaim": 3323,
      "ina": 3324,
      "Ġsil": 3325,
      "Ġfat": 3326,
      "imin": 3327,
      "iding": 3328,
      "Ġconferen": 3329,
      "Ġresistance": 3330,
      "Ġplays": 3331,
      "Ġje": 3332,
      "Ġscreen": 3333,
      "ĠOr": 3334,
      "Ġrob": 3335,
      "Ġvalid": 3336,
      "Ġbrew": 3337,
      "Ġparticipate": 3338,
      "Ġproduce": 3339,
      "Ġentertainment": 3340,
      "Ġmistakes": 3341,
      "Ġspiritual": 3342,
      "uis": 3343,
      "Ġmass": 3344,
      "Ġforg": 3345,
      "iration": 3346,
      "ĠCreat": 3347,
      "Ġmanaging": 3348,
      "chnology": 3349,
      "Ġroad": 3350,
      "Ġconnections": 3351,
      "Ġcheese": 3352,
      "Ġmemory": 3353,
      "Ġrequirements": 3354,
      "Ġclothes": 3355,
      "Ġnetworks": 3356,
      "Ġlaws": 3357,
      "Ġstakeholders": 3358,
      "ĠSometimes": 3359,
      "),": 3360,
      "bing": 3361,
      "lines": 3362,
      "Ġill": 3363,
      "orn": 3364,
      "Ġhost": 3365,
      "Ġshift": 3366,
      "illing": 3367,
      "Ġprim": 3368,
      "Ġauthor": 3369,
      "esearch": 3370,
      "Ġmountain": 3371,
      "hetic": 3372,
      "Ġauthentic": 3373,
      "iors": 3374,
      "Ġmiss": 3375,
      "Ġdays": 3376,
      "Ġland": 3377,
      "Ġnight": 3378,
      "oty": 3379,
      "otics": 3380,
      "Ġsugar": 3381,
      "urance": 3382,
      "Ġabs": 3383,
      "Ġthemes": 3384,
      "ifications": 3385,
      "Ġensuring": 3386,
      "Ġshown": 3387,
      "ube": 3388,
      "Ġdiscover": 3389,
      "Ġanalytics": 3390,
      "Ġbeginner": 3391,
      "Ġwatching": 3392,
      "Ġadoption": 3393,
      "Ġrainfall": 3394,
      "ĠAtt": 3395,
      "Ġinstitutions": 3396,
      "cient": 3397,
      "person": 3398,
      "vent": 3399,
      "Ġsour": 3400,
      "Ġmaj": 3401,
      "Ġmoist": 3402,
      "Ġheat": 3403,
      "Ġtruly": 3404,
      "Ġsports": 3405,
      "Ġleader": 3406,
      "Ġformal": 3407,
      "Ġreading": 3408,
      "Ġvolunte": 3409,
      "onst": 3410,
      "Ġfestiv": 3411,
      "oles": 3412,
      "olving": 3413,
      "Ġexpand": 3414,
      "Ġspeak": 3415,
      "Ġdisrupt": 3416,
      "Ġprint": 3417,
      "Ġaccom": 3418,
      "Ġplayl": 3419,
      "istency": 3420,
      "Ġcompetitors": 3421,
      "Ġmessages": 3422,
      "ĠPlay": 3423,
      "Ġfascinating": 3424,
      "hens": 3425,
      "Ġenable": 3426,
      "Ġcloud": 3427,
      "Ġroom": 3428,
      "Ġconcern": 3429,
      "Ġviews": 3430,
      "Ġkindness": 3431,
      "ĠLearn": 3432,
      "aw": 3433,
      "cers": 3434,
      "iking": 3435,
      "ĠZ": 3436,
      "Ġtut": 3437,
      "Ġtail": 3438,
      "Ġtax": 3439,
      "Ġexh": 3440,
      "Ġenc": 3441,
      "ĠFrench": 3442,
      "Ġquantum": 3443,
      "ensive": 3444,
      "Ġinstall": 3445,
      "Ġremind": 3446,
      "Ġtask": 3447,
      "Ġrecognition": 3448,
      "Ġstruggle": 3449,
      "Ġproperly": 3450,
      "Ġfoster": 3451,
      "cks": 3452,
      "of": 3453,
      "Ġtast": 3454,
      "itate": 3455,
      "Ġmi": 3456,
      "Ġwalk": 3457,
      "Ġdura": 3458,
      "utral": 3459,
      "ĠAre": 3460,
      "Ġdeal": 3461,
      "ĠBre": 3462,
      "ificial": 3463,
      "Ġkeeping": 3464,
      "Ġplaying": 3465,
      "ried": 3466,
      "Ġconsumer": 3467,
      "Ġmajor": 3468,
      "overy": 3469,
      "ument": 3470,
      "icate": 3471,
      "Ġadvert": 3472,
      "ĠWe": 3473,
      "Ġmuscle": 3474,
      "ĠNew": 3475,
      "Ġsave": 3476,
      "Ġexploring": 3477,
      "ĠAmaz": 3478,
      "Ġcommitment": 3479,
      "Ġconclusion": 3480,
      "cles": 3481,
      "me": 3482,
      "Ġcit": 3483,
      "Ġacid": 3484,
      "Ġconnected": 3485,
      "ĠJo": 3486,
      "Ġlighting": 3487,
      "Ġtransparency": 3488,
      "Ġsatell": 3489,
      "Ġstatement": 3490,
      "Ġsymbol": 3491,
      "Ġsongs": 3492,
      "Ġjeans": 3493,
      "more": 3494,
      "onic": 3495,
      "oration": 3496,
      "Ġreplace": 3497,
      "Ġforums": 3498,
      "rounds": 3499,
      "Ġinstance": 3500,
      "Ġplanning": 3501,
      "Ġserious": 3502,
      "Ġliter": 3503,
      "Ġregardless": 3504,
      "Ġevaluate": 3505,
      "Ġoriginal": 3506,
      "going": 3507,
      "ĠProvide": 3508,
      "Ġindepend": 3509,
      "Ad": 3510,
      "uro": 3511,
      "Ġsam": 3512,
      "Ġmut": 3513,
      "illed": 3514,
      "Ġnational": 3515,
      "ials": 3516,
      "Ġrise": 3517,
      "Ġclos": 3518,
      "Ġmeal": 3519,
      "Ġmechan": 3520,
      "ĠStar": 3521,
      "Ġserved": 3522,
      "Ġengaged": 3523,
      "Ġsubjective": 3524,
      "Ġlandscape": 3525,
      "Ġintrodu": 3526,
      "ĠMusic": 3527,
      "If": 3528,
      "fl": 3529,
      "vest": 3530,
      "arily": 3531,
      "aster": 3532,
      "Ġgender": 3533,
      "Ġorder": 3534,
      "Ġrich": 3535,
      "Ġincent": 3536,
      "iences": 3537,
      "ĠWatch": 3538,
      "Ġcontrast": 3539,
      "Ġregion": 3540,
      "Ġeffectiveness": 3541,
      "Ġblue": 3542,
      "Ġcompetition": 3543,
      "Ġconsumption": 3544,
      "Ġdeeper": 3545,
      "Ġnavigate": 3546,
      "Ġhours": 3547,
      "ĠAmazon": 3548,
      "20": 3549,
      "aff": 3550,
      "put": 3551,
      "icro": 3552,
      "Ġrein": 3553,
      "Ġtrip": 3554,
      "Ġplaces": 3555,
      "Ġrecyc": 3556,
      "Ġspend": 3557,
      "Ġparts": 3558,
      "Ġaccessories": 3559,
      "Ġbeneficial": 3560,
      "Ġaccountability": 3561,
      "Ġeconomy": 3562,
      "Ġversat": 3563,
      "Ġargue": 3564,
      "ĠSupport": 3565,
      "ĠâĢĵ": 3566,
      "ding": 3567,
      "Ġcoc": 3568,
      "Ġsus": 3569,
      "Ġpand": 3570,
      "outh": 3571,
      "ĠCelebr": 3572,
      "Ġposition": 3573,
      "ĠOverall": 3574,
      "aper": 3575,
      "Ġbuildings": 3576,
      "Ġlaun": 3577,
      "Ġrealistic": 3578,
      "Ġmessaging": 3579,
      "Ġinspiration": 3580,
      "Ġexpensive": 3581,
      "Ġdiscrimination": 3582,
      "hips": 3583,
      "Ġcuis": 3584,
      "Ġge": 3585,
      "Ġongoing": 3586,
      "Ġexcess": 3587,
      "Ġrivers": 3588,
      "ĠBra": 3589,
      "pected": 3590,
      "Ġmyself": 3591,
      "Ġsupportive": 3592,
      "ĠCont": 3593,
      "lusive": 3594,
      "Ġcapture": 3595,
      "Ġimmersive": 3596,
      "For": 3597,
      "ec": 3598,
      "rel": 3599,
      "head": 3600,
      "Ġcross": 3601,
      "Ġmatch": 3602,
      "Ġwin": 3603,
      "Ġste": 3604,
      "Ġconven": 3605,
      "Ġprocessing": 3606,
      "Ġgenres": 3607,
      "Ġconfidence": 3608,
      "Ġfamous": 3609,
      "Ġsurvey": 3610,
      "Ġlifest": 3611,
      "ĠiP": 3612,
      "Ġmitigate": 3613,
      "Ġcert": 3614,
      "itivity": 3615,
      "Ġreward": 3616,
      "ĠId": 3617,
      "Ġalone": 3618,
      "osition": 3619,
      "ĠResearch": 3620,
      "Ġmindset": 3621,
      "Ġwhole": 3622,
      "Ġfilter": 3623,
      "Ġtesting": 3624,
      "Ġtreatment": 3625,
      "Ġefficiency": 3626,
      "urthermore": 3627,
      "Ġstrengths": 3628,
      "otyp": 3629,
      "gen": 3630,
      "Ġsect": 3631,
      "ana": 3632,
      "Ġfa": 3633,
      "Ġfail": 3634,
      "Ġgiving": 3635,
      "uration": 3636,
      "Ġcompre": 3637,
      "ĠBuild": 3638,
      "Ġjack": 3639,
      "Ġcredit": 3640,
      "Ġbranding": 3641,
      "Ġeverything": 3642,
      "Ġgrowing": 3643,
      "Ġleadership": 3644,
      "Ġfamilies": 3645,
      "Ġeye": 3646,
      "tation": 3647,
      "Ġwrong": 3648,
      "Ġgather": 3649,
      "ird": 3650,
      "Ġnear": 3651,
      "ests": 3652,
      "formation": 3653,
      "Ġsole": 3654,
      "Ġsupporting": 3655,
      "ĠBefore": 3656,
      "Ġpath": 3657,
      "Ġaudiences": 3658,
      "Ġmemor": 3659,
      "Ġemployee": 3660,
      "Ġtextures": 3661,
      "Ġprepare": 3662,
      "Ġrunning": 3663,
      "ĠUnited": 3664,
      "Ġfaster": 3665,
      "Ġoverwhelming": 3666,
      "Ġwait": 3667,
      "Ġinitiatives": 3668,
      "ps": 3669,
      "telling": 3670,
      "urb": 3671,
      "Ġleather": 3672,
      "Ġrules": 3673,
      "ĠYour": 3674,
      "Ġapproaches": 3675,
      "Ġdemonst": 3676,
      "Ġemerging": 3677,
      "Ġpasswor": 3678,
      "Ġerr": 3679,
      "Ġconstructive": 3680,
      "bi": 3681,
      "sc": 3682,
      "Ġsw": 3683,
      "imate": 3684,
      "Ġcompared": 3685,
      "Ġrecord": 3686,
      "erts": 3687,
      "Ġpotentially": 3688,
      "ternal": 3689,
      "Ġinteractions": 3690,
      "Ġsolid": 3691,
      "Ġflexible": 3692,
      "Ġpurchase": 3693,
      "Ġintuition": 3694,
      "Ġball": 3695,
      "ĠWrit": 3696,
      "Ġquiet": 3697,
      "Ġwriters": 3698,
      "Ġpurs": 3699,
      "Ġbehaviors": 3700,
      "Ġdecide": 3701,
      "Ġfulf": 3702,
      "Ġimplemented": 3703,
      "ĠEmp": 3704,
      "Ġmanufacture": 3705,
      "Is": 3706,
      "Ġir": 3707,
      "Ġut": 3708,
      "Ġwind": 3709,
      "Ġwines": 3710,
      "Ġyoung": 3711,
      "Ġnarr": 3712,
      "Ġstore": 3713,
      "Ġstores": 3714,
      "ffect": 3715,
      "inked": 3716,
      "Ġprofile": 3717,
      "Ġparticipants": 3718,
      "faction": 3719,
      "Ġpeaceful": 3720,
      "Ġteaching": 3721,
      "Ġshowcase": 3722,
      "Ġpandemic": 3723,
      "Ġcomprehens": 3724,
      "mat": 3725,
      "man": 3726,
      "Ġcut": 3727,
      "Ġine": 3728,
      "Ġreact": 3729,
      "ths": 3730,
      "Ġemissions": 3731,
      "Ġdesk": 3732,
      "Ġparties": 3733,
      "Ġpercept": 3734,
      "Ġartwork": 3735,
      "Ġprote": 3736,
      "Ġbalanced": 3737,
      "Ġcombinations": 3738,
      "Ġcomputing": 3739,
      "ĠOnline": 3740,
      "Ġmobile": 3741,
      "BT": 3742,
      "the": 3743,
      "une": 3744,
      "Ġteas": 3745,
      "Ġwords": 3746,
      "Ġresolution": 3747,
      "ĠGet": 3748,
      "Ġprices": 3749,
      "duction": 3750,
      "Ġmention": 3751,
      "Ġinternational": 3752,
      "ĠDevelop": 3753,
      "Ġbackgrounds": 3754,
      "Ġpodcasts": 3755,
      "You": 3756,
      "ios": 3757,
      "Ġneutral": 3758,
      "ĠMe": 3759,
      "Ġcontact": 3760,
      "Ġenjoyable": 3761,
      "Ġdiscussions": 3762,
      "Ġcelebrate": 3763,
      "Ġexisting": 3764,
      "Ġcultivate": 3765,
      "ĠRegular": 3766,
      "ĠIdent": 3767,
      "ply": 3768,
      "orage": 3769,
      "emporary": 3770,
      "istics": 3771,
      "Ġrate": 3772,
      "ĠWars": 3773,
      "Ġoptimize": 3774,
      "Ġsigns": 3775,
      "iversity": 3776,
      "Ġblock": 3777,
      "Ġshared": 3778,
      "Ġinspire": 3779,
      "Ġdiscussion": 3780,
      "Ġcyber": 3781,
      "Ġnetworking": 3782,
      "Ġsatisf": 3783,
      "Ġsmartwatches": 3784,
      "opping": 3785,
      "ĠDesign": 3786,
      "bl": 3787,
      "hood": 3788,
      "Ġic": 3789,
      "Ġtalk": 3790,
      "Ġcand": 3791,
      "Ġbeans": 3792,
      "ifically": 3793,
      "unning": 3794,
      "ĠBrit": 3795,
      "Ġunc": 3796,
      "Ġcreates": 3797,
      "ography": 3798,
      "Ġdirectly": 3799,
      "Ġpropert": 3800,
      "Ġfunction": 3801,
      "Ġtablets": 3802,
      "Ġbackground": 3803,
      "cript": 3804,
      "compassion": 3805,
      "To": 3806,
      "Ġpa": 3807,
      "Ġbase": 3808,
      "eling": 3809,
      "Ġcondition": 3810,
      "Ġhands": 3811,
      "Ġintent": 3812,
      "ĠMan": 3813,
      "ĠRiver": 3814,
      "Ġcontain": 3815,
      "Ġblog": 3816,
      "Ġmentor": 3817,
      "ĠYouT": 3818,
      "Ġaddressing": 3819,
      "Ġmeeting": 3820,
      "Ġburger": 3821,
      "Ġsatisfaction": 3822,
      "ĠAmerican": 3823,
      "ĠExperiment": 3824,
      "Ġcuisine": 3825,
      "19": 3826,
      "kay": 3827,
      "icip": 3828,
      "Ġthreat": 3829,
      "Ġhar": 3830,
      "Ġconvey": 3831,
      "Ġadvis": 3832,
      "weight": 3833,
      "Ġphr": 3834,
      "Ġplayed": 3835,
      "Ġprotection": 3836,
      "Ġexpression": 3837,
      "ĠBlack": 3838,
      "Ġinfluenced": 3839,
      "fficient": 3840,
      "anks": 3841,
      "Ġframe": 3842,
      "Ġdead": 3843,
      "Ġru": 3844,
      "ogue": 3845,
      "ellow": 3846,
      "Ġtrade": 3847,
      "Ġmuse": 3848,
      "Ġrock": 3849,
      "Ġvisit": 3850,
      "Ġ10": 3851,
      "Ġbehind": 3852,
      "Ġstorytelling": 3853,
      "Ġreasoning": 3854,
      "Ġcolleag": 3855,
      "ĠYouTube": 3856,
      "ĠX": 3857,
      "Ġtension": 3858,
      "inks": 3859,
      "erous": 3860,
      "Ġfish": 3861,
      "Ġdoc": 3862,
      "eless": 3863,
      "ades": 3864,
      "Ġleave": 3865,
      "astic": 3866,
      "Ġclients": 3867,
      "Ġmeals": 3868,
      "Ġcolon": 3869,
      "Ġdise": 3870,
      "ĠNational": 3871,
      "Ġdistribut": 3872,
      "Ġrequired": 3873,
      "Ġexpected": 3874,
      "Ġsummer": 3875,
      "Ġloved": 3876,
      "Ġsunsets": 3877,
      "known": 3878,
      "Ġattending": 3879,
      "Ġfunctional": 3880,
      "Ġsocietal": 3881,
      "Ġexpertise": 3882,
      "Ġacknowledge": 3883,
      "Ġtutor": 3884,
      "Ġversatile": 3885,
      "ĠIdentify": 3886,
      "Abs": 3887,
      "ony": 3888,
      "Ġcooking": 3889,
      "ank": 3890,
      "Ġpun": 3891,
      "owl": 3892,
      "Ġstruct": 3893,
      "amp": 3894,
      "uries": 3895,
      "Ġcompat": 3896,
      "Ġcomprom": 3897,
      "Ġtraffic": 3898,
      "Ġspicy": 3899,
      "Ġartic": 3900,
      "Ġimprovement": 3901,
      "Ġconcent": 3902,
      "Ġexplain": 3903,
      "ĠAss": 3904,
      "Ġpairing": 3905,
      "Ġmountains": 3906,
      "Ġlittle": 3907,
      "Ġnorms": 3908,
      "Ġcampaigns": 3909,
      "par": 3910,
      "ening": 3911,
      "Ġrates": 3912,
      "Ġclient": 3913,
      "Ġexams": 3914,
      "Ġproductive": 3915,
      "ensity": 3916,
      "Ġeducational": 3917,
      "Ġcertainly": 3918,
      "Ġworksh": 3919,
      "Ġfrequ": 3920,
      "Ġserve": 3921,
      "Ġhappy": 3922,
      "Ġemergency": 3923,
      "ĠCollabor": 3924,
      "ĠVisual": 3925,
      "Ġadvertising": 3926,
      "Ġmanufacturer": 3927,
      "dle": 3928,
      "Ġpow": 3929,
      "icated": 3930,
      "Ġstaff": 3931,
      "Ġalt": 3932,
      "ĠCal": 3933,
      "ĠPay": 3934,
      "ĠPerson": 3935,
      "Ġabilities": 3936,
      "Ġweek": 3937,
      "Ġconsoles": 3938,
      "ĠGam": 3939,
      "Ġspecies": 3940,
      "Ġinfrast": 3941,
      "Ġcarry": 3942,
      "ĠPeople": 3943,
      "Ġdetails": 3944,
      "Ġloyalty": 3945,
      "Ġtalent": 3946,
      "ĠBritish": 3947,
      "Ġinfrastructure": 3948,
      "ech": 3949,
      "Ġciv": 3950,
      "Ġrelying": 3951,
      "Ġgar": 3952,
      "oll": 3953,
      "ereotyp": 3954,
      "Ġchick": 3955,
      "ĠUsing": 3956,
      "Ġartificial": 3957,
      "Ġroll": 3958,
      "Ġsimply": 3959,
      "Ġtransparent": 3960,
      "Ġtemporary": 3961,
      "ĠImpro": 3962,
      "Ġdynam": 3963,
      "Ġaccompl": 3964,
      "Ġlifestyle": 3965,
      "Absolutely": 3966,
      "mar": 3967,
      "sy": 3968,
      "oms": 3969,
      "ĠAct": 3970,
      "ĠSim": 3971,
      "ĠMount": 3972,
      "ressive": 3973,
      "ĠUS": 3974,
      "Ġstylish": 3975,
      "Ġmentors": 3976,
      "ĠRead": 3977,
      "Ġaccounts": 3978,
      "Ġpiece": 3979,
      "ĠQu": 3980,
      "Ġpollution": 3981,
      "Ġcomprehensive": 3982,
      "Are": 3983,
      "top": 3984,
      "ying": 3985,
      "Ġdess": 3986,
      "Ġdances": 3987,
      "Ġline": 3988,
      "Ġstage": 3989,
      "ocks": 3990,
      "Ġspecifically": 3991,
      "aps": 3992,
      "Ġcontinues": 3993,
      "Ġsuccessfully": 3994,
      "Ġtherapist": 3995,
      "ĠTrans": 3996,
      "Ġsingle": 3997,
      "hol": 3998,
      "vable": 3999,
      "view": 4000,
      "Ġside": 4001,
      "Ġovers": 4002,
      "Ġdial": 4003,
      "Ġthr": 4004,
      "Ġgiven": 4005,
      "Ġchain": 4006,
      "Ġweak": 4007,
      "Ġpersonally": 4008,
      "erving": 4009,
      "wear": 4010,
      "Ġassum": 4011,
      "Ġpatience": 4012,
      "Ġprotecting": 4013,
      "Ġteams": 4014,
      "Ġcleaning": 4015,
      "Ġcris": 4016,
      "Ġlimitations": 4017,
      "Ġupdates": 4018,
      "Ġappearance": 4019,
      "Ġdrama": 4020,
      "aim": 4021,
      "bal": 4022,
      "min": 4023,
      "Ġarom": 4024,
      "Ġcities": 4025,
      "anch": 4026,
      "eng": 4027,
      "Ġwider": 4028,
      "Ġname": 4029,
      "Ġassistance": 4030,
      "Ġsignificantly": 4031,
      "Ġavoiding": 4032,
      "Ġdecre": 4033,
      "Ġcauses": 4034,
      "Ġelectric": 4035,
      "print": 4036,
      "Ġagriculture": 4037,
      "Ġprimary": 4038,
      "ffective": 4039,
      "kle": 4040,
      "inger": 4041,
      "Ġburn": 4042,
      "Ġgall": 4043,
      "Ġstorage": 4044,
      "Ġfeet": 4045,
      "asting": 4046,
      "Ġrecovery": 4047,
      "Ġbuilt": 4048,
      "Ġresponses": 4049,
      "Ġpriorities": 4050,
      "Ġglass": 4051,
      "Ġcapabilities": 4052,
      "Ġfruits": 4053,
      "Ġplaylists": 4054,
      "One": 4055,
      "ler": 4056,
      "Ġcook": 4057,
      "Ġbeach": 4058,
      "Ġforward": 4059,
      "Ġvast": 4060,
      "Ġresource": 4061,
      "ĠPh": 4062,
      "Ġweb": 4063,
      "Ġclar": 4064,
      "ruit": 4065,
      "Ġarise": 4066,
      "nesses": 4067,
      "Ġattack": 4068,
      "wareness": 4069,
      "Ġpromotes": 4070,
      "Ġclassroom": 4071,
      "Ġexperienced": 4072,
      "Ġrelease": 4073,
      "Ġfields": 4074,
      "Ġsupply": 4075,
      "Ġgraphics": 4076,
      "ĠEngage": 4077,
      "Ġcontinuous": 4078,
      "Ġoutdoor": 4079,
      "Ġmemorable": 4080,
      "Ġworkshops": 4081,
      "books": 4082,
      "house": 4083,
      "ivery": 4084,
      "then": 4085,
      "Ġmen": 4086,
      "Ġdiv": 4087,
      "ils": 4088,
      "eth": 4089,
      "ĠSal": 4090,
      "Ġusage": 4091,
      "ĠHigh": 4092,
      "Ġshopping": 4093,
      "oses": 4094,
      "Ġju": 4095,
      "Ġcontemporary": 4096,
      "Ġconsidering": 4097,
      "ĠJust": 4098,
      "Ġresponsibilities": 4099,
      "Ġcommonly": 4100,
      "Ġgovernments": 4101,
      "Ġreputable": 4102,
      "Ġvoting": 4103,
      "Ġcitiz": 4104,
      "Ġmentioned": 4105,
      "Moreover": 4106,
      "oa": 4107,
      "rist": 4108,
      "aters": 4109,
      "Ġtopp": 4110,
      "Ġokay": 4111,
      "ised": 4112,
      "eds": 4113,
      "rown": 4114,
      "Ġexternal": 4115,
      "Ġdealing": 4116,
      "osed": 4117,
      "althy": 4118,
      "Ġtechnological": 4119,
      "ĠStates": 4120,
      "Ġcalming": 4121,
      "Ġcurious": 4122,
      "Ġdrink": 4123,
      "Ġreligion": 4124,
      "Ġprepared": 4125,
      "ĠIncre": 4126,
      "Ġsmartwatch": 4127,
      "cohol": 4128,
      "Ġfabric": 4129,
      "Ġinterview": 4130,
      "ĠAttend": 4131,
      "Ġmoisture": 4132,
      "che": 4133,
      "iar": 4134,
      "ream": 4135,
      "Ġcop": 4136,
      "Ġple": 4137,
      "Ġpict": 4138,
      "vere": 4139,
      "enty": 4140,
      "own": 4141,
      "ĠSk": 4142,
      "Ġvital": 4143,
      "Ġleast": 4144,
      "Ġresil": 4145,
      "ĠGu": 4146,
      "Ġsaid": 4147,
      "Ġideal": 4148,
      "Ġexperiencing": 4149,
      "ishment": 4150,
      "Ġprovided": 4151,
      "Ġachieved": 4152,
      "Ġprogramming": 4153,
      "Ġrepresentation": 4154,
      "Ġtablet": 4155,
      "Ġfarmers": 4156,
      "Ġrestaurants": 4157,
      "Ġconstantly": 4158,
      "Ġcolleagues": 4159,
      "sych": 4160,
      "oir": 4161,
      "Ġtur": 4162,
      "Ġsac": 4163,
      "atures": 4164,
      "Ġfan": 4165,
      "Ġrepe": 4166,
      "Ġbeers": 4167,
      "Ġsubs": 4168,
      "ateful": 4169,
      "Ġcompon": 4170,
      "Ġprovider": 4171,
      "Ġconscious": 4172,
      "ĠUnd": 4173,
      "ĠOther": 4174,
      "works": 4175,
      "Ġadded": 4176,
      "Ġhighlight": 4177,
      "Ġinsight": 4178,
      "ups": 4179,
      "Ġnovel": 4180,
      "Ġcommitted": 4181,
      "ĠOnce": 4182,
      "Ġnutrit": 4183,
      "Ġcriticism": 4184,
      "Ġexposure": 4185,
      "Ġjournal": 4186,
      "Ġiconic": 4187,
      "cent": 4188,
      "jud": 4189,
      "ugment": 4190,
      "Ġahead": 4191,
      "athy": 4192,
      "ouds": 4193,
      "ental": 4194,
      "Ġnu": 4195,
      "ĠCustom": 4196,
      "izz": 4197,
      "Ġworry": 4198,
      "ĠPart": 4199,
      "ĠPark": 4200,
      "odies": 4201,
      "Ġspeech": 4202,
      "Ġgoes": 4203,
      "Ġmusicians": 4204,
      "intage": 4205,
      "Ġdetect": 4206,
      "Ġrestric": 4207,
      "Ġdelivery": 4208,
      "Ġcapable": 4209,
      "ĠAlso": 4210,
      "Ġaccurately": 4211,
      "Ġcaused": 4212,
      "Ġscientists": 4213,
      "Ġoperations": 4214,
      "Ġheavy": 4215,
      "Ġbarri": 4216,
      "Ġstatus": 4217,
      "cer": 4218,
      "taking": 4219,
      "Ġ8": 4220,
      "eria": 4221,
      "Ġbowl": 4222,
      "Ġstunning": 4223,
      "ĠSams": 4224,
      "ĠCo": 4225,
      "Ġanyone": 4226,
      "ĠWater": 4227,
      "ags": 4228,
      "Ġspeaking": 4229,
      "Ġdisplay": 4230,
      "Ġadvent": 4231,
      "Ġoptim": 4232,
      "backs": 4233,
      "Ġprevious": 4234,
      "Ġphoto": 4235,
      "Ġextre": 4236,
      "ĠShare": 4237,
      "Ġprints": 4238,
      "Ġsoul": 4239,
      "Ġsensitive": 4240,
      "lighten": 4241,
      "Ġincreasingly": 4242,
      "Ġperiods": 4243,
      "Ġworkouts": 4244,
      "Ġprotein": 4245,
      "ereotypes": 4246,
      "Ġdialogue": 4247,
      "ĠSamsung": 4248,
      ").": 4249,
      "Some": 4250,
      "lay": 4251,
      "pite": 4252,
      "Ġshe": 4253,
      "Ġfits": 4254,
      "Ġthree": 4255,
      "Ġsuper": 4256,
      "ably": 4257,
      "ĠSur": 4258,
      "Ġsea": 4259,
      "ĠMon": 4260,
      "Ġsoil": 4261,
      "Ġposes": 4262,
      "ĠOver": 4263,
      "Ġartist": 4264,
      "Ġresear": 4265,
      "Ġpotat": 4266,
      "Ġremote": 4267,
      "Ġorganized": 4268,
      "Ġconsiderations": 4269,
      "Ġchem": 4270,
      "Ġexclusive": 4271,
      "Ġgrateful": 4272,
      "Ġhardware": 4273,
      "Ġcollaborate": 4274,
      "Ġlogical": 4275,
      "Ġblazers": 4276,
      "Ġbuying": 4277,
      "Ġshaping": 4278,
      "Ġstructures": 4279,
      "Ġcivil": 4280,
      "fit": 4281,
      "sp": 4282,
      "Ġpal": 4283,
      "encies": 4284,
      "Ġfight": 4285,
      "lev": 4286,
      "arian": 4287,
      "irts": 4288,
      "Ġsuits": 4289,
      "mental": 4290,
      "Ġvibr": 4291,
      "aced": 4292,
      "ĠHum": 4293,
      "Ġplenty": 4294,
      "Ġdiscip": 4295,
      "Ġvision": 4296,
      "Ġfactor": 4297,
      "ĠEnjoy": 4298,
      "Ġstandard": 4299,
      "ĠPlan": 4300,
      "Ġheavily": 4301,
      "Ġcouns": 4302,
      "Ġarchitecture": 4303,
      "ĠNetfl": 4304,
      "Additionally": 4305,
      "Ġsample": 4306,
      "Ġsolely": 4307,
      "ĠNetflix": 4308,
      "makers": 4309,
      "Ġsav": 4310,
      "att": 4311,
      "Ġmill": 4312,
      "usion": 4313,
      "ĠFr": 4314,
      "Ġlocations": 4315,
      "axy": 4316,
      "Ġsalad": 4317,
      "overn": 4318,
      "Ġfacil": 4319,
      "Ġbecomes": 4320,
      "ĠAfter": 4321,
      "ĠAfric": 4322,
      "Ġfootprint": 4323,
      "Ġdedicated": 4324,
      "Ġembra": 4325,
      "Ġindependent": 4326,
      "On": 4327,
      "irus": 4328,
      "Ġankle": 4329,
      "ptions": 4330,
      "ĠRef": 4331,
      "Ġworkers": 4332,
      "Ġbelieved": 4333,
      "ĠBeing": 4334,
      "Ġraise": 4335,
      "Ġstronger": 4336,
      "Ġcomputers": 4337,
      "ewel": 4338,
      "Ġcausing": 4339,
      "Ġjudgment": 4340,
      "Ġevolve": 4341,
      "Ġassignments": 4342,
      "Ġjacket": 4343,
      "lightenment": 4344,
      "free": 4345,
      "iated": 4346,
      "lass": 4347,
      "inated": 4348,
      "Ġdi": 4349,
      "ulations": 4350,
      "ĠPre": 4351,
      "ibly": 4352,
      "ĠFollow": 4353,
      "Ġconsistency": 4354,
      "Ġpositivity": 4355,
      "Ġgamers": 4356,
      "Ġourselves": 4357,
      "Ġallowed": 4358,
      "Ġclassical": 4359,
      "Ġachievable": 4360,
      "Ġfinal": 4361,
      "Ġbringing": 4362,
      "ĠIntern": 4363,
      "Ġdepression": 4364,
      "Ġsympt": 4365,
      "ipping": 4366,
      "ugmented": 4367,
      "But": 4368,
      "Ġmail": 4369,
      "Ġtot": 4370,
      "Ġold": 4371,
      "Ġhiking": 4372,
      "Ġnerv": 4373,
      "ceed": 4374,
      "Ġdeg": 4375,
      "Ġdeath": 4376,
      "Ġresist": 4377,
      "ĠGal": 4378,
      "ommod": 4379,
      "Ġwellbeing": 4380,
      "ĠNot": 4381,
      "Ġmarkets": 4382,
      "ĠKnow": 4383,
      "itudes": 4384,
      "Ġanalyzing": 4385,
      "witch": 4386,
      "Ġfestivals": 4387,
      "Ġrecycled": 4388,
      "Ġz": 4389,
      "Ġapart": 4390,
      "Ġpaper": 4391,
      "Ġfar": 4392,
      "Ġopp": 4393,
      "ision": 4394,
      "Ġep": 4395,
      "Ġancient": 4396,
      "verage": 4397,
      "ĠBusiness": 4398,
      "agn": 4399,
      "Ġunex": 4400,
      "ĠGr": 4401,
      "Ġsched": 4402,
      "Ġdevelopers": 4403,
      "Ġfocuses": 4404,
      "Ġinstru": 4405,
      "Ġengine": 4406,
      "Ġnecessarily": 4407,
      "Ġstrengthen": 4408,
      "Ġdepth": 4409,
      "Ġoceans": 4410,
      "Ġfabrics": 4411,
      "Ġresonates": 4412,
      "ophistic": 4413,
      "lier": 4414,
      "solving": 4415,
      "Ġsand": 4416,
      "Ġsophistic": 4417,
      "ley": 4418,
      "oman": 4419,
      "ette": 4420,
      "ute": 4421,
      "Ġchance": 4422,
      "Ġheld": 4423,
      "Ġpepp": 4424,
      "Ġtransform": 4425,
      "Ġsurface": 4426,
      "Ġvehic": 4427,
      "Ġcollaborative": 4428,
      "Ġprivate": 4429,
      "Ġanimal": 4430,
      "Ġconstruction": 4431,
      "ĠOffer": 4432,
      "inkedIn": 4433,
      "Ġresearchers": 4434,
      "ched": 4435,
      "dr": 4436,
      "wide": 4437,
      "Ġpants": 4438,
      "Ġwomen": 4439,
      "Ġlater": 4440,
      "ilos": 4441,
      "ullying": 4442,
      "ultural": 4443,
      "ĠDr": 4444,
      "ĠWor": 4445,
      "Ġdesired": 4446,
      "Ġaccommod": 4447,
      "Ġreduced": 4448,
      "Ġgenre": 4449,
      "Ġenvironmentally": 4450,
      "ognitive": 4451,
      "Ġcalled": 4452,
      "Ġresulting": 4453,
      "Ġmeets": 4454,
      "Ġfrequen": 4455,
      "Ġobjectives": 4456,
      "ĠTeac": 4457,
      "Ġcycle": 4458,
      "Ġestablished": 4459,
      "Ġmargin": 4460,
      "Ġliterature": 4461,
      "ĠCelebrate": 4462,
      "crib": 4463,
      "ither": 4464,
      "oub": 4465,
      "Ġwon": 4466,
      "Ġbus": 4467,
      "iddle": 4468,
      "ĠEuro": 4469,
      "Ġclouds": 4470,
      "Ġofficial": 4471,
      "Ġcred": 4472,
      "Ġroles": 4473,
      "Ġguess": 4474,
      "Ġrevolution": 4475,
      "Ġtextbooks": 4476,
      "Ġsaying": 4477,
      "Ġacceptance": 4478,
      "Ġevolved": 4479,
      "Ġcircum": 4480,
      "iminate": 4481,
      "Ġsymptoms": 4482,
      "Ġaest": 4483,
      "Ġtough": 4484,
      "Ġcere": 4485,
      "isms": 4486,
      "Ġlab": 4487,
      "Ġlibr": 4488,
      "Ġonto": 4489,
      "stances": 4490,
      "ĠSchool": 4491,
      "Ġcompare": 4492,
      "ĠMix": 4493,
      "ĠWear": 4494,
      "Ġtrain": 4495,
      "ĠLinkedIn": 4496,
      "Ġincred": 4497,
      "Ġgenerations": 4498,
      "Ġmining": 4499,
      "Ġrouter": 4500,
      "Ġconsume": 4501,
      "Ġholding": 4502,
      "ĠAny": 4503,
      "Ġimmed": 4504,
      "ĠTechnology": 4505,
      "Ġfaced": 4506,
      "Ġreturn": 4507,
      "Ġoneself": 4508,
      "box": 4509,
      "Ġslowly": 4510,
      "Ġcrops": 4511,
      "Ġexhib": 4512,
      "Ġcocoa": 4513,
      "ĠGalaxy": 4514,
      "ded": 4515,
      "zy": 4516,
      "itary": 4517,
      "Ġpul": 4518,
      "Ġcoming": 4519,
      "amm": 4520,
      "abil": 4521,
      "Ġleaves": 4522,
      "inded": 4523,
      "Ġnotice": 4524,
      "Ġplants": 4525,
      "Ġjewel": 4526,
      "Ġbutter": 4527,
      "Ġmuscles": 4528,
      "Ġenvironments": 4529,
      "Ġphilos": 4530,
      "Ġremove": 4531,
      "Ġminim": 4532,
      "Ġdiffer": 4533,
      "Ġclimbing": 4534,
      "Ġsubjects": 4535,
      "Ġappreciation": 4536,
      "Ġsecond": 4537,
      "Ġaligns": 4538,
      "Ġsocieties": 4539,
      "otton": 4540,
      "Ġappeal": 4541,
      "Ġcode": 4542,
      "ĠJapanese": 4543,
      "Ġutil": 4544,
      "Ġphrases": 4545,
      "Ġburnout": 4546,
      "Int": 4547,
      "dy": 4548,
      "date": 4549,
      "alized": 4550,
      "icking": 4551,
      "Ġdate": 4552,
      "Ġhun": 4553,
      "Ġgent": 4554,
      "Ġforget": 4555,
      "Ġstereotypes": 4556,
      "ado": 4557,
      "ĠMicro": 4558,
      "Ġabuse": 4559,
      "ump": 4560,
      "ĠWest": 4561,
      "soft": 4562,
      "ĠFace": 4563,
      "ĠEns": 4564,
      "Ġapply": 4565,
      "Ġtechnical": 4566,
      "Ġuns": 4567,
      "Ġcreation": 4568,
      "Ġinterns": 4569,
      "Ġavailability": 4570,
      "Ġdemoc": 4571,
      "Ġtests": 4572,
      "ĠAnaly": 4573,
      "Ġreflection": 4574,
      "Ġcenters": 4575,
      "Ġcrime": 4576,
      "Ġconsistently": 4577,
      "ĠHealth": 4578,
      "Ġbroader": 4579,
      "ĠFinally": 4580,
      "Ġpassword": 4581,
      "Ġtutorials": 4582,
      "Ġdynamic": 4583,
      "Ġrestrict": 4584,
      "Here": 4585,
      "ailed": 4586,
      "ht": 4587,
      "Ġbrow": 4588,
      "Ġden": 4589,
      "ĠAll": 4590,
      "ĠSpe": 4591,
      "ĠRep": 4592,
      "ĠInvest": 4593,
      "Ġlearned": 4594,
      "Ġsupports": 4595,
      "Ġitself": 4596,
      "Ġsets": 4597,
      "Ġminimal": 4598,
      "ĠReality": 4599,
      "Ġpossibilities": 4600,
      "Ġdownload": 4601,
      "Ġsalt": 4602,
      "Ġclearly": 4603,
      "Ġequal": 4604,
      "Ġforeign": 4605,
      "Ġtimeless": 4606,
      "Ġincentives": 4607,
      "Ġcompromise": 4608,
      "Ġpowder": 4609,
      "Ġunexpected": 4610,
      "Ġceremon": 4611,
      "fol": 4612,
      "Ġslight": 4613,
      "leg": 4614,
      "Ġvintage": 4615,
      "acity": 4616,
      "ills": 4617,
      "Ġincome": 4618,
      "Ġdish": 4619,
      "ĠUs": 4620,
      "cise": 4621,
      "Ġperce": 4622,
      "Ġstreet": 4623,
      "Ġorganize": 4624,
      "Ġaudio": 4625,
      "Ġplanet": 4626,
      "Ġdeeply": 4627,
      "Ġrelaxed": 4628,
      "Ġdeliver": 4629,
      "Ġregulation": 4630,
      "Ġstruggling": 4631,
      "Ġpurposes": 4632,
      "Ġaccordingly": 4633,
      "Ġforecasting": 4634,
      "Ġinjury": 4635,
      "related": 4636,
      "Ġnarrative": 4637,
      "Ġchicken": 4638,
      "ĠMicrosoft": 4639,
      "GBT": 4640,
      "uff": 4641,
      "where": 4642,
      "Ġver": 4643,
      "Ġcry": 4644,
      "oun": 4645,
      "Ġpace": 4646,
      "Ġfix": 4647,
      "Ġfund": 4648,
      "Ġwel": 4649,
      "Ġasking": 4650,
      "una": 4651,
      "ocal": 4652,
      "ĠCent": 4653,
      "Ġsepar": 4654,
      "ght": 4655,
      "Ġwellness": 4656,
      "Ġbecame": 4657,
      "Ġsignificance": 4658,
      "Ġdowns": 4659,
      "Ġwrite": 4660,
      "Ġfilm": 4661,
      "Ġencourages": 4662,
      "Ġrelaxing": 4663,
      "Ġdistracted": 4664,
      "Ġpayment": 4665,
      "Ġburgers": 4666,
      "Ġtemperatures": 4667,
      "ĠIncorpor": 4668,
      "Ġassumptions": 4669,
      "Ġcrisp": 4670,
      "Ġgalleries": 4671,
      "Ġcitizens": 4672,
      "ĠTeachers": 4673,
      "ĠEurope": 4674,
      "avery": 4675,
      "den": 4676,
      "minded": 4677,
      "water": 4678,
      "zen": 4679,
      "Ġduration": 4680,
      "otic": 4681,
      "ifting": 4682,
      "ĠAg": 4683,
      "Ġmanner": 4684,
      "ĠFe": 4685,
      "Ġdifferentiate": 4686,
      "ĠLangu": 4687,
      "Ġcold": 4688,
      "Ġorganic": 4689,
      "Ġphysically": 4690,
      "Ġmotivate": 4691,
      "Ġreaders": 4692,
      "Ġaffected": 4693,
      "Ġoutfits": 4694,
      "Ġcollection": 4695,
      "Ġinstructions": 4696,
      "Ġregarding": 4697,
      "Ġbox": 4698,
      "ĠRedu": 4699,
      "Ġhabitats": 4700,
      "ĠCommunication": 4701,
      "Ġbrewing": 4702,
      "Ġswim": 4703,
      "like": 4704,
      "Ġcognitive": 4705,
      "oral": 4706,
      "Ġpark": 4707,
      "ushing": 4708,
      "Ġgre": 4709,
      "ulner": 4710,
      "style": 4711,
      "Ġintense": 4712,
      "ĠLGBT": 4713,
      "ĠNe": 4714,
      "xture": 4715,
      "Ġvisitors": 4716,
      "arma": 4717,
      "Ġdistinct": 4718,
      "Ġrefres": 4719,
      "Ġtextbook": 4720,
      "Ġsoundtra": 4721,
      "Ġencouraging": 4722,
      "exic": 4723,
      "Ġvalued": 4724,
      "Ġretail": 4725,
      "ĠMarvel": 4726,
      "Ġqualities": 4727,
      "Ġdurable": 4728,
      "Ġbarriers": 4729,
      "Ġcircumstances": 4730,
      "Ġgentle": 4731,
      "Another": 4732,
      "alse": 4733,
      "arge": 4734,
      "Ġeither": 4735,
      "Ġrent": 4736,
      "Ġhob": 4737,
      "idents": 4738,
      "ĠTaking": 4739,
      "Ġsuff": 4740,
      "Ġsuitable": 4741,
      "osing": 4742,
      "alls": 4743,
      "ĠBel": 4744,
      "active": 4745,
      "Ġkit": 4746,
      "Ġimprovements": 4747,
      "Ġdiscount": 4748,
      "Ġdetailed": 4749,
      "Ġmonths": 4750,
      "ĠShow": 4751,
      "Ġtreatments": 4752,
      "Ġreligions": 4753,
      "Ġhappen": 4754,
      "Ġpresence": 4755,
      "Ġportray": 4756,
      "Ġreporting": 4757,
      "Ġfunding": 4758,
      "Ġblend": 4759,
      "Ġforgiveness": 4760,
      "ĠBreak": 4761,
      "Ġjewelry": 4762,
      "Furthermore": 4763,
      "bit": 4764,
      "Ġrap": 4765,
      "erate": 4766,
      "Ġrepl": 4767,
      "Ġreject": 4768,
      "Ġhes": 4769,
      "Ġalcohol": 4770,
      "Ġfear": 4771,
      "illa": 4772,
      "ĠMexic": 4773,
      "ĠEach": 4774,
      "ĠGovern": 4775,
      "ĠLet": 4776,
      "Ġscale": 4777,
      "neur": 4778,
      "Ġaffirm": 4779,
      "Ġeveryday": 4780,
      "Ġinnovations": 4781,
      "Ġbiod": 4782,
      "Ġcomplexity": 4783,
      "ĠExp": 4784,
      "ĠExpl": 4785,
      "Ġearth": 4786,
      "Therefore": 4787,
      "Ġdestination": 4788,
      "Ġdidn": 4789,
      "Ġsurrounding": 4790,
      "Ġdesktop": 4791,
      "Ġarticles": 4792,
      "Ġslightly": 4793,
      "awareness": 4794,
      "oint": 4795,
      "information": 4796,
      "repre": 4797,
      "nder": 4798,
      "Ġmember": 4799,
      "Ġbodies": 4800,
      "lements": 4801,
      "Ġyet": 4802,
      "olve": 4803,
      "acing": 4804,
      "ferent": 4805,
      "ĠDif": 4806,
      "ibi": 4807,
      "asts": 4808,
      "aching": 4809,
      "Ġunhe": 4810,
      "ĠGree": 4811,
      "Ġpopulation": 4812,
      "Ġinterrupt": 4813,
      "tenance": 4814,
      "Ġsignal": 4815,
      "olden": 4816,
      "inese": 4817,
      "Ġinvestments": 4818,
      "Ġnegot": 4819,
      "Ġidentifying": 4820,
      "Ġdrive": 4821,
      "Ġcollective": 4822,
      "Ġearlier": 4823,
      "Ġposts": 4824,
      "understand": 4825,
      "ĠAmerica": 4826,
      "Ġentirely": 4827,
      "Ġconferences": 4828,
      "Ġconvenient": 4829,
      "Ġperception": 4830,
      "Ġfrequently": 4831,
      "ĠEnsure": 4832,
      "repreneur": 4833,
      "Ġcotton": 4834,
      "itor": 4835,
      "ounds": 4836,
      "Ġlines": 4837,
      "Ġhealing": 4838,
      "ĠAnother": 4839,
      "Ġvulner": 4840,
      "Ġchances": 4841,
      "ĠCle": 4842,
      "anges": 4843,
      "Ġplans": 4844,
      "Ġinvent": 4845,
      "ĠNon": 4846,
      "Ġbreaking": 4847,
      "ĠChinese": 4848,
      "Ġinsurance": 4849,
      "Ġfollows": 4850,
      "Ġcolorful": 4851,
      "Ġperformances": 4852,
      "Ġprioritizing": 4853,
      "Ġmeetings": 4854,
      "Ġexpressing": 4855,
      "Ġspecialized": 4856,
      "Ġproducing": 4857,
      "Ġexperimenting": 4858,
      "Ġadvantages": 4859,
      "Ġnormal": 4860,
      "ĠEducation": 4861,
      "Ġcandid": 4862,
      "Ġdisease": 4863,
      "ĠUnderstand": 4864,
      "Ġtotally": 4865,
      "15": 4866,
      "Oh": 4867,
      "fessional": 4868,
      "gest": 4869,
      "uments": 4870,
      "erated": 4871,
      "Ġgas": 4872,
      "olid": 4873,
      "Ġann": 4874,
      "Ġsuit": 4875,
      "storm": 4876,
      "Ġchronic": 4877,
      "Ġenables": 4878,
      "ĠMuse": 4879,
      "agers": 4880,
      "Ġoutcome": 4881,
      "Ġrecruit": 4882,
      "Ġspending": 4883,
      "Ġleads": 4884,
      "Ġstrike": 4885,
      "ographic": 4886,
      "Ġdrinking": 4887,
      "Ġphotographers": 4888,
      "Ġbreaths": 4889,
      "ĠClass": 4890,
      "Ġoperating": 4891,
      "Ġinstructor": 4892,
      "Ġlogic": 4893,
      "Ġinfluencers": 4894,
      "Ġgraphic": 4895,
      "Ġhydrated": 4896,
      "Ġsatellite": 4897,
      "Ġresilience": 4898,
      "Ġfrequency": 4899,
      "ĠLGBTQ": 4900,
      "hus": 4901,
      "pet": 4902,
      "valu": 4903,
      "ze": 4904,
      "Ġsell": 4905,
      "Ġband": 4906,
      "Ġinput": 4907,
      "Ġdom": 4908,
      "rozen": 4909,
      "change": 4910,
      "ids": 4911,
      "Ġpros": 4912,
      "Ġmoving": 4913,
      "izable": 4914,
      "ffe": 4915,
      "ĠBud": 4916,
      "ĠMy": 4917,
      "ĠEven": 4918,
      "Ġspaces": 4919,
      "Ġflu": 4920,
      "Ġremains": 4921,
      "rammar": 4922,
      "Ġbread": 4923,
      "ĠVal": 4924,
      "Ġhumor": 4925,
      "Ġchanged": 4926,
      "Ġcalories": 4927,
      "Ġpaying": 4928,
      "Ġtraveling": 4929,
      "Ġpainting": 4930,
      "Ġmoments": 4931,
      "Ġalternatives": 4932,
      "Ġseasonal": 4933,
      "Ġdestinations": 4934,
      "ĠSmall": 4935,
      "Ġstraight": 4936,
      "Thanks": 4937,
      "ĠLearning": 4938,
      "Ġreinforce": 4939,
      "ĠiPad": 4940,
      "Ġuncertain": 4941,
      "Ġdocument": 4942,
      "ĠPersonal": 4943,
      "Ġchemical": 4944,
      "Ġunhealthy": 4945,
      "Ġcater": 4946,
      "orough": 4947,
      "Ġfalse": 4948,
      "ĠSn": 4949,
      "Ġchat": 4950,
      "Ġsevere": 4951,
      "ĠMay": 4952,
      "ĠWhy": 4953,
      "Ġcontains": 4954,
      "Ġclose": 4955,
      "Ġmedium": 4956,
      "ĠLead": 4957,
      "Ġsoon": 4958,
      "Ġdisp": 4959,
      "Ġworldwide": 4960,
      "ĠRec": 4961,
      "Ġlightweight": 4962,
      "Ġsurv": 4963,
      "Ġdriving": 4964,
      "Ġesc": 4965,
      "Ġequality": 4966,
      "ĠPracticing": 4967,
      "Ġimmune": 4968,
      "Ġlaptops": 4969,
      "Ġpartnership": 4970,
      "Ġefficiently": 4971,
      "ĠMindfulness": 4972,
      "ĠSmart": 4973,
      "Ġappealing": 4974,
      "Ġrestaurant": 4975,
      "Ġmassage": 4976,
      "Ġmixture": 4977,
      "Ġmutual": 4978,
      "Ġmuseums": 4979,
      "Ġmanufacturers": 4980,
      "ĠFacebook": 4981,
      "bility": 4982,
      "iations": 4983,
      "mit": 4984,
      "real": 4985,
      "Ġpsych": 4986,
      "Ġfra": 4987,
      "Ġbands": 4988,
      "Ġbott": 4989,
      "Ġthorough": 4990,
      "eli": 4991,
      "raft": 4992,
      "ĠTim": 4993,
      "Ġexact": 4994,
      "ĠSouth": 4995,
      "Ġdeals": 4996,
      "Ġvict": 4997,
      "ogurt": 4998,
      "Ġsegment": 4999,
      "ĠDuring": 5000,
      "asted": 5001,
      "ĠEst": 5002,
      "Ġclaim": 5003,
      "atively": 5004,
      "Ġgenu": 5005,
      "Ġpositively": 5006,
      "ĠChina": 5007,
      "Ġpattern": 5008,
      "ĠVol": 5009,
      "Ġexploration": 5010,
      "Ġobjects": 5011,
      "Ġforest": 5012,
      "Ġpreserve": 5013,
      "Ġmilitary": 5014,
      "Ġmisunderstand": 5015,
      "ĠProviding": 5016,
      "Ġfamiliar": 5017,
      "ĠDisc": 5018,
      "Ġagricultural": 5019,
      "Ġinterpret": 5020,
      "Ġdemonstrate": 5021,
      "Ġfulfilling": 5022,
      "Ġconcentration": 5023,
      "Ġdiscipline": 5024,
      "ĠInternational": 5025,
      "husi": 5026,
      "bullying": 5027,
      "Ġcrow": 5028,
      "Ġcatch": 5029,
      "Ġpan": 5030,
      "icks": 5031,
      "aro": 5032,
      "aration": 5033,
      "Ġlabor": 5034,
      "iles": 5035,
      "ĠAccess": 5036,
      "Ġimplications": 5037,
      "empt": 5038,
      "ĠPol": 5039,
      "ĠRen": 5040,
      "Ġcoll": 5041,
      "Ġarr": 5042,
      "Ġvisually": 5043,
      "Ġtours": 5044,
      "Ġparticipation": 5045,
      "Ġnumerous": 5046,
      "Ġjoint": 5047,
      "Ġgreenhouse": 5048,
      "Ġslavery": 5049,
      "Ġindeed": 5050,
      "Ġselection": 5051,
      "Ġemphasis": 5052,
      "Ġoccasion": 5053,
      "Ġtailored": 5054,
      "Ġseriously": 5055,
      "Ġsurveys": 5056,
      "Ġnervous": 5057,
      "Ġbusy": 5058,
      "Ġinventory": 5059,
      "pan": 5060,
      "ship": 5061,
      "ug": 5062,
      "Ġsent": 5063,
      "Ġpose": 5064,
      "Ġmax": 5065,
      "Ġtoler": 5066,
      "Ġease": 5067,
      "Ġlens": 5068,
      "Ġisn": 5069,
      "Ġsuc": 5070,
      "anging": 5071,
      "Ġworn": 5072,
      "ĠPlus": 5073,
      "Ġdisord": 5074,
      "Ġdevelopments": 5075,
      "Ġdesigning": 5076,
      "Ġblood": 5077,
      "ĠChrist": 5078,
      "Ġmanageable": 5079,
      "Ġmetrics": 5080,
      "Ġeducators": 5081,
      "Ġempathetic": 5082,
      "Ġcontroll": 5083,
      "Ġevolving": 5084,
      "Ġpurchasing": 5085,
      "ĠReduce": 5086,
      "Ġemails": 5087,
      "Ġstretch": 5088,
      "Ġdeadlines": 5089,
      "Ġcompatibility": 5090,
      "ĠHuman": 5091,
      "Ġmarginalized": 5092,
      "ky": 5093,
      "Ġaugmented": 5094,
      "orative": 5095,
      "Ġet": 5096,
      "Ġretain": 5097,
      "Ġhur": 5098,
      "Ġhouse": 5099,
      "Ġstim": 5100,
      "Ġcompelling": 5101,
      "ĠPC": 5102,
      "ĠWar": 5103,
      "ager": 5104,
      "Ġdisabilities": 5105,
      "Ġadvances": 5106,
      "rought": 5107,
      "forest": 5108,
      "Ġattitudes": 5109,
      "Ġattempt": 5110,
      "Ġprompt": 5111,
      "Ġproviders": 5112,
      "Ġentrepreneur": 5113,
      "ission": 5114,
      "Ġstatements": 5115,
      "Ġscene": 5116,
      "Ġcontinued": 5117,
      "Ġarchitects": 5118,
      "ĠPrior": 5119,
      "ĠCreative": 5120,
      "Ġproperties": 5121,
      "Ġdistribution": 5122,
      "Ġrapid": 5123,
      "Ġmisunderstandings": 5124,
      "cons": 5125,
      "chen": 5126,
      "eem": 5127,
      "effective": 5128,
      "faces": 5129,
      "habil": 5130,
      "ton": 5131,
      "Ġcore": 5132,
      "Ġpassion": 5133,
      "Ġtomat": 5134,
      "Ġearn": 5135,
      "used": 5136,
      "Ġlo": 5137,
      "idge": 5138,
      "ĠTime": 5139,
      "Ġang": 5140,
      "urally": 5141,
      "ocado": 5142,
      "ĠHaving": 5143,
      "ĠThai": 5144,
      "Ġappl": 5145,
      "Ġunf": 5146,
      "Ġoffice": 5147,
      "Ġupcoming": 5148,
      "ference": 5149,
      "Ġcommunicating": 5150,
      "Ġcompleting": 5151,
      "Ġfranch": 5152,
      "Ġconnectivity": 5153,
      "Ġfacts": 5154,
      "Ġgrilled": 5155,
      "Ġenthusi": 5156,
      "arents": 5157,
      "Ġinspired": 5158,
      "Ġdirection": 5159,
      "Ġsupplements": 5160,
      "Ġcentury": 5161,
      "Ġeliminate": 5162,
      "Ġinclusion": 5163,
      "Ġsubst": 5164,
      "Ġlectures": 5165,
      "ipped": 5166,
      "Ġunderlying": 5167,
      "Ġencry": 5168,
      "Ġextreme": 5169,
      "Ġdegree": 5170,
      "Ġvehicles": 5171,
      "Interest": 5172,
      "Ġsucceed": 5173,
      "dem": 5174,
      "equ": 5175,
      "oon": 5176,
      "Ġsne": 5177,
      "Ġmur": 5178,
      "Ġfig": 5179,
      "Ġbir": 5180,
      "Ġdang": 5181,
      "Ġyellow": 5182,
      "ilates": 5183,
      "charge": 5184,
      "Ġexchange": 5185,
      "ĠAR": 5186,
      "ĠCost": 5187,
      "ĠProm": 5188,
      "ĠThat": 5189,
      "Ġcontest": 5190,
      "Ġcommer": 5191,
      "Ġhowever": 5192,
      "ĠGreat": 5193,
      "ĠLim": 5194,
      "ĠLack": 5195,
      "Ġupgra": 5196,
      "Ġunderstandable": 5197,
      "Ġscar": 5198,
      "Ġseeing": 5199,
      "Ġgoods": 5200,
      "Ġowners": 5201,
      "ĠVR": 5202,
      "Ġmetal": 5203,
      "Ġvisualize": 5204,
      "Ġfiles": 5205,
      "Ġfilms": 5206,
      "Ġaddressed": 5207,
      "Ġdemands": 5208,
      "Ġequitable": 5209,
      "Ġcapital": 5210,
      "Ġshorter": 5211,
      "Ġantibi": 5212,
      "Ġjoin": 5213,
      "afood": 5214,
      "Ġmanufacturing": 5215,
      "ĠMeditation": 5216,
      "Ġinjuries": 5217,
      "Ġtastes": 5218,
      "Ġmira": 5219,
      "Ġerrors": 5220,
      "Ġsophisticated": 5221,
      "Ġrefreshing": 5222,
      "Ġaffirmations": 5223,
      "Interesting": 5224,
      "cul": 5225,
      "Ġterm": 5226,
      "Ġcope": 5227,
      "Ġphen": 5228,
      "Ġbul": 5229,
      "Ġegg": 5230,
      "Ġreve": 5231,
      "roid": 5232,
      "Ġgear": 5233,
      "ĠIP": 5234,
      "ows": 5235,
      "olk": 5236,
      "ĠShe": 5237,
      "que": 5238,
      "Ġtrig": 5239,
      "ume": 5240,
      "ionally": 5241,
      "Ġunw": 5242,
      "Ġpeers": 5243,
      "ĠGe": 5244,
      "Ġmusical": 5245,
      "Ġroot": 5246,
      "ĠStr": 5247,
      "iverse": 5248,
      "Ġvaries": 5249,
      "Ġnegatively": 5250,
      "Ġinteraction": 5251,
      "Ġlessons": 5252,
      "Ġamounts": 5253,
      "Ġsolar": 5254,
      "Ġsolve": 5255,
      "ĠInter": 5256,
      "ĠSpot": 5257,
      "Ġwillingness": 5258,
      "Ġobst": 5259,
      "Ġeventually": 5260,
      "Ġrecipes": 5261,
      "Ġirr": 5262,
      "cription": 5263,
      "Ġrule": 5264,
      "ĠPriorit": 5265,
      "habilitation": 5266,
      "Have": 5267,
      "Of": 5268,
      "nov": 5269,
      "eral": 5270,
      "Ġleng": 5271,
      "Ġstability": 5272,
      "Ġherit": 5273,
      "antic": 5274,
      "esteem": 5275,
      "people": 5276,
      "ĠPat": 5277,
      "raction": 5278,
      "Ġmode": 5279,
      "Ġcontex": 5280,
      "Ġmedic": 5281,
      "rug": 5282,
      "ĠGo": 5283,
      "ĠGra": 5284,
      "Ġkept": 5285,
      "Ġensures": 5286,
      "Ġassert": 5287,
      "Ġaccessibility": 5288,
      "Ġcaffe": 5289,
      "Ġconsideration": 5290,
      "Ġgeneration": 5291,
      "Ġinvested": 5292,
      "ĠEnlightenment": 5293,
      "ĠConnect": 5294,
      "iox": 5295,
      "Ġcenter": 5296,
      "Ġbasis": 5297,
      "ĠIndia": 5298,
      "shirts": 5299,
      "Ġcultivating": 5300,
      "Ġrecipe": 5301,
      "Ġwinter": 5302,
      "Ġaccomplish": 5303,
      "Ġweaknesses": 5304,
      "minist": 5305,
      "Ġfacilitate": 5306,
      "ĠLanguage": 5307,
      "Ġphenomen": 5308,
      "Ġcontexts": 5309,
      "bod": 5310,
      "Ġign": 5311,
      "Ġtack": 5312,
      "itam": 5313,
      "Ġyogurt": 5314,
      "Ġreb": 5315,
      "Ġlooks": 5316,
      "Ġgrammar": 5317,
      "elt": 5318,
      "Ġforce": 5319,
      "ĠSw": 5320,
      "Ġimpressive": 5321,
      "through": 5322,
      "ĠMarket": 5323,
      "Ġanywhere": 5324,
      "Ġprem": 5325,
      "Ġrelief": 5326,
      "Ġkarma": 5327,
      "Ġpricing": 5328,
      "Ġparty": 5329,
      "Ġartistic": 5330,
      "oving": 5331,
      "Ġinterface": 5332,
      "Ġadds": 5333,
      "Ġsky": 5334,
      "Ġfront": 5335,
      "ifying": 5336,
      "obe": 5337,
      "ĠAdv": 5338,
      "Ġreports": 5339,
      "ĠProfessional": 5340,
      "Ġcapacity": 5341,
      "Ġfacing": 5342,
      "Ġcyc": 5343,
      "Ġstruggles": 5344,
      "Ġnuts": 5345,
      "Ġintegr": 5346,
      "Ġoverwhelmed": 5347,
      "Ġinstallation": 5348,
      "Ġrewarding": 5349,
      "ĠManage": 5350,
      "Ġdecrease": 5351,
      "ĠIncreased": 5352,
      "Ġlibrary": 5353,
      "Ġhesitate": 5354,
      "ĠDifferent": 5355,
      "ĠEstabl": 5356,
      "Ġheritage": 5357,
      "When": 5358,
      "look": 5359,
      "oke": 5360,
      "talk": 5361,
      "uing": 5362,
      "reg": 5363,
      "Ġsizes": 5364,
      "inge": 5365,
      "Ġfrozen": 5366,
      "Ġbad": 5367,
      "Ġhor": 5368,
      "roc": 5369,
      "robe": 5370,
      "ĠTwit": 5371,
      "ĠSustain": 5372,
      "Ġneck": 5373,
      "Ġintention": 5374,
      "Ġseafood": 5375,
      "ĠBest": 5376,
      "agree": 5377,
      "ĠFl": 5378,
      "Ġhasht": 5379,
      "ĠGen": 5380,
      "Ġdespite": 5381,
      "Ġattitude": 5382,
      "Ġskirt": 5383,
      "Ġserving": 5384,
      "necess": 5385,
      "Ġmaintenance": 5386,
      "Ġenjoyed": 5387,
      "Ġpoor": 5388,
      "Ġrealized": 5389,
      "Ġdrinks": 5390,
      "Ġextensive": 5391,
      "Ġlimits": 5392,
      "Ġgained": 5393,
      "Ġmorning": 5394,
      "Ġreceived": 5395,
      "boards": 5396,
      "ilarly": 5397,
      "Ġadjustments": 5398,
      "ĠCommunicate": 5399,
      "Ġpolicymakers": 5400,
      "Ġencount": 5401,
      "Ġsatellites": 5402,
      "Ġpursue": 5403,
      "ĠImproved": 5404,
      "Ġattacks": 5405,
      "Ġcaffeine": 5406,
      "ĠTwitter": 5407,
      "can": 5408,
      "hs": 5409,
      "ira": 5410,
      "ox": 5411,
      "watch": 5412,
      "Â°": 5413,
      "Ġ$": 5414,
      "Ġ9": 5415,
      "Ġfert": 5416,
      "Ġwet": 5417,
      "idity": 5418,
      "Ġvine": 5419,
      "aintain": 5420,
      "Ġintric": 5421,
      "Ġrom": 5422,
      "ĠHead": 5423,
      "Ġsex": 5424,
      "osion": 5425,
      "ĠBr": 5426,
      "ĠPublic": 5427,
      "Ġmanip": 5428,
      "Ġwealth": 5429,
      "Ġunnecess": 5430,
      "elfare": 5431,
      "Ġcreators": 5432,
      "lection": 5433,
      "Ġguests": 5434,
      "Ġeducate": 5435,
      "Ġaffects": 5436,
      "Ġregulatory": 5437,
      "Ġhappiness": 5438,
      "Ġinstruction": 5439,
      "ĠAndroid": 5440,
      "Ġimagine": 5441,
      "Ġfatig": 5442,
      "Ġabsor": 5443,
      "ventional": 5444,
      "Ġvolunteering": 5445,
      "Ġexcessive": 5446,
      "ĠBuilding": 5447,
      "ĠEmpathy": 5448,
      "Ġpunishment": 5449,
      "Ġgarlic": 5450,
      "ĠSchools": 5451,
      "Ġkitchen": 5452,
      "ĠSpotify": 5453,
      "St": 5454,
      "ey": 5455,
      "writ": 5456,
      "Ġtalking": 5457,
      "Ġsides": 5458,
      "Ġpen": 5459,
      "Ġmal": 5460,
      "Ġmaster": 5461,
      "Ġward": 5462,
      "Ġthird": 5463,
      "Ġhom": 5464,
      "Ġstop": 5465,
      "ĠTre": 5466,
      "igrap": 5467,
      "aby": 5468,
      "ĠSy": 5469,
      "Ġshirt": 5470,
      "asters": 5471,
      "ĠFit": 5472,
      "ĠEgy": 5473,
      "Ġdisagree": 5474,
      "Ġdesires": 5475,
      "apes": 5476,
      "Ġrepair": 5477,
      "Ġchecking": 5478,
      "fortable": 5479,
      "Ġmemoir": 5480,
      "Ġviewpo": 5481,
      "Ġroutes": 5482,
      "Ġharder": 5483,
      "Ġsenses": 5484,
      "Ġcreamy": 5485,
      "Ġinspiring": 5486,
      "Ġdressing": 5487,
      "Ġproduced": 5488,
      "Ġcorn": 5489,
      "Ġprogrammed": 5490,
      "Ġreaching": 5491,
      "Ġaccepting": 5492,
      "Ġmisinformation": 5493,
      "ĠEncouraging": 5494,
      "Ġboard": 5495,
      "Ġinitial": 5496,
      "Ġlasting": 5497,
      "Ġsmoothie": 5498,
      "Ġbitter": 5499,
      "Ġpackaging": 5500,
      "ĠEducate": 5501,
      "ĠAcc": 5502,
      "ĠWhich": 5503,
      "Ġvolunteer": 5504,
      "Ġlaunch": 5505,
      "Ġpaths": 5506,
      "ĠWrite": 5507,
      "Ġmentorship": 5508,
      "Ġwardrobe": 5509,
      "ĠEgypt": 5510,
      "PN": 5511,
      "cil": 5512,
      "craft": 5513,
      "made": 5514,
      "erals": 5515,
      "Ġpick": 5516,
      "Ġwish": 5517,
      "Ġtox": 5518,
      "Ġtown": 5519,
      "Ġbed": 5520,
      "Ġbun": 5521,
      "isure": 5522,
      "edia": 5523,
      "ĠTable": 5524,
      "opting": 5525,
      "Ġvac": 5526,
      "Ġsend": 5527,
      "ĠPar": 5528,
      "ĠPilates": 5529,
      "Ġabove": 5530,
      "Ġdoct": 5531,
      "ode": 5532,
      "Ġcoop": 5533,
      "world": 5534,
      "Ġofferings": 5535,
      "Ġshowing": 5536,
      "Ġfriendly": 5537,
      "Ġwhereas": 5538,
      "Ġcareful": 5539,
      "Ġwriter": 5540,
      "phones": 5541,
      "ĠConduct": 5542,
      "Ġinclusivity": 5543,
      "Ġcharacteristics": 5544,
      "Ġoils": 5545,
      "Ġconducting": 5546,
      "Ġbrainstorm": 5547,
      "Ġselecting": 5548,
      "Ġdrawbacks": 5549,
      "Ġshapes": 5550,
      "Ġadvocate": 5551,
      "Ġreminders": 5552,
      "Ġdurability": 5553,
      "ĠJoin": 5554,
      "Ġmechanics": 5555,
      "Ġnearby": 5556,
      "Ġinequality": 5557,
      "Ġcyberbullying": 5558,
      "Ġadvisor": 5559,
      "Ġhunger": 5560,
      "Ġdownsides": 5561,
      "Ġrejection": 5562,
      "ĠPrioritize": 5563,
      "Ġintricate": 5564,
      "gn": 5565,
      "uit": 5566,
      "Ã©": 5567,
      "ret": 5568,
      "Ġselling": 5569,
      "erge": 5570,
      "ingu": 5571,
      "Ġpub": 5572,
      "Ġrecharge": 5573,
      "Ġgard": 5574,
      "etry": 5575,
      "iff": 5576,
      "Ġfees": 5577,
      "Ġritual": 5578,
      "Ġshops": 5579,
      "indu": 5580,
      "Ġnoting": 5581,
      "Ġnoticed": 5582,
      "ĠMiddle": 5583,
      "Ġplastic": 5584,
      "Ġwee": 5585,
      "ĠRem": 5586,
      "ĠEc": 5587,
      "Ġapplying": 5588,
      "Ġtheme": 5589,
      "lows": 5590,
      "Ġperpet": 5591,
      "Ġbalancing": 5592,
      "Ġactivism": 5593,
      "ĠReview": 5594,
      "Ġsimpl": 5595,
      "onomic": 5596,
      "Ġemployers": 5597,
      "Ġpreventing": 5598,
      "Ġjudge": 5599,
      "Ġerosion": 5600,
      "Ġsusp": 5601,
      "Ġdessert": 5602,
      "Ġsacr": 5603,
      "Ġschedules": 5604,
      "igraphy": 5605,
      "11": 5606,
      "ID": 5607,
      "crast": 5608,
      "rings": 5609,
      "Ġtang": 5610,
      "onut": 5611,
      "Ġcards": 5612,
      "Ġpu": 5613,
      "ald": 5614,
      "ara": 5615,
      "abling": 5616,
      "Ġleft": 5617,
      "Ġrating": 5618,
      "ogam": 5619,
      "Ġword": 5620,
      "ĠMc": 5621,
      "umb": 5622,
      "ĠWork": 5623,
      "Ġappoint": 5624,
      "Ġunl": 5625,
      "ĠGerm": 5626,
      "Ġdifferently": 5627,
      "ĠUX": 5628,
      "Ġavocado": 5629,
      "Ġinstinct": 5630,
      "Ġthank": 5631,
      "ĠVirtual": 5632,
      "riage": 5633,
      "Ġkeyboard": 5634,
      "Ġemotionally": 5635,
      "Ġcombine": 5636,
      "arsh": 5637,
      "Ġcontrovers": 5638,
      "Ġtrusted": 5639,
      "Ġparticipating": 5640,
      "Ġjobs": 5641,
      "Ġeleg": 5642,
      "Ġvegetarian": 5643,
      "Ġmixed": 5644,
      "Ġathletes": 5645,
      "Ġansw": 5646,
      "Ġuniversal": 5647,
      "Ġdedication": 5648,
      "Ġlayer": 5649,
      "Ġoccasions": 5650,
      "Ġblogs": 5651,
      "Ġcomponents": 5652,
      "Ġrestrictions": 5653,
      "ĠGovernments": 5654,
      "valuate": 5655,
      "Ġfatigue": 5656,
      "60": 5657,
      "So": 5658,
      "pread": 5659,
      "ua": 5660,
      "Ġtit": 5661,
      "Ġtact": 5662,
      "Ġtheaters": 5663,
      "Ġwides": 5664,
      "Ġrehabilitation": 5665,
      "ilant": 5666,
      "Ġproced": 5667,
      "Ġintended": 5668,
      "Ġran": 5669,
      "ĠBring": 5670,
      "Ġupl": 5671,
      "ĠPer": 5672,
      "ells": 5673,
      "ĠEating": 5674,
      "Ġtrained": 5675,
      "ĠOut": 5676,
      "Ġalloc": 5677,
      "ĠNorth": 5678,
      "Ġbelong": 5679,
      "Ġspecifications": 5680,
      "rients": 5681,
      "Ġrefer": 5682,
      "Ġlighter": 5683,
      "Ġtargeted": 5684,
      "Ġagreement": 5685,
      "Ġsensors": 5686,
      "ossible": 5687,
      "Ġintegration": 5688,
      "Ġdelicate": 5689,
      "Ġtrendy": 5690,
      "Ġdrawing": 5691,
      "Ġstructured": 5692,
      "Ġjournaling": 5693,
      "Ġobserv": 5694,
      "Ġtailor": 5695,
      "Ġsteak": 5696,
      "Ġfailure": 5697,
      "Ġthreats": 5698,
      "Ġjuice": 5699,
      "Ġdenim": 5700,
      "ĠMexican": 5701,
      "ĠLeaders": 5702,
      "Ġhashtags": 5703,
      "Ġwidespread": 5704,
      "bre": 5705,
      "des": 5706,
      "hand": 5707,
      "ny": 5708,
      "ties": 5709,
      "ux": 5710,
      "uge": 5711,
      "Ġera": 5712,
      "Ġmas": 5713,
      "Ġfiction": 5714,
      "Ġrewards": 5715,
      "Ġhind": 5716,
      "Ġhoney": 5717,
      "using": 5718,
      "Ġlib": 5719,
      "Ġbeef": 5720,
      "iments": 5721,
      "Ġprocrast": 5722,
      "Ġcomed": 5723,
      "aker": 5724,
      "ĠAut": 5725,
      "hern": 5726,
      "urns": 5727,
      "Ġenforce": 5728,
      "Ġenabling": 5729,
      "ĠCar": 5730,
      "Ġmoderation": 5731,
      "Ġmanus": 5732,
      "agon": 5733,
      "ĠEth": 5734,
      "Ġuncon": 5735,
      "Ġrecording": 5736,
      "Ġcoord": 5737,
      "ĠIns": 5738,
      "Ġstrive": 5739,
      "Ġtransition": 5740,
      "Ġdistance": 5741,
      "Ġsites": 5742,
      "Ġcharge": 5743,
      "Ġcruise": 5744,
      "Ġregulate": 5745,
      "Ġsunlight": 5746,
      "Ġsensations": 5747,
      "Ġlotion": 5748,
      "Ġspecialize": 5749,
      "Ġsleek": 5750,
      "proof": 5751,
      "profit": 5752,
      "Ġpreparation": 5753,
      "Ġposture": 5754,
      "Ġbags": 5755,
      "Ġnutrients": 5756,
      "Ġintegrated": 5757,
      "Ġfostering": 5758,
      "Ġstretching": 5759,
      "Ġillum": 5760,
      "ĠDesigners": 5761,
      "Ġpaired": 5762,
      "ĠXbox": 5763,
      "Ġaroma": 5764,
      "ĠParticip": 5765,
      "Ġadventure": 5766,
      "Ġembrace": 5767,
      "driven": 5768,
      "Ġswimming": 5769,
      "Ġbiodiversity": 5770,
      "Ġdisorders": 5771,
      "Ġsneakers": 5772,
      "Ġobstac": 5773,
      "Ġunnecessary": 5774,
      "gments": 5775,
      "iating": 5776,
      "ka": 5777,
      "la": 5778,
      "uous": 5779,
      "zz": 5780,
      "Ġwit": 5781,
      "isk": 5782,
      "Ġhurt": 5783,
      "Ġstates": 5784,
      "Ġstock": 5785,
      "irl": 5786,
      "Ġhaven": 5787,
      "stream": 5788,
      "Ġaside": 5789,
      "Ġalm": 5790,
      "outs": 5791,
      "Ġvan": 5792,
      "Ġvoc": 5793,
      "Ġvitam": 5794,
      "ester": 5795,
      "key": 5796,
      "ourn": 5797,
      "Ġadopting": 5798,
      "ĠRet": 5799,
      "ĠRock": 5800,
      "Ġrecover": 5801,
      "Ġarts": 5802,
      "Ġimpacted": 5803,
      "Ġsignals": 5804,
      "Ġprofit": 5805,
      "Ġdiscoura": 5806,
      "Ġfollowers": 5807,
      "Ġrad": 5808,
      "Ġ30": 5809,
      "Ġmemories": 5810,
      "Ġpriority": 5811,
      "Ġdifficulty": 5812,
      "Ġpreserving": 5813,
      "Ġreliability": 5814,
      "ĠIndian": 5815,
      "000": 5816,
      "Ġcraft": 5817,
      "Ġpredictions": 5818,
      "Ġcoverage": 5819,
      "liers": 5820,
      "ĠGaming": 5821,
      "Ġtoppings": 5822,
      "Ġofficials": 5823,
      "Ġaesthet": 5824,
      "Ġphilosoph": 5825,
      "ĠIncorporate": 5826,
      "ĠVolunte": 5827,
      "Ġapplied": 5828,
      "Ġfranchise": 5829,
      "Ġirrigation": 5830,
      "bodied": 5831,
      "Ġbrainstorming": 5832,
      "col": 5833,
      "ho": 5834,
      "Ġsed": 5835,
      "Ġwand": 5836,
      "Ġbaby": 5837,
      "Ġgrown": 5838,
      "ided": 5839,
      "idential": 5840,
      "Ġconv": 5841,
      "Ġcomments": 5842,
      "ĠAust": 5843,
      "ĠCO": 5844,
      "Ġintensity": 5845,
      "Ġseasons": 5846,
      "ĠRob": 5847,
      "ĠGl": 5848,
      "ĠGod": 5849,
      "Ġdesert": 5850,
      "Ġunderg": 5851,
      "Ġconnecting": 5852,
      "ĠChild": 5853,
      "Ġinner": 5854,
      "Ġpossess": 5855,
      "Ġprotected": 5856,
      "Ġrealize": 5857,
      "Ġexpressions": 5858,
      "Ġreflects": 5859,
      "Ġcollections": 5860,
      "Ġportfol": 5861,
      "Ġversion": 5862,
      "Ġeyes": 5863,
      "ĠNetwork": 5864,
      "Ġauthenticity": 5865,
      "Ġconvenience": 5866,
      "Ġpaid": 5867,
      "Ġpicture": 5868,
      "judgment": 5869,
      "ĠMonitor": 5870,
      "Ġcredibility": 5871,
      "Ġminimizing": 5872,
      "Ġcandidates": 5873,
      "lies": 5874,
      "lands": 5875,
      "off": 5876,
      "Ġtight": 5877,
      "inary": 5878,
      "Ġcin": 5879,
      "ouble": 5880,
      "Ġwelfare": 5881,
      "Ġreform": 5882,
      "uses": 5883,
      "Ġloose": 5884,
      "imedia": 5885,
      "Ġproactive": 5886,
      "uts": 5887,
      "ival": 5888,
      "unk": 5889,
      "unch": 5890,
      "ĠCultural": 5891,
      "Ġleisure": 5892,
      "ĠMost": 5893,
      "Ġapplic": 5894,
      "Ġpracticed": 5895,
      "Ġfindings": 5896,
      "Ġfewer": 5897,
      "Ġvisiting": 5898,
      "Ġcritically": 5899,
      "Ġnoise": 5900,
      "Ġcombines": 5901,
      "Ġdrivers": 5902,
      "Ġextend": 5903,
      "Ġmultimedia": 5904,
      "Ġready": 5905,
      "Ġtempt": 5906,
      "Ġachievements": 5907,
      "Ġmorality": 5908,
      "Ġdemanding": 5909,
      "Ġpartnerships": 5910,
      "Ġuniverse": 5911,
      "ĠTrust": 5912,
      "Ġacknowled": 5913,
      "ĠFinancial": 5914,
      "Ġsurroundings": 5915,
      "ĠOrgan": 5916,
      "generated": 5917,
      "Ġballot": 5918,
      "Ġnuanced": 5919,
      "Ġvibrant": 5920,
      "Ġmillions": 5921,
      "Ġdemocr": 5922,
      "Ġdiscounts": 5923,
      "ĠGreek": 5924,
      "ĠBudd": 5925,
      "Ġvictim": 5926,
      "Ġhurric": 5927,
      "Ġphilosophical": 5928,
      "ED": 5929,
      "bies": 5930,
      "comm": 5931,
      "do": 5932,
      "Ġ.": 5933,
      "Ġpad": 5934,
      "Ġpour": 5935,
      "Ġlose": 5936,
      "Ġbeings": 5937,
      "Ġgut": 5938,
      "Ġorange": 5939,
      "ĠAir": 5940,
      "ames": 5941,
      "heric": 5942,
      "ude": 5943,
      "Ġleaving": 5944,
      "Ġplate": 5945,
      "ĠFurthermore": 5946,
      "Ġindic": 5947,
      "Ġpractition": 5948,
      "Ġspot": 5949,
      "ĠOpt": 5950,
      "nected": 5951,
      "Ġguest": 5952,
      "Ġsuccesses": 5953,
      "Ġexcite": 5954,
      "Ġrefine": 5955,
      "Ġwritten": 5956,
      "Ġcars": 5957,
      "Ġcombat": 5958,
      "Ġclimb": 5959,
      "Ġtempl": 5960,
      "ĠShould": 5961,
      "Ġrecognizing": 5962,
      "ĠConf": 5963,
      "Ġcontributing": 5964,
      "Ġelev": 5965,
      "Ġcalls": 5966,
      "Ġcalligraphy": 5967,
      "Ġresonate": 5968,
      "Ġautomation": 5969,
      "Ġviolence": 5970,
      "Ġrobotics": 5971,
      "ĠEmpire": 5972,
      "Ġfunctionality": 5973,
      "ĠQuantum": 5974,
      "Ġinterviews": 5975,
      "Ġfundam": 5976,
      "ĠCenter": 5977,
      "Ġrecruiters": 5978,
      "Ġpremium": 5979,
      "Ġviewpoints": 5980,
      "Ġperpetu": 5981,
      "ecurity": 5982,
      "ha": 5983,
      "mp": 5984,
      "ror": 5985,
      "rig": 5986,
      "right": 5987,
      "vings": 5988,
      "hether": 5989,
      "Ġcos": 5990,
      "Ġske": 5991,
      "Ġpink": 5992,
      "Ġfire": 5993,
      "Ġbond": 5994,
      "Ġbars": 5995,
      "asure": 5996,
      "ellect": 5997,
      "Ġchart": 5998,
      "emin": 5999,
      "izon": 6000,
      "ĠHindu": 6001,
      "ogy": 6002,
      "Ġcompens": 6003,
      "ĠFore": 6004,
      "Ġunp": 6005,
      "Ġpeer": 6006,
      "Ġdesire": 6007,
      "endar": 6008,
      "Ġspices": 6009,
      "Ġoptimal": 6010,
      "Ġpolling": 6011,
      "ĠAdobe": 6012,
      "Ġconfirm": 6013,
      "Ġinfl": 6014,
      "Ġexplores": 6015,
      "Ġtrees": 6016,
      "Ġcriteria": 6017,
      "Ġguides": 6018,
      "Ġcompete": 6019,
      "Ġsurpr": 6020,
      "Ġreader": 6021,
      "bersecurity": 6022,
      "Ġconflicting": 6023,
      "exp": 6024,
      "herent": 6025,
      "Ġcompassionate": 6026,
      "Ġpolitics": 6027,
      "Ġcommitments": 6028,
      "Ġproport": 6029,
      "Ġparking": 6030,
      "Ġargument": 6031,
      "Ġjoining": 6032,
      "Ġinvolvement": 6033,
      "weries": 6034,
      "Ġassignment": 6035,
      "Ġlandscapes": 6036,
      "Ġrobust": 6037,
      "Ġabsolutely": 6038,
      "Ġfestival": 6039,
      "ĠiPh": 6040,
      "Ġerror": 6041,
      "Ġreactions": 6042,
      "ĠRegularly": 6043,
      "Ġpotatoes": 6044,
      "ĠAfrican": 6045,
      "ĠSnap": 6046,
      "Ġencryption": 6047,
      "Ġcontestants": 6048,
      "Ġvinegar": 6049,
      "Ġromantic": 6050,
      "Ġtoxic": 6051,
      "Ġrituals": 6052,
      "Ġprocedures": 6053,
      "Hmm": 6054,
      "VID": 6055,
      "bra": 6056,
      "wise": 6057,
      "Ġtau": 6058,
      "iture": 6059,
      "Ġmel": 6060,
      "Ġmour": 6061,
      "Ġmag": 6062,
      "Ġbact": 6063,
      "Ġgives": 6064,
      "ili": 6065,
      "etch": 6066,
      "igating": 6067,
      "Ġprobi": 6068,
      "stand": 6069,
      "urg": 6070,
      "Ġalert": 6071,
      "though": 6072,
      "Ġseam": 6073,
      "Ġseeds": 6074,
      "Ġnotifications": 6075,
      "ĠMoreover": 6076,
      "ĠMaintain": 6077,
      "ignon": 6078,
      "ĠEat": 6079,
      "Ġpret": 6080,
      "Ġmeant": 6081,
      "Ġuncom": 6082,
      "ĠUp": 6083,
      "Ġspark": 6084,
      "Ġdesigner": 6085,
      "Ġmeditate": 6086,
      "Ġaging": 6087,
      "ucum": 6088,
      "Ġcontinually": 6089,
      "Ġformation": 6090,
      "Ġbeginning": 6091,
      "Ġimplementation": 6092,
      "Ġendurance": 6093,
      "ĠEmot": 6094,
      "ĠAlways": 6095,
      "Ġjudges": 6096,
      "Ġattraction": 6097,
      "Ġattractive": 6098,
      "ĠBlock": 6099,
      "Ġreasonable": 6100,
      "Ġfreedoms": 6101,
      "Ġsinging": 6102,
      "Ġspeeds": 6103,
      "Ġdebt": 6104,
      "Ġblends": 6105,
      "Ġacquis": 6106,
      "Ġobserve": 6107,
      "Ġintroduced": 6108,
      "Ġproperty": 6109,
      "ĠSimilarly": 6110,
      "Ġdesserts": 6111,
      "ĠPhot": 6112,
      "Ġclarity": 6113,
      "Ġcontinuously": 6114,
      "Ġrepeat": 6115,
      "Ġsubscription": 6116,
      "Ġstandardized": 6117,
      "ĠWorld": 6118,
      "Ġwelcome": 6119,
      "Ġsuffering": 6120,
      "Ġenthusiasts": 6121,
      "Ġmurals": 6122,
      "ĠSustainable": 6123,
      "Ġpubl": 6124,
      "Ġunconventional": 6125,
      "Ġuncomfortable": 6126,
      "cel": 6127,
      "caut": 6128,
      "mer": 6129,
      "na": 6130,
      "oors": 6131,
      "rus": 6132,
      "Ġ&": 6133,
      "Ġtones": 6134,
      "Ġmach": 6135,
      "Ġtow": 6136,
      "Ġinh": 6137,
      "Ġharsh": 6138,
      "rol": 6139,
      "chain": 6140,
      "idal": 6141,
      "Ġstocks": 6142,
      "Ġord": 6143,
      "Ġisland": 6144,
      "utious": 6145,
      "ster": 6146,
      "Ġasp": 6147,
      "Ġlean": 6148,
      "pending": 6149,
      "Ġworship": 6150,
      "ĠPair": 6151,
      "ĠDress": 6152,
      "Ġemerge": 6153,
      "ĠRel": 6154,
      "ĠRoll": 6155,
      "Ġprecaut": 6156,
      "Ġtrail": 6157,
      "ailand": 6158,
      "Ġupon": 6159,
      "Ġspin": 6160,
      "Ġstrict": 6161,
      "Ġprofits": 6162,
      "Ġvisibility": 6163,
      "Ġcautious": 6164,
      "Ġempower": 6165,
      "Ġstrategic": 6166,
      "Ġformed": 6167,
      "Ġethics": 6168,
      "Ġshorts": 6169,
      "Ġtravelers": 6170,
      "Ġexperimentation": 6171,
      "ĠEmploy": 6172,
      "Ġretention": 6173,
      "Ġsalespeople": 6174,
      "Ġbasics": 6175,
      "Ġcurrently": 6176,
      "Ġappropriately": 6177,
      "Ġattractions": 6178,
      "Ġinstructors": 6179,
      "Ġcamping": 6180,
      "Ġsubtle": 6181,
      "Ġupdated": 6182,
      "Ġuniversities": 6183,
      "opped": 6184,
      "uilding": 6185,
      "Ġintroduction": 6186,
      "Ġcorrectly": 6187,
      "Ġcodes": 6188,
      "Ġinterpretation": 6189,
      "Ġcertification": 6190,
      "scale": 6191,
      "ĠVisualization": 6192,
      "Ġoversized": 6193,
      "Ġcounseling": 6194,
      "Ġsegmentation": 6195,
      "Ġgenuine": 6196,
      "ĠDiscuss": 6197,
      "Ġlength": 6198,
      "Ġobstacles": 6199,
      "Ġexcitement": 6200,
      "Ġtaught": 6201,
      "'d": 6202,
      "30": 6203,
      "Ch": 6204,
      "efficient": 6205,
      "hop": 6206,
      "lasting": 6207,
      "oe": 6208,
      "pen": 6209,
      "Ġap": 6210,
      "ini": 6211,
      "iny": 6212,
      "ancy": 6213,
      "Ġwood": 6214,
      "iche": 6215,
      "Ġoffere": 6216,
      "Ġhiring": 6217,
      "Ġlic": 6218,
      "Ġlost": 6219,
      "Ġstable": 6220,
      "ola": 6221,
      "Ġisol": 6222,
      "unct": 6223,
      "anting": 6224,
      "Ġimpossible": 6225,
      "ĠTheir": 6226,
      "ĠBal": 6227,
      "ĠPort": 6228,
      "ĠDig": 6229,
      "ĠData": 6230,
      "ĠThailand": 6231,
      "ĠRo": 6232,
      "ĠLight": 6233,
      "Ġsoy": 6234,
      "Ġquant": 6235,
      "Ġquizz": 6236,
      "Ġscan": 6237,
      "Ġroasted": 6238,
      "ĠNo": 6239,
      "ĠYork": 6240,
      "Ġpolar": 6241,
      "Ġtransfer": 6242,
      "ĠAdopt": 6243,
      "ĠChocolate": 6244,
      "Ġcareers": 6245,
      "Ġraw": 6246,
      "Ġrace": 6247,
      "Ġsitting": 6248,
      "Ġbackl": 6249,
      "ĠProt": 6250,
      "ĠEnviron": 6251,
      "ĠEnergy": 6252,
      "Ġincorporated": 6253,
      "Ġrecognized": 6254,
      "urniture": 6255,
      "Ġfavorites": 6256,
      "Ġpresented": 6257,
      "Ġlikeli": 6258,
      "Ġstreams": 6259,
      "Ġdistracting": 6260,
      "Ġdetermining": 6261,
      "Ġsuppliers": 6262,
      "Ġfrustration": 6263,
      "Ġfarming": 6264,
      "poon": 6265,
      "Ġdisrupted": 6266,
      "Ġsatisfying": 6267,
      "Ġharass": 6268,
      "Ġframeworks": 6269,
      "Ġbowls": 6270,
      "ĠWestern": 6271,
      "Ġbrowsing": 6272,
      "Ġcrypt": 6273,
      "ĠRecogn": 6274,
      "Ġpsychological": 6275,
      "Ġtackle": 6276,
      "ĠEstablish": 6277,
      "Ġportfolio": 6278,
      "Ġprecautions": 6279,
      "Ġoffered": 6280,
      "Ġlikelihood": 6281,
      "Ġcues": 6282,
      "Ġcucum": 6283,
      "atural": 6284,
      "Ġfather": 6285,
      "Ġfolk": 6286,
      "Ġbaking": 6287,
      "Ġbinge": 6288,
      "Ġdrug": 6289,
      "Ġlate": 6290,
      "Ġgolden": 6291,
      "owered": 6292,
      "ether": 6293,
      "iforn": 6294,
      "Ġsup": 6295,
      "Ġsufficient": 6296,
      "struct": 6297,
      "amel": 6298,
      "Ġvoices": 6299,
      "ialism": 6300,
      "Ġchun": 6301,
      "Ġleverage": 6302,
      "ĠHold": 6303,
      "ogether": 6304,
      "ositive": 6305,
      "Ġads": 6306,
      "Ġadminist": 6307,
      "Ġotherwise": 6308,
      "ĠParents": 6309,
      "ĠDark": 6310,
      "ĠMod": 6311,
      "Ġplot": 6312,
      "ĠRA": 6313,
      "ĠFound": 6314,
      "Ġquite": 6315,
      "Ġagencies": 6316,
      "Ġlocated": 6317,
      "Ġedge": 6318,
      "Ġbreweries": 6319,
      "Ġmentally": 6320,
      "ricul": 6321,
      "Ġnaturally": 6322,
      "Ġwants": 6323,
      "Ġinnovate": 6324,
      "Ġresponsibly": 6325,
      "Ġcharging": 6326,
      "Ġperforming": 6327,
      "Ġpublications": 6328,
      "Ġextended": 6329,
      "front": 6330,
      "ĠExam": 6331,
      "Ġenhancing": 6332,
      "Ġappreciated": 6333,
      "ropri": 6334,
      "Ġcentral": 6335,
      "ĠClimate": 6336,
      "ĠSpace": 6337,
      "Ġbrok": 6338,
      "auv": 6339,
      "Ġauthentication": 6340,
      "Ġfunds": 6341,
      "cripts": 6342,
      "Ġassistants": 6343,
      "ĠContin": 6344,
      "Ġintentions": 6345,
      "ĠVisualize": 6346,
      "ĠCaliforn": 6347,
      "Ġthrive": 6348,
      "Ġpotato": 6349,
      "Ġcounsel": 6350,
      "Ġincredible": 6351,
      "Ġhobbies": 6352,
      "Ġvulnerable": 6353,
      "Ġchemicals": 6354,
      "Ġilluminated": 6355,
      "Ġtemplates": 6356,
      "Ġinflamm": 6357,
      "ĠiPhone": 6358,
      "Ġquizzes": 6359,
      "ĠCalifornia": 6360,
      "12": 6361,
      "OS": 6362,
      "Station": 6363,
      "ball": 6364,
      "ften": 6365,
      "gon": 6366,
      "mates": 6367,
      "rial": 6368,
      "zer": 6369,
      "Ġspl": 6370,
      "ened": 6371,
      "Ġmicro": 6372,
      "Ġfant": 6373,
      "Ġwaves": 6374,
      "Ġbrought": 6375,
      "Ġdip": 6376,
      "Ġyiel": 6377,
      "Ġhous": 6378,
      "asana": 6379,
      "Ġgod": 6380,
      "oting": 6381,
      "verty": 6382,
      "ĠSum": 6383,
      "ĠSwitch": 6384,
      "ĠSauv": 6385,
      "Ġvote": 6386,
      "Ġvirus": 6387,
      "ĠCy": 6388,
      "Ġtelev": 6389,
      "Ġadequ": 6390,
      "andal": 6391,
      "Ġtrial": 6392,
      "Ġresolve": 6393,
      "Ġplaced": 6394,
      "iber": 6395,
      "Ġjoy": 6396,
      "ĠEl": 6397,
      "Ġtrails": 6398,
      "Ġrelat": 6399,
      "Ġevoke": 6400,
      "Ġscr": 6401,
      "Ġgreatly": 6402,
      "Ġpopulations": 6403,
      "Ġcustoms": 6404,
      "Ġflood": 6405,
      "Ġprocessor": 6406,
      "ĠChange": 6407,
      "ĠVPN": 6408,
      "Ġsystemic": 6409,
      "ĠJourn": 6410,
      "Ġinfect": 6411,
      "Ġdownt": 6412,
      "Ġstressful": 6413,
      "Ġpoverty": 6414,
      "Ġautonom": 6415,
      "Ġmultip": 6416,
      "ĠConsistency": 6417,
      "Ġequally": 6418,
      "Ġdecades": 6419,
      "Ġcollaborations": 6420,
      "Ġlegs": 6421,
      "Ġearrings": 6422,
      "ĠTea": 6423,
      "Ġadapted": 6424,
      "Ġbrown": 6425,
      "Ġtiming": 6426,
      "Ġscenar": 6427,
      "Ġforecasts": 6428,
      "Ġauthority": 6429,
      "Ġenabled": 6430,
      "Ġintroducing": 6431,
      "Ġcoconut": 6432,
      "Ġperceptions": 6433,
      "Ġsatisfied": 6434,
      "Ġaltitude": 6435,
      "ĠSales": 6436,
      "Ġcoping": 6437,
      "Ġpictures": 6438,
      "Ġpalette": 6439,
      "Ġaccommodations": 6440,
      "Ġrevolutionize": 6441,
      "Ġpull": 6442,
      "ĠUnderstanding": 6443,
      "Ġtolerance": 6444,
      "Ġrapidly": 6445,
      "novation": 6446,
      "Ġratings": 6447,
      "Ġinstincts": 6448,
      "Ġvanilla": 6449,
      "ellectual": 6450,
      "oT": 6451,
      "ued": 6452,
      "Ġsqu": 6453,
      "Ġpra": 6454,
      "omfort": 6455,
      "arant": 6456,
      "Ġhuge": 6457,
      "ashing": 6458,
      "Ġlux": 6459,
      "Ġnour": 6460,
      "ett": 6461,
      "ĠTur": 6462,
      "ivirus": 6463,
      "Ġallev": 6464,
      "ĠSl": 6465,
      "estic": 6466,
      "Ġintim": 6467,
      "Ġrig": 6468,
      "ĠHis": 6469,
      "Ġadm": 6470,
      "artial": 6471,
      "ptic": 6472,
      "ĠThrough": 6473,
      "Ġclub": 6474,
      "Ġmedication": 6475,
      "oda": 6476,
      "Ġuneth": 6477,
      "ĠGive": 6478,
      "Ġdisasters": 6479,
      "arning": 6480,
      "cision": 6481,
      "plement": 6482,
      "Ġintercon": 6483,
      "Ġvariet": 6484,
      "Ġprofess": 6485,
      "Ġdiscomfort": 6486,
      "Ġmainstream": 6487,
      "redict": 6488,
      "Ġvisuals": 6489,
      "Ġequipped": 6490,
      "Ġdecor": 6491,
      "Ġconstra": 6492,
      "Ġtourists": 6493,
      "Ġphotographer": 6494,
      "Ġtwist": 6495,
      "Ġencouragement": 6496,
      "Ġperfectly": 6497,
      "Ġassociations": 6498,
      "Ġnavigation": 6499,
      "Ġmixing": 6500,
      "Ġjoints": 6501,
      "Ġmarine": 6502,
      "ĠRespect": 6503,
      "Ġsunrises": 6504,
      "Ġshowcasing": 6505,
      "Ġemphasize": 6506,
      "ĠAdding": 6507,
      "Ġadvocacy": 6508,
      "Ġconferencing": 6509,
      "ĠTransp": 6510,
      "ĠCustomer": 6511,
      "layer": 6512,
      "ĠAfrica": 6513,
      "lasses": 6514,
      "Ġpepper": 6515,
      "Ġimmediate": 6516,
      "Ġuncertainty": 6517,
      "Ġexactly": 6518,
      "Ġlenses": 6519,
      "forestation": 6520,
      "Ġaccomplishments": 6521,
      "Ġmanuscripts": 6522,
      "ĠAustral": 6523,
      "judgmental": 6524,
      "expression": 6525,
      "Ġseamless": 6526,
      "AN": 6527,
      "Don": 6528,
      "GO": 6529,
      "eed": 6530,
      "pack": 6531,
      "Ġtree": 6532,
      "Ġpushing": 6533,
      "ene": 6534,
      "Ġfine": 6535,
      "Ġox": 6536,
      "icity": 6537,
      "Ġdipping": 6538,
      "vered": 6539,
      "Ġhat": 6540,
      "Ġgroc": 6541,
      "iling": 6542,
      "uling": 6543,
      "ige": 6544,
      "Ġcond": 6545,
      "ĠSelf": 6546,
      "ached": 6547,
      "ĠHol": 6548,
      "ĠHome": 6549,
      "Ġcomposition": 6550,
      "ĠBur": 6551,
      "ĠBody": 6552,
      "orms": 6553,
      "ignity": 6554,
      "ĠWhether": 6555,
      "Ġmanagers": 6556,
      "astly": 6557,
      "ĠRoman": 6558,
      "ĠEvaluate": 6559,
      "Ġclick": 6560,
      "Ġprejud": 6561,
      "Ġmedi": 6562,
      "ĠLand": 6563,
      "ĠLocal": 6564,
      "Ġspeakers": 6565,
      "Ġcohes": 6566,
      "ĠInv": 6567,
      "Ġscrip": 6568,
      "Ġsport": 6569,
      "Ġsupported": 6570,
      "rapy": 6571,
      "Ġflat": 6572,
      "Ġassets": 6573,
      "Ġagency": 6574,
      "Ġconfig": 6575,
      "earchers": 6576,
      "ĠKing": 6577,
      "Ġexplo": 6578,
      "Ġenjoying": 6579,
      "Ġfinish": 6580,
      "Ġbiased": 6581,
      "ermine": 6582,
      "ĠConsum": 6583,
      "Ġaffecting": 6584,
      "Ġgaining": 6585,
      "ĠTechn": 6586,
      "Ġsupplement": 6587,
      "Ġcenturies": 6588,
      "Ġfoundation": 6589,
      "Ġfrustrated": 6590,
      "Ġanticip": 6591,
      "Ġcravings": 6592,
      "Ġfairness": 6593,
      "Ġevaluating": 6594,
      "Ġassessments": 6595,
      "ĠAcad": 6596,
      "ĠCreating": 6597,
      "Ġspeaker": 6598,
      "Ġacidity": 6599,
      "Ġsector": 6600,
      "Ġcompatible": 6601,
      "ĠActive": 6602,
      "ĠBusinesses": 6603,
      "Ġinstruments": 6604,
      "Ġexhibitions": 6605,
      "Ġdoctor": 6606,
      "Ġsacrific": 6607,
      "Ġsuperv": 6608,
      "ropriate": 6609,
      "14": 6610,
      "18": 6611,
      "live": 6612,
      "spe": 6613,
      "orry": 6614,
      "alf": 6615,
      "alities": 6616,
      "Ġmark": 6617,
      "Ġfive": 6618,
      "Ġfurniture": 6619,
      "Ġbill": 6620,
      "Ġbatt": 6621,
      "Ġdignity": 6622,
      "Ġreduction": 6623,
      "Ġthin": 6624,
      "Ġthick": 6625,
      "imp": 6626,
      "rain": 6627,
      "Ġnar": 6628,
      "ĠAnt": 6629,
      "ĠAck": 6630,
      "ĠSeries": 6631,
      "Ġvig": 6632,
      "Ġvivid": 6633,
      "ieve": 6634,
      "Ġshop": 6635,
      "ĠMachine": 6636,
      "uality": 6637,
      "Ġweigh": 6638,
      "Ġindicate": 6639,
      "ĠEvery": 6640,
      "Ġmakeup": 6641,
      "Ġcoast": 6642,
      "Ġcovered": 6643,
      "Ġregional": 6644,
      "weet": 6645,
      "ĠNike": 6646,
      "ĠSte": 6647,
      "oved": 6648,
      "Ġinstant": 6649,
      "Ġguarant": 6650,
      "Ġsustainably": 6651,
      "Ġfeaturing": 6652,
      "Ġmindfully": 6653,
      "Ġminerals": 6654,
      "Ġrefers": 6655,
      "Ġformat": 6656,
      "Ġsafely": 6657,
      "Ġcounter": 6658,
      "Ġcombining": 6659,
      "Ġcurricul": 6660,
      "Ġextent": 6661,
      "Ġcontributed": 6662,
      "Ġdigest": 6663,
      "insp": 6664,
      "Ġparenting": 6665,
      "Ġhappens": 6666,
      "Ġproposition": 6667,
      "Ġadoptive": 6668,
      "Ġtimer": 6669,
      "Ġputting": 6670,
      "Ġhabitat": 6671,
      "Ġwildf": 6672,
      "ĠEngaging": 6673,
      "Ġthoughtful": 6674,
      "shirt": 6675,
      "ĠAddress": 6676,
      "Ġstretches": 6677,
      "Ġqualified": 6678,
      "Ġmissing": 6679,
      "ĠPlayStation": 6680,
      "Ġsymbolism": 6681,
      "Ġclosely": 6682,
      "Ġfaith": 6683,
      "Ġmuseum": 6684,
      "checking": 6685,
      "Ġcomponent": 6686,
      "Ġepis": 6687,
      "Ġimmedi": 6688,
      "Ġceremony": 6689,
      "Ġsoundtrack": 6690,
      "realistic": 6691,
      "Ġcycling": 6692,
      "Ġhinder": 6693,
      "Ġmourning": 6694,
      "ĠBlockchain": 6695,
      "Ġharassment": 6696,
      "Ġinflammation": 6697,
      "ĠSauvignon": 6698,
      "ĠAcknow": 6699,
      "ares": 6700,
      "bor": 6701,
      "cut": 6702,
      "cular": 6703,
      "ned": 6704,
      "vation": 6705,
      "Ġagg": 6706,
      "iner": 6707,
      "inch": 6708,
      "inter": 6709,
      "Ġswitch": 6710,
      "attle": 6711,
      "Ġwis": 6712,
      "Ġbot": 6713,
      "Ġbored": 6714,
      "Ġinherent": 6715,
      "Ġelement": 6716,
      "Ġthund": 6717,
      "Ġhit": 6718,
      "Ġgently": 6719,
      "Ġnan": 6720,
      "Ġnice": 6721,
      "ulating": 6722,
      "Ġaren": 6723,
      "Ġcong": 6724,
      "Ġexcept": 6725,
      "ama": 6726,
      "Ġneuro": 6727,
      "ĠCour": 6728,
      "istant": 6729,
      "istence": 6730,
      "Ġfee": 6731,
      "Ġsending": 6732,
      "ĠPant": 6733,
      "ĠDan": 6734,
      "Ġrelate": 6735,
      "Ġrelatively": 6736,
      "Ġincluded": 6737,
      "Ġcoach": 6738,
      "Ġpercent": 6739,
      "Ġartworks": 6740,
      "Ġshoulders": 6741,
      "angered": 6742,
      "Ġcustomizable": 6743,
      "Ġgoodness": 6744,
      "Ġflash": 6745,
      "Ġfloral": 6746,
      "Ġsynt": 6747,
      "Ġphones": 6748,
      "Ġengines": 6749,
      "ĠBegin": 6750,
      "Ġrail": 6751,
      "overed": 6752,
      "ercise": 6753,
      "Ġsale": 6754,
      "Ġfilled": 6755,
      "Ġkeyboards": 6756,
      "Ġrespecting": 6757,
      "Ġmeasuring": 6758,
      "Ġvegg": 6759,
      "Ġtreating": 6760,
      "Ġbreathable": 6761,
      "ĠCloud": 6762,
      "Ġrepresentative": 6763,
      "otechnology": 6764,
      "Ġinfluences": 6765,
      "Ġatmospheric": 6766,
      "Ġconducted": 6767,
      "Ġdebate": 6768,
      "Ġcomplementary": 6769,
      "Ġsuspected": 6770,
      "Ġcertifications": 6771,
      "Ġpasswords": 6772,
      "Ġturning": 6773,
      "ĠCustomers": 6774,
      "Ġsavings": 6775,
      "ĠReflect": 6776,
      "Ġperceived": 6777,
      "Ġretailers": 6778,
      "aroque": 6779,
      "Ġownership": 6780,
      "Ġencounter": 6781,
      "Ġabsorb": 6782,
      "Ġvacation": 6783,
      "Ġprocrastination": 6784,
      "Ġacknowledging": 6785,
      "Ġbacteria": 6786,
      "ĠProtect": 6787,
      "ĠEnvironmental": 6788,
      "Ġcucumber": 6789,
      "Ġtelevision": 6790,
      "Ġalleviate": 6791,
      "Com": 6792,
      "SD": 6793,
      "ao": 6794,
      "list": 6795,
      "Ġsnow": 6796,
      "Ġpit": 6797,
      "Ġmouth": 6798,
      "Ġfusion": 6799,
      "Ġwool": 6800,
      "icians": 6801,
      "Ġdri": 6802,
      "ctu": 6803,
      "Ġrecept": 6804,
      "Ġthous": 6805,
      "Ġhop": 6806,
      "Ġlosing": 6807,
      "ersect": 6808,
      "chat": 6809,
      "ethe": 6810,
      "ulated": 6811,
      "irical": 6812,
      "Ġchili": 6813,
      "Ġrhy": 6814,
      "ĠHar": 6815,
      "ĠBi": 6816,
      "ĠBang": 6817,
      "ĠBaroque": 6818,
      "Ġtril": 6819,
      "ĠPop": 6820,
      "ĠPositive": 6821,
      "ĠThink": 6822,
      "uma": 6823,
      "Ġpersonas": 6824,
      "Ġworked": 6825,
      "ĠFost": 6826,
      "ilemm": 6827,
      "Ġunrealistic": 6828,
      "ĠGrou": 6829,
      "ĠGreen": 6830,
      "Ġevil": 6831,
      "Ġimproves": 6832,
      "Ġaccl": 6833,
      "ĠState": 6834,
      "ĠStick": 6835,
      "Ġprofiles": 6836,
      "Ġessay": 6837,
      "Ġgenerating": 6838,
      "Ġdisturb": 6839,
      "azz": 6840,
      "ĠRepe": 6841,
      "Ġ12": 6842,
      "Ġtrek": 6843,
      "ographics": 6844,
      "Ġsuggests": 6845,
      "Ġafterlife": 6846,
      "Ġendangered": 6847,
      "Ġproducers": 6848,
      "Ġfruity": 6849,
      "Ġoperate": 6850,
      "Ġelectronic": 6851,
      "Ġacceptable": 6852,
      "Ġantiox": 6853,
      "Ġantivirus": 6854,
      "itute": 6855,
      "ĠCommunity": 6856,
      "Ġscenes": 6857,
      "Ġobtain": 6858,
      "ĠMedia": 6859,
      "ĠStudio": 6860,
      "Ġbank": 6861,
      "Ġbanking": 6862,
      "Ġauthorities": 6863,
      "ĠWriting": 6864,
      "Ġadvisors": 6865,
      "Ġdocuments": 6866,
      "space": 6867,
      "Ġsalads": 6868,
      "Ġincredibly": 6869,
      "Ġseconds": 6870,
      "Ġcrispy": 6871,
      "Ġearthy": 6872,
      "Ġescal": 6873,
      "Ġdangerous": 6874,
      "Ġbelonging": 6875,
      "Ġfundamental": 6876,
      "Ġmultiplayer": 6877,
      "Ġpercentage": 6878,
      "Ġantioxid": 6879,
      "13": 6880,
      "May": 6881,
      "building": 6882,
      "down": 6883,
      "long": 6884,
      "she": 6885,
      "ref": 6886,
      "esla": 6887,
      "Ġpage": 6888,
      "Ġpounds": 6889,
      "enities": 6890,
      "Ġmid": 6891,
      "Ġfer": 6892,
      "Ġfill": 6893,
      "Ġbath": 6894,
      "Ġinac": 6895,
      "Ġdilemm": 6896,
      "Ġhol": 6897,
      "Ġhate": 6898,
      "othing": 6899,
      "Ġsteep": 6900,
      "Ġstuck": 6901,
      "ulpt": 6902,
      "ĠTalk": 6903,
      "ĠTesla": 6904,
      "Ġangle": 6905,
      "Ġconcise": 6906,
      "amb": 6907,
      "orthy": 6908,
      "ĠSat": 6909,
      "ĠSound": 6910,
      "Ġdebr": 6911,
      "Ġdegra": 6912,
      "ada": 6913,
      "emy": 6914,
      "ĠCross": 6915,
      "ĠHel": 6916,
      "Ġshoot": 6917,
      "ĠDet": 6918,
      "ĠMin": 6919,
      "ĠFlex": 6920,
      "Ġprecise": 6921,
      "Ġtraits": 6922,
      "Ġtradition": 6923,
      "Ġpeak": 6924,
      "Ġoffline": 6925,
      "Ġdisapp": 6926,
      "Ġcovers": 6927,
      "Ġscore": 6928,
      "ckers": 6929,
      "ĠOpen": 6930,
      "ĠStore": 6931,
      "Ġflaw": 6932,
      "Ġamenities": 6933,
      "Ġemotion": 6934,
      "Ġsauna": 6935,
      "Ġtransact": 6936,
      "Ġchef": 6937,
      "Ġdefine": 6938,
      "Ġ15": 6939,
      "Ġforming": 6940,
      "Ġvisualizing": 6941,
      "ĠProject": 6942,
      "Ġrespected": 6943,
      "Ġhandb": 6944,
      "Ġdeciding": 6945,
      "Ġagreements": 6946,
      "Ġholds": 6947,
      "Ġcapability": 6948,
      "Ġinternal": 6949,
      "ĠEmbra": 6950,
      "Ġcybersecurity": 6951,
      "ĠDec": 6952,
      "Ġintegrate": 6953,
      "Ġhyp": 6954,
      "cipitation": 6955,
      "Ġpurchases": 6956,
      "Ġpodcasters": 6957,
      "Ġlifes": 6958,
      "Ġvolume": 6959,
      "ĠSecurity": 6960,
      "ĠResp": 6961,
      "ĠResearchers": 6962,
      "Ġalgorithm": 6963,
      "Ġresponding": 6964,
      "Ġ197": 6965,
      "Ġfootwear": 6966,
      "ĠWhite": 6967,
      "Ġintroduce": 6968,
      "ĠCollaborate": 6969,
      "Ġsubscrib": 6970,
      "ĠCoffee": 6971,
      "ĠUser": 6972,
      "Ġseparate": 6973,
      "ĠClassic": 6974,
      "Ġclaims": 6975,
      "Ġneckl": 6976,
      "ĠCOVID": 6977,
      "ĠBuddh": 6978,
      "Ġacquisition": 6979,
      "Ġmachines": 6980,
      "ĠDigital": 6981,
      "Ġvarieties": 6982,
      "Ġconstraints": 6983,
      "ĠPanther": 6984,
      "etheless": 6985,
      "Ġtrilogy": 6986,
      "EO": 6987,
      "Fin": 6988,
      "fu": 6989,
      "ma": 6990,
      "val": 6991,
      "ww": 6992,
      "reens": 6993,
      "Ġcust": 6994,
      "erh": 6995,
      "orize": 6996,
      "orrow": 6997,
      "alian": 6998,
      "Ġmand": 6999,
      "Ġfirm": 7000,
      "Ġolive": 7001,
      "ica": 7002,
      "icious": 7003,
      "ari": 7004,
      "veill": 7005,
      "Ġends": 7006,
      "asy": 7007,
      "Ġforced": 7008,
      "Ġvib": 7009,
      "Ġimper": 7010,
      "advant": 7011,
      "Ġenerg": 7012,
      "ĠCity": 7013,
      "Ġintersect": 7014,
      "Ġshut": 7015,
      "Ġresolving": 7016,
      "ĠPhys": 7017,
      "ĠMem": 7018,
      "ĠRest": 7019,
      "Ġprecipitation": 7020,
      "oday": 7021,
      "Ġtracks": 7022,
      "Ġacts": 7023,
      "Ġnewer": 7024,
      "Ġovercoming": 7025,
      "Ġlearners": 7026,
      "Ġspr": 7027,
      "Ġreduces": 7028,
      "Ġpoly": 7029,
      "Ġpolished": 7030,
      "Ġsyn": 7031,
      "Ġsau": 7032,
      "Ġincreases": 7033,
      "intensity": 7034,
      "Ġcaf": 7035,
      "ometric": 7036,
      "Ġpossibility": 7037,
      "Ġviewer": 7038,
      "Ġmotivations": 7039,
      "Ġsalvation": 7040,
      "Ġenter": 7041,
      "Ġcalendar": 7042,
      "Ġcombined": 7043,
      "Ġlesser": 7044,
      "Ġsoup": 7045,
      "Ġregulating": 7046,
      "ĠComb": 7047,
      "Ġsensory": 7048,
      "ossil": 7049,
      "Ġpayments": 7050,
      "ĠSetting": 7051,
      "ĠUniversity": 7052,
      "Ġpreservation": 7053,
      "Ġelection": 7054,
      "Ġnavy": 7055,
      "Ġfairs": 7056,
      "ĠSuper": 7057,
      "monogam": 7058,
      "Ġentertaining": 7059,
      "Ġemphasizes": 7060,
      "training": 7061,
      "liance": 7062,
      "Ġadvocating": 7063,
      "Ġsourcing": 7064,
      "Ġconcerned": 7065,
      "Ġfulfill": 7066,
      "Ġframework": 7067,
      "Ġdiseases": 7068,
      "Ġrolls": 7069,
      "Ġcooked": 7070,
      "Ġresistant": 7071,
      "Ġverify": 7072,
      "ĠClear": 7073,
      "ĠMuseum": 7074,
      "Ġdomin": 7075,
      "Ġsurvive": 7076,
      "Ġstimulate": 7077,
      "Ġtomato": 7078,
      "Ġantibiotics": 7079,
      "Ġreveal": 7080,
      "Ġintegrity": 7081,
      "ĠManagement": 7082,
      "Ġcooperation": 7083,
      "Ġelegant": 7084,
      "Ġunpredict": 7085,
      "Ġpretty": 7086,
      "ĠRAM": 7087,
      "Ġrelatable": 7088,
      "Ġunethical": 7089,
      "Ġgrocery": 7090,
      "Ġbattles": 7091,
      "Ġimmediately": 7092,
      "Ġthousands": 7093,
      "Ġdebris": 7094,
      "veillance": 7095,
      "food": 7096,
      "oj": 7097,
      "oom": 7098,
      "oking": 7099,
      "paced": 7100,
      "ras": 7101,
      "son": 7102,
      "such": 7103,
      "tt": 7104,
      "Ġaw": 7105,
      "Ġtheater": 7106,
      "Ġmant": 7107,
      "Ġmild": 7108,
      "Ġmaps": 7109,
      "Ġwal": 7110,
      "ison": 7111,
      "Ġhon": 7112,
      "Ġhats": 7113,
      "eline": 7114,
      "rad": 7115,
      "racy": 7116,
      "Ġnost": 7117,
      "Ġstored": 7118,
      "igious": 7119,
      "Ġanger": 7120,
      "Ġcomment": 7121,
      "ĠAven": 7122,
      "aming": 7123,
      "ĠSub": 7124,
      "Ġdeploy": 7125,
      "ĠCr": 7126,
      "Ġintake": 7127,
      "Ġrub": 7128,
      "Ġcomplic": 7129,
      "reating": 7130,
      "ĠDef": 7131,
      "Ġcontract": 7132,
      "Ġmeats": 7133,
      "Ġunable": 7134,
      "ĠGame": 7135,
      "Ġknowing": 7136,
      "Ġpolice": 7137,
      "Ġamb": 7138,
      "Ġstyling": 7139,
      "ĠChallen": 7140,
      "ĠVe": 7141,
      "Ġhumidity": 7142,
      "Ġbrings": 7143,
      "Ġbrief": 7144,
      "Ġexplan": 7145,
      "Ġinvestors": 7146,
      "ĠProg": 7147,
      "ĠShack": 7148,
      "ĠExercise": 7149,
      "Ġsuggested": 7150,
      "Ġpairs": 7151,
      "Ġdressed": 7152,
      "Ġreceiving": 7153,
      "ĠDepending": 7154,
      "Ġmilest": 7155,
      "Ġvarying": 7156,
      "Ġcelebrated": 7157,
      "Ġletting": 7158,
      "Ġaccepted": 7159,
      "onestly": 7160,
      "Ġassessment": 7161,
      "appropriate": 7162,
      "Ġplaylist": 7163,
      "ĠJoh": 7164,
      "Ġmechanisms": 7165,
      "Ġrecycling": 7166,
      "ĠBrand": 7167,
      "Ġyounger": 7168,
      "Ġthrill": 7169,
      "Ġnutrition": 7170,
      "Ġvibrations": 7171,
      "ĠKnown": 7172,
      "Ġsandals": 7173,
      "ĠHealthcare": 7174,
      "Ġceremonies": 7175,
      "Ġsoundtracks": 7176,
      "Ġfigure": 7177,
      "ĠPatagon": 7178,
      "ĠHeadspace": 7179,
      "Ġtitles": 7180,
      "ĠChildren": 7181,
      "Ġcompensation": 7182,
      "Ġprobiotics": 7183,
      "ĠExamples": 7184,
      "Ġsupervis": 7185,
      "Ġbottle": 7186,
      "Ġsauces": 7187,
      "?\"": 7188,
      "Honestly": 7189,
      "MP": 7190,
      "car": 7191,
      "hors": 7192,
      "lights": 7193,
      "rical": 7194,
      "Ġ@": 7195,
      "rep": 7196,
      "Ġcorpor": 7197,
      "orous": 7198,
      "alg": 7199,
      "Ġmig": 7200,
      "Ġfile": 7201,
      "Ġfelt": 7202,
      "Ġfossil": 7203,
      "Ġwoman": 7204,
      "Ġtoward": 7205,
      "Ġber": 7206,
      "lets": 7207,
      "Ġginger": 7208,
      "Ġniche": 7209,
      "Ġstad": 7210,
      "Ġstead": 7211,
      "Ġstoring": 7212,
      "etic": 7213,
      "ĠTest": 7214,
      "ĠTurn": 7215,
      "igations": 7216,
      "sem": 7217,
      "Ġalter": 7218,
      "ĠCert": 7219,
      "Ġteeth": 7220,
      "anda": 7221,
      "ĠBreat": 7222,
      "Ġnotable": 7223,
      "ĠFam": 7224,
      "ĠFast": 7225,
      "ĠEnd": 7226,
      "ava": 7227,
      "ĠLike": 7228,
      "Ġactual": 7229,
      "Ġkne": 7230,
      "ĠUtil": 7231,
      "endo": 7232,
      "berries": 7233,
      "wei": 7234,
      "oves": 7235,
      "Ġblouse": 7236,
      "Ġtransit": 7237,
      "Ġparticles": 7238,
      "Ġbridge": 7239,
      "Ġmother": 7240,
      "Ġviewed": 7241,
      "Ġfinances": 7242,
      "Ġwearable": 7243,
      "Ġlights": 7244,
      "rence": 7245,
      "Ġhandling": 7246,
      "Ġsurveillance": 7247,
      "Ġroutines": 7248,
      "Ġfreely": 7249,
      "Ġreleased": 7250,
      "Ġflowers": 7251,
      "Ġdigestion": 7252,
      "Ġanxious": 7253,
      "Ġsensation": 7254,
      "Ġcollecting": 7255,
      "Ġpoliticians": 7256,
      "Ġadaptable": 7257,
      "Ġelectron": 7258,
      "Ġadvancement": 7259,
      "Ġmiscon": 7260,
      "Ġwarming": 7261,
      "Ġupdate": 7262,
      "ĠSchedule": 7263,
      "Ġcapturing": 7264,
      "Ġcouple": 7265,
      "Ġcups": 7266,
      "Ġexposed": 7267,
      "Ġlayers": 7268,
      "Ġacquire": 7269,
      "Ġaims": 7270,
      "Ġaimed": 7271,
      "Ġcloser": 7272,
      "Ġfailed": 7273,
      "Ġharvest": 7274,
      "ĠCollaboration": 7275,
      "ĠMountains": 7276,
      "Ġsacred": 7277,
      "Ġperceive": 7278,
      "ĠNonetheless": 7279,
      "ĠValley": 7280,
      "Ġpassionate": 7281,
      "Ġunfair": 7282,
      "Ġcommercial": 7283,
      "Ġtriggers": 7284,
      "writing": 7285,
      "Ġcontroversial": 7286,
      "ĠInsight": 7287,
      "Ġsediment": 7288,
      "Ġapplication": 7289,
      "ĠSnapchat": 7290,
      "Ġinterconnected": 7291,
      "Ġcohesive": 7292,
      "ĠAcknowledge": 7293,
      "Finally": 7294,
      "ĠPatagonia": 7295,
      "lifting": 7296,
      "ys": 7297,
      "Ġcher": 7298,
      "atin": 7299,
      "erce": 7300,
      "esides": 7301,
      "icting": 7302,
      "Ġhosp": 7303,
      "Ġly": 7304,
      "Ġlately": 7305,
      "raw": 7306,
      "otes": 7307,
      "olved": 7308,
      "ĠTidal": 7309,
      "Ġhero": 7310,
      "Ġsung": 7311,
      "Ġhaz": 7312,
      "Ġexec": 7313,
      "ively": 7314,
      "pping": 7315,
      "Ġimpul": 7316,
      "Ġimpression": 7317,
      "ading": 7318,
      "Ġlemon": 7319,
      "Ġintellectual": 7320,
      "Ġtech": 7321,
      "ĠHy": 7322,
      "ĠHaw": 7323,
      "Ġcompl": 7324,
      "Ġcomposed": 7325,
      "osen": 7326,
      "ĠBet": 7327,
      "ĠBack": 7328,
      "ĠMor": 7329,
      "umbl": 7330,
      "ĠFashion": 7331,
      "ĠFirst": 7332,
      "ĠFresh": 7333,
      "Ġindul": 7334,
      "Ġindoor": 7335,
      "Ġpregn": 7336,
      "plays": 7337,
      "Ġrecon": 7338,
      "ĠLond": 7339,
      "ĠLove": 7340,
      "ireless": 7341,
      "berry": 7342,
      "Ġsche": 7343,
      "Ġdesignated": 7344,
      "ought": 7345,
      "Ġfried": 7346,
      "Ġstarts": 7347,
      "Ġlocally": 7348,
      "intendo": 7349,
      "Ġresearching": 7350,
      "Ġrequest": 7351,
      "Ġpatients": 7352,
      "Ġmotion": 7353,
      "Ġpreval": 7354,
      "Ġopening": 7355,
      "Ġcaramel": 7356,
      "ĠEnh": 7357,
      "Ġempath": 7358,
      "Ġdecline": 7359,
      "Ġflavorful": 7360,
      "Ġachievement": 7361,
      "Ġtargets": 7362,
      "Ġexperimental": 7363,
      "ĠAltern": 7364,
      "Ġsalesperson": 7365,
      "Ġpreferred": 7366,
      "Ġintegrating": 7367,
      "Ġcharacterized": 7368,
      "Ġadjusting": 7369,
      "Ġfunctions": 7370,
      "Ġwarmth": 7371,
      "Ġbiggest": 7372,
      "Ġcrazy": 7373,
      "Ġcooling": 7374,
      "ĠImag": 7375,
      "Ġobl": 7376,
      "Ġpollut": 7377,
      "Ġbroadcast": 7378,
      "Ġacquiring": 7379,
      "ĠStudy": 7380,
      "Ġdramatic": 7381,
      "Ġimagery": 7382,
      "Ġexpanded": 7383,
      "urban": 7384,
      "block": 7385,
      "Ġfrequent": 7386,
      "Ġtopped": 7387,
      "Ġnutritional": 7388,
      "Ġepic": 7389,
      "ĠExpress": 7390,
      "ĠTimer": 7391,
      "Ġhousehold": 7392,
      "Ġscarf": 7393,
      "ĠIPAs": 7394,
      "watching": 7395,
      "Ġanswers": 7396,
      "ĠAirb": 7397,
      "Ġcosplay": 7398,
      "ĠEmotional": 7399,
      "Ġcounselor": 7400,
      "ĠAustralia": 7401,
      "Ġvigilant": 7402,
      "inspired": 7403,
      "Ġthunderst": 7404,
      "ĠRepeat": 7405,
      "Ġcomplicated": 7406,
      "ĠJohn": 7407,
      "Ġsunglasses": 7408,
      "umblr": 7409,
      "ĠLondon": 7410,
      "Ind": 7411,
      "PIs": 7412,
      "cue": 7413,
      "flow": 7414,
      "fts": 7415,
      "gate": 7416,
      "night": 7417,
      "oop": 7418,
      "rations": 7419,
      "atically": 7420,
      "erally": 7421,
      "inging": 7422,
      "Ġtheories": 7423,
      "anes": 7424,
      "Ġfry": 7425,
      "Ġwed": 7426,
      "Ġda": 7427,
      "Ġdrop": 7428,
      "leep": 7429,
      "Ġreef": 7430,
      "Ġhim": 7431,
      "Ġloud": 7432,
      "Ġbeige": 7433,
      "ĠIoT": 7434,
      "Ġstir": 7435,
      "Ġstages": 7436,
      "ĠTour": 7437,
      "ĠTumblr": 7438,
      "Ġsuited": 7439,
      "aked": 7440,
      "atever": 7441,
      "ĠAng": 7442,
      "ivate": 7443,
      "abit": 7444,
      "abular": 7445,
      "Ġranging": 7446,
      "ĠHua": 7447,
      "ĠBu": 7448,
      "ĠPower": 7449,
      "Ġpersistent": 7450,
      "formance": 7451,
      "ĠWill": 7452,
      "ĠWild": 7453,
      "ĠFood": 7454,
      "ĠEver": 7455,
      "Ġcloth": 7456,
      "pling": 7457,
      "Ġoutput": 7458,
      "Ġrecently": 7459,
      "ĠLog": 7460,
      "ĠLife": 7461,
      "Ġperm": 7462,
      "Ġgamep": 7463,
      "ĠNintendo": 7464,
      "ĠStand": 7465,
      "Ġcustomize": 7466,
      "Ġaddiction": 7467,
      "Ġconfusion": 7468,
      "Ġidentities": 7469,
      "Ġwaterproof": 7470,
      "Ġprotocol": 7471,
      "ĠAsia": 7472,
      "Ġviewing": 7473,
      "Ġsafer": 7474,
      "Ġneglect": 7475,
      "Ġauthors": 7476,
      "Ġconsumed": 7477,
      "Ġmulti": 7478,
      "Ġencouraged": 7479,
      "Ġvend": 7480,
      "Ġcontributes": 7481,
      "Ġcontributions": 7482,
      "Ġstreamline": 7483,
      "Ġdistraction": 7484,
      "ĠAncient": 7485,
      "Ġdiscussing": 7486,
      "Ġtreated": 7487,
      "ikely": 7488,
      "Ġpressing": 7489,
      "Ġcelebrities": 7490,
      "ruption": 7491,
      "ĠBlue": 7492,
      "ĠEnglish": 7493,
      "Ġfalling": 7494,
      "Ġcalling": 7495,
      "Ġfuels": 7496,
      "Ġ199": 7497,
      "This": 7498,
      "Ġcouples": 7499,
      "ĠDisney": 7500,
      "Ġhydration": 7501,
      "Ġsilk": 7502,
      "Ġbrewed": 7503,
      "ventions": 7504,
      "Ġsymbols": 7505,
      "Ġsection": 7506,
      "Ġcolonialism": 7507,
      "ĠMountain": 7508,
      "ĠOthers": 7509,
      "Ġhighlighting": 7510,
      "Ġmillion": 7511,
      "Ġdiagn": 7512,
      "ĠFeedback": 7513,
      "ĠClean": 7514,
      "Ġentrepreneurs": 7515,
      "conscious": 7516,
      "Ġbirth": 7517,
      "ĠLimited": 7518,
      "inguistic": 7519,
      "ĠMcDon": 7520,
      "Ġunlikely": 7521,
      "Ġcomedy": 7522,
      "Ġpublished": 7523,
      "Ġchunks": 7524,
      "GOs": 7525,
      "Ġnarrow": 7526,
      "ĠAvengers": 7527,
      "Ġelectronics": 7528,
      "ĠHuawei": 7529,
      "ĠMcDonald": 7530,
      "Be": 7531,
      "IT": 7532,
      "RM": 7533,
      "dom": 7534,
      "fi": 7535,
      "fast": 7536,
      "iov": 7537,
      "lom": 7538,
      "lam": 7539,
      "meg": 7540,
      "source": 7541,
      "ught": 7542,
      "wood": 7543,
      "zing": 7544,
      "Ġurban": 7545,
      "Ġcells": 7546,
      "Ġsorry": 7547,
      "Ġpages": 7548,
      "enn": 7549,
      "Ġink": 7550,
      "Ġinjust": 7551,
      "arks": 7552,
      "usable": 7553,
      "roll": 7554,
      "Ġlinger": 7555,
      "Ġbeaches": 7556,
      "rab": 7557,
      "Ġnor": 7558,
      "cean": 7559,
      "ĠTem": 7560,
      "urch": 7561,
      "Ġchosen": 7562,
      "Ġneon": 7563,
      "Ġenfor": 7564,
      "istical": 7565,
      "Ġshif": 7566,
      "anger": 7567,
      "ĠItalian": 7568,
      "ĠFact": 7569,
      "Ġproven": 7570,
      "ĠLeg": 7571,
      "Ġarms": 7572,
      "Ġstudios": 7573,
      "Ġoverly": 7574,
      "Ġuphold": 7575,
      "Ġsmok": 7576,
      "Ġwhenever": 7577,
      "Ġinterfaces": 7578,
      "Ġinstances": 7579,
      "Ġages": 7580,
      "Ġprofound": 7581,
      "Ġdiscovery": 7582,
      "Ġwanted": 7583,
      "Ġ18": 7584,
      "ernet": 7585,
      "Ġbreakthrough": 7586,
      "Ġethically": 7587,
      "Ġfilmm": 7588,
      "attering": 7589,
      "Ġflows": 7590,
      "Ġsensitivity": 7591,
      "Ġproduces": 7592,
      "Ġbreathtaking": 7593,
      "forward": 7594,
      "Ġoperational": 7595,
      "ĠLeather": 7596,
      "ĠFocusing": 7597,
      "Ġanti": 7598,
      "Ġsearching": 7599,
      "Ġtranslations": 7600,
      "ĠCollect": 7601,
      "Ġstraw": 7602,
      "apping": 7603,
      "party": 7604,
      "Ġoccurs": 7605,
      "Ġvalidity": 7606,
      "Ġhostel": 7607,
      "Ġprimarily": 7608,
      "Ġtaxes": 7609,
      "Ġcitrus": 7610,
      "Ġsolids": 7611,
      "ĠAssoci": 7612,
      "Ġsavory": 7613,
      "ĠFrance": 7614,
      "Ġolder": 7615,
      "Ġpeppers": 7616,
      "Ġinternship": 7617,
      "ĠReducing": 7618,
      "ĠBelg": 7619,
      "Ġprospect": 7620,
      "Ġthoroughly": 7621,
      "Ġmaximize": 7622,
      "ĠChristian": 7623,
      "Ġupgrade": 7624,
      "Ġphenomenon": 7625,
      "Ġfertility": 7626,
      "Ġsuspense": 7627,
      "Ġtactics": 7628,
      "Ġvocabular": 7629,
      "Ġdemocratic": 7630,
      "commerce": 7631,
      "ĠContinuous": 7632,
      "Ġguarantee": 7633,
      "Ġdigestive": 7634,
      "Ġveggies": 7635,
      "Ġantioxidants": 7636,
      "Ġferment": 7637,
      "ĠEmbrace": 7638,
      "Ġlifespan": 7639,
      "Ġunpredictable": 7640,
      "Ġgameplay": 7641,
      "Ġprotocols": 7642,
      "50": 7643,
      "AR": 7644,
      "All": 7645,
      "Mind": 7646,
      "ait": 7647,
      "hou": 7648,
      "iance": 7649,
      "ket": 7650,
      "lim": 7651,
      "nb": 7652,
      "ooth": 7653,
      "rient": 7654,
      "vity": 7655,
      "yth": 7656,
      "ygen": 7657,
      "Ġast": 7658,
      "Ġtap": 7659,
      "Ġtables": 7660,
      "hest": 7661,
      "Ġsad": 7662,
      "Ġswit": 7663,
      "ora": 7664,
      "org": 7665,
      "Ġfour": 7666,
      "Ġbone": 7667,
      "Ġdried": 7668,
      "ede": 7669,
      "users": 7670,
      "ascular": 7671,
      "Ġlinked": 7672,
      "Ġgy": 7673,
      "Ġstations": 7674,
      "ĠTom": 7675,
      "ivest": 7676,
      "abernet": 7677,
      "urp": 7678,
      "ĠSout": 7679,
      "Ġvirt": 7680,
      "pper": 7681,
      "Ġchopped": 7682,
      "istry": 7683,
      "Ġcompost": 7684,
      "ango": 7685,
      "Ġworried": 7686,
      "ĠBoth": 7687,
      "ĠMot": 7688,
      "ĠThings": 7689,
      "Ġmodes": 7690,
      "Ġjazz": 7691,
      "Ġworkload": 7692,
      "ĠFre": 7693,
      "ĠFree": 7694,
      "ĠEast": 7695,
      "Ġmodeling": 7696,
      "odes": 7697,
      "odor": 7698,
      "Ġpean": 7699,
      "ĠLaw": 7700,
      "Ġdisadvant": 7701,
      "Ġdescrib": 7702,
      "Ġunderst": 7703,
      "hyd": 7704,
      "Ġsculpt": 7705,
      "Ġspots": 7706,
      "Ġinformative": 7707,
      "Ġperman": 7708,
      "Ġaccel": 7709,
      "Ġaccum": 7710,
      "ensions": 7711,
      "Ġprocessed": 7712,
      "Ġserves": 7713,
      "Ġvariations": 7714,
      "Ġpromotions": 7715,
      "Ġasset": 7716,
      "interest": 7717,
      "Ġthanks": 7718,
      "Ġclassmates": 7719,
      "Ġcaught": 7720,
      "Ġminor": 7721,
      "ĠProper": 7722,
      "Ġdefinition": 7723,
      "text": 7724,
      "phas": 7725,
      "ĠConsult": 7726,
      "Ġdecl": 7727,
      "mmetry": 7728,
      "Ġlargest": 7729,
      "Ġharmony": 7730,
      "Ġsupplies": 7731,
      "Ġhappening": 7732,
      "ĠInteg": 7733,
      "Ġpostures": 7734,
      "Ġadopted": 7735,
      "Ġcurrents": 7736,
      "Ġestablishing": 7737,
      "Ġintegral": 7738,
      "Ġportra": 7739,
      "Ġlogistics": 7740,
      "Ġalignment": 7741,
      "Ġbuyer": 7742,
      "Ġboards": 7743,
      "ĠAmericans": 7744,
      "ĠImplement": 7745,
      "setting": 7746,
      "ĠScient": 7747,
      "Ġdestruct": 7748,
      "Ġmeasured": 7749,
      "Ġconclusions": 7750,
      "Ġdiscrimin": 7751,
      "Ġrecipient": 7752,
      "Ġmatters": 7753,
      "Ġsourced": 7754,
      "Ġinstallations": 7755,
      "Ġtasty": 7756,
      "Ġcertified": 7757,
      "Ġinequ": 7758,
      "Ġteaspoon": 7759,
      "ĠReading": 7760,
      "minute": 7761,
      "Ġaromas": 7762,
      "Ġcopy": 7763,
      "ĠSurvey": 7764,
      "Ġscheduling": 7765,
      "Ġaesthetic": 7766,
      "Ġunsure": 7767,
      "Ġcryst": 7768,
      "Ġdistinctive": 7769,
      "ĠExplore": 7770,
      "Ġfraud": 7771,
      "Ġprompts": 7772,
      "consum": 7773,
      "Ġloans": 7774,
      "Ġmiracles": 7775,
      "Ġhorizon": 7776,
      "ĠParis": 7777,
      "Ġaesthetics": 7778,
      "Ġreforms": 7779,
      "Ġadequate": 7780,
      "Ġscenarios": 7781,
      "ĠFoster": 7782,
      "reflection": 7783,
      "Ġcustody": 7784,
      "ĠPhysical": 7785,
      "Ġfulfillment": 7786,
      "Ġnostalg": 7787,
      "Ġpollutants": 7788,
      "iovascular": 7789,
      "Ġlingerie": 7790,
      "PU": 7791,
      "Te": 7792,
      "Why": 7793,
      "aiss": 7794,
      "fits": 7795,
      "mal": 7796,
      "rich": 7797,
      "rals": 7798,
      "ss": 7799,
      "su": 7800,
      "worthy": 7801,
      "yles": 7802,
      "Ġaverage": 7803,
      "inot": 7804,
      "rees": 7805,
      "hero": 7806,
      "Ġsite": 7807,
      "anking": 7808,
      "Ġmer": 7809,
      "Ġbite": 7810,
      "Ġdoub": 7811,
      "Ġreusable": 7812,
      "Ġhip": 7813,
      "Ġbegan": 7814,
      "Ġnations": 7815,
      "Ġforces": 7816,
      "eted": 7817,
      "ĠTab": 7818,
      "Ġconform": 7819,
      "orthern": 7820,
      "abi": 7821,
      "Ġchips": 7822,
      "ĠCapt": 7823,
      "respect": 7824,
      "Ġresent": 7825,
      "ĠPyth": 7826,
      "ĠMult": 7827,
      "umps": 7828,
      "Ġjump": 7829,
      "ressed": 7830,
      "ĠFire": 7831,
      "Ġappli": 7832,
      "Ġconsolid": 7833,
      "Ġoutlook": 7834,
      "Ġtherefore": 7835,
      "Ġrelieve": 7836,
      "Ġdisplays": 7837,
      "Ġstrip": 7838,
      "gged": 7839,
      "Ġcustomized": 7840,
      "Ġinterference": 7841,
      "Ġgets": 7842,
      "Ġconfidential": 7843,
      "Ġecological": 7844,
      "Ġempirical": 7845,
      "Ġmeters": 7846,
      "ĠReach": 7847,
      "ĠReward": 7848,
      "Ġcritics": 7849,
      "Ġexercising": 7850,
      "Ġpool": 7851,
      "Ġmonth": 7852,
      "Ġlimiting": 7853,
      "Ġrisky": 7854,
      "Ġgray": 7855,
      "Ġreleases": 7856,
      "Ġreflecting": 7857,
      "ĠWithout": 7858,
      "Ġspecialty": 7859,
      "Ġfacial": 7860,
      "Ġcentered": 7861,
      "Ġadapting": 7862,
      "Ġsweat": 7863,
      "Ġdamaged": 7864,
      "Ġdepart": 7865,
      "Ġportable": 7866,
      "Ġaligned": 7867,
      "ĠIndust": 7868,
      "Ġslower": 7869,
      "Ġherbs": 7870,
      "Ġmomentum": 7871,
      "Ġarguments": 7872,
      "Ġweightlifting": 7873,
      "Ġfalls": 7874,
      "Ġdietary": 7875,
      "Ġheads": 7876,
      "Ġsilver": 7877,
      "matical": 7878,
      "ĠTransl": 7879,
      "Ġworrying": 7880,
      "Ġsuperhero": 7881,
      "Ġsandw": 7882,
      "Ġrevolutionized": 7883,
      "Ġphilosop": 7884,
      "Ġminimalist": 7885,
      "Ġwelcoming": 7886,
      "Ġhobby": 7887,
      "Ġcatchy": 7888,
      "Ġpanels": 7889,
      "ĠPolit": 7890,
      "ĠRenaiss": 7891,
      "Ġetc": 7892,
      "Ġbirds": 7893,
      "Ġhomes": 7894,
      "ĠAccount": 7895,
      "Ġbuns": 7896,
      "ĠTableau": 7897,
      "ĠEconomic": 7898,
      "Ġenforcement": 7899,
      "Ġcharts": 7900,
      "Ġcryptography": 7901,
      "Ġcurriculum": 7902,
      "Ġdriver": 7903,
      "Ġdilemmas": 7904,
      "Ġvibe": 7905,
      "Ġberries": 7906,
      "ĠAssociation": 7907,
      "Ġvocabulary": 7908,
      "Ġappliances": 7909,
      "ĠRenaissance": 7910,
      "AC": 7911,
      "cific": 7912,
      "dation": 7913,
      "game": 7914,
      "hroom": 7915,
      "iam": 7916,
      "inting": 7917,
      "rest": 7918,
      "reach": 7919,
      "Ġcast": 7920,
      "Ġsick": 7921,
      "ato": 7922,
      "ndom": 7923,
      "eness": 7924,
      "Ġfishing": 7925,
      "Ġboring": 7926,
      "vender": 7927,
      "Ġholid": 7928,
      "asm": 7929,
      "Ġgift": 7930,
      "ula": 7931,
      "Ġonions": 7932,
      "iral": 7933,
      "Ġprolong": 7934,
      "Ġmoves": 7935,
      "uter": 7936,
      "ĠCrit": 7937,
      "izers": 7938,
      "ĠHouse": 7939,
      "ĠHapp": 7940,
      "Ġshot": 7941,
      "Ġshades": 7942,
      "Ġtrash": 7943,
      "ĠPres": 7944,
      "ĠPack": 7945,
      "ĠMis": 7946,
      "ĠMand": 7947,
      "ĠMore": 7948,
      "ĠItaly": 7949,
      "avior": 7950,
      "Ġexperiments": 7951,
      "ĠLi": 7952,
      "ending": 7953,
      "Ġsmell": 7954,
      "ĠInnovation": 7955,
      "Ġgreatest": 7956,
      "Ġknows": 7957,
      "ĠNile": 7958,
      "ĠNGOs": 7959,
      "ĠStre": 7960,
      "ferences": 7961,
      "Ġhighlights": 7962,
      "Ġdiscon": 7963,
      "Ġdiscovered": 7964,
      "ricular": 7965,
      "Ġgenerated": 7966,
      "ĠKh": 7967,
      "Ġrising": 7968,
      "ĠForg": 7969,
      "Ġrandom": 7970,
      "Ġlavender": 7971,
      "curate": 7972,
      "Ġmotivating": 7973,
      "Ġbreakage": 7974,
      "Ġemployer": 7975,
      "Ġsurfaces": 7976,
      "Ġdifficulties": 7977,
      "Ġinfluential": 7978,
      "ĠSharing": 7979,
      "Ġendor": 7980,
      "Ġcollected": 7981,
      "ropical": 7982,
      "Ġcoral": 7983,
      "Ġbuddy": 7984,
      "ĠPlatform": 7985,
      "ĠEmphas": 7986,
      "Ġpreparing": 7987,
      "Ġpropos": 7988,
      "Ġcontrolled": 7989,
      "Ġdepict": 7990,
      "Ġcelebrating": 7991,
      "Ġnutrient": 7992,
      "Ġpassen": 7993,
      "Ġlosses": 7994,
      "ĠResistance": 7995,
      "namon": 7996,
      "Ġchannel": 7997,
      "Ġappears": 7998,
      "Ġfuel": 7999,
      "traditional": 8000,
      "Ġcriticized": 8001,
      "Ġlecturer": 8002,
      "Ġhonesty": 8003,
      "ĠStudents": 8004,
      "Ġcardiovascular": 8005,
      "ĠWho": 8006,
      "Ġmassive": 8007,
      "Ġillness": 8008,
      "Ġgeological": 8009,
      "biased": 8010,
      "Ġpursuing": 8011,
      "ĠCalm": 8012,
      "ĠWatergate": 8013,
      "Ġextrem": 8014,
      "Ġfacilit": 8015,
      "Ġtransformed": 8016,
      "Ġlabels": 8017,
      "ounce": 8018,
      "ĠAgricult": 8019,
      "ĠReduced": 8020,
      "Ġgreens": 8021,
      "Ġchatb": 8022,
      "Ġfrag": 8023,
      "Ġcrowded": 8024,
      "Ġphenomena": 8025,
      "Ġweeks": 8026,
      "Ġtangy": 8027,
      "Ġappointments": 8028,
      "ĠGerman": 8029,
      "Ġwitness": 8030,
      "Ġalmond": 8031,
      "Ġdiscouraged": 8032,
      "ĠVolunteer": 8033,
      "Ġtemptation": 8034,
      "ĠHinduism": 8035,
      "Ġaspiring": 8036,
      "Ġwildfire": 8037,
      "Ġrhyth": 8038,
      "ĠGroup": 8039,
      "Ġdegradation": 8040,
      "Ġnecklace": 8041,
      "Ġpolyester": 8042,
      "Ġsteady": 8043,
      "Ġlyrics": 8044,
      "ĠImagine": 8045,
      "ĠAirbnb": 8046,
      "ivestock": 8047,
      "ĠPython": 8048,
      "Cl": 8049,
      "bur": 8050,
      "cation": 8051,
      "cultural": 8052,
      "dep": 8053,
      "iers": 8054,
      "iant": 8055,
      "kok": 8056,
      "vis": 8057,
      "wicking": 8058,
      "yl": 8059,
      "Ġtart": 8060,
      "inal": 8061,
      "Ġsore": 8062,
      "Ġspect": 8063,
      "athe": 8064,
      "orney": 8065,
      "itas": 8066,
      "Ġpap": 8067,
      "Ġmath": 8068,
      "isher": 8069,
      "isions": 8070,
      "Ġthumb": 8071,
      "ushes": 8072,
      "ĠIT": 8073,
      "Ġstar": 8074,
      "Ġstig": 8075,
      "Ġstorm": 8076,
      "Ġstouts": 8077,
      "Ġconventions": 8078,
      "Ġitem": 8079,
      "Ġhaptic": 8080,
      "amed": 8081,
      "ured": 8082,
      "ĠCoc": 8083,
      "Ġlever": 8084,
      "aceted": 8085,
      "resistant": 8086,
      "Ġrational": 8087,
      "ĠHer": 8088,
      "Ġshad": 8089,
      "Ġshipping": 8090,
      "Ġexpense": 8091,
      "inding": 8092,
      "ĠBro": 8093,
      "ĠPal": 8094,
      "ĠDem": 8095,
      "ĠMet": 8096,
      "ĠMoon": 8097,
      "ĠRather": 8098,
      "Ġclut": 8099,
      "Ġunaut": 8100,
      "Ġunbiased": 8101,
      "Ġdifferentiated": 8102,
      "ously": 8103,
      "Ġkn": 8104,
      "Ġdiss": 8105,
      "ails": 8106,
      "Ġdonut": 8107,
      "Ġscal": 8108,
      "Ġspelling": 8109,
      "ĠObs": 8110,
      "Ġmushroom": 8111,
      "ĠNeg": 8112,
      "Ġpromin": 8113,
      "llo": 8114,
      "Ġaged": 8115,
      "Ġcaution": 8116,
      "Ġchecks": 8117,
      "ĠJade": 8118,
      "Ġrare": 8119,
      "curricular": 8120,
      "Ġrealism": 8121,
      "Ġroute": 8122,
      "Ġextract": 8123,
      "ĠShake": 8124,
      "ĠConstruct": 8125,
      "Ġfitted": 8126,
      "Ġtested": 8127,
      "Ġvegan": 8128,
      "Ġgrape": 8129,
      "Ġtelling": 8130,
      "factor": 8131,
      "process": 8132,
      "ĠCompassion": 8133,
      "Ġsnacking": 8134,
      "Ġportion": 8135,
      "Ġattendees": 8136,
      "Ġevaluation": 8137,
      "Ġdependent": 8138,
      "sharing": 8139,
      "Ġspirit": 8140,
      "ĠQue": 8141,
      "Ġ2020": 8142,
      "Ġwaiting": 8143,
      "horized": 8144,
      "Ġinitiative": 8145,
      "Ġmathe": 8146,
      "Ġmountainous": 8147,
      "Ġsampling": 8148,
      "Ġreinfor": 8149,
      "ĠSupporting": 8150,
      "Ġlaunched": 8151,
      "iosity": 8152,
      "Ġintentional": 8153,
      "onym": 8154,
      "Ġaltogether": 8155,
      "Ġaccomplishment": 8156,
      "ĠUSA": 8157,
      "Ġrepeated": 8158,
      "Ġnuances": 8159,
      "Ġoptimization": 8160,
      "ĠGratitude": 8161,
      "Ġdemocracy": 8162,
      "ĠInvesting": 8163,
      "Ġportrayal": 8164,
      "ĠMaybe": 8165,
      "Ġbottom": 8166,
      "Ġmedications": 8167,
      "Ġassertive": 8168,
      "ĠGenerally": 8169,
      "Ġmanipulate": 8170,
      "Ġliberation": 8171,
      "Ġradio": 8172,
      "Ġpractitioners": 8173,
      "ĠForest": 8174,
      "Ġlicens": 8175,
      "ĠFoundation": 8176,
      "Ġpraised": 8177,
      "Ġcoastal": 8178,
      "Ġaggressive": 8179,
      "Ġexceptional": 8180,
      "ĠBangkok": 8181,
      "Ġacclaim": 8182,
      "Ġcafes": 8183,
      "Ġthriller": 8184,
      "Ġprevalent": 8185,
      "Ġfilmmakers": 8186,
      "Mindful": 8187,
      "Ġpermanent": 8188,
      "Ġunauthorized": 8189,
      "80": 8190,
      "AI": 8191,
      "Al": 8192,
      "cher": 8193,
      "cards": 8194,
      "ciple": 8195,
      "love": 8196,
      "met": 8197,
      "size": 8198,
      "tical": 8199,
      "Ġurg": 8200,
      "Ġaer": 8201,
      "inc": 8202,
      "inem": 8203,
      "Ġcateg": 8204,
      "Ġsavor": 8205,
      "Ġshel": 8206,
      "esh": 8207,
      "anj": 8208,
      "Ġpause": 8209,
      "Ġfats": 8210,
      "Ġwar": 8211,
      "Ġbesides": 8212,
      "Ġdim": 8213,
      "Ġdog": 8214,
      "omodor": 8215,
      "arc": 8216,
      "eding": 8217,
      "Ġyes": 8218,
      "Ġthus": 8219,
      "Ġlon": 8220,
      "Ġgap": 8221,
      "Ġnurt": 8222,
      "ĠTen": 8223,
      "ĠTreat": 8224,
      "ĠTree": 8225,
      "Ġsug": 8226,
      "aki": 8227,
      "ĠAthlet": 8228,
      "ĠSa": 8229,
      "ĠSushi": 8230,
      "Ġenlightenment": 8231,
      "aint": 8232,
      "Ġteen": 8233,
      "ĠHD": 8234,
      "ĠHost": 8235,
      "Ġexpans": 8236,
      "Ġadult": 8237,
      "Ġadhere": 8238,
      "Ġtrouble": 8239,
      "Ġreserv": 8240,
      "ĠMo": 8241,
      "ĠMil": 8242,
      "ĠRivers": 8243,
      "ĠFu": 8244,
      "ĠFrom": 8245,
      "ĠFestiv": 8246,
      "ĠEnt": 8247,
      "Ġunus": 8248,
      "ĠLast": 8249,
      "Ġkids": 8250,
      "Ġpositions": 8251,
      "cism": 8252,
      "Ġscandal": 8253,
      "Ġscreens": 8254,
      "Ġspring": 8255,
      "Ġmyst": 8256,
      "Ġregist": 8257,
      "Ġaccidents": 8258,
      "roughts": 8259,
      "ggings": 8260,
      "Ġvari": 8261,
      "Ġcompleted": 8262,
      "Ġprofic": 8263,
      "Ġsetbacks": 8264,
      "ĠChanges": 8265,
      "ĠKil": 8266,
      "ĠVer": 8267,
      "ĠJava": 8268,
      "Ġbalances": 8269,
      "Ġfollowed": 8270,
      "Ġraising": 8271,
      "Ġresponsive": 8272,
      "Ġ16": 8273,
      "Ġbackup": 8274,
      "Ġformer": 8275,
      "Ġgrass": 8276,
      "Ġfinance": 8277,
      "Ġvisualizations": 8278,
      "Ġentry": 8279,
      "Ġcountless": 8280,
      "Ġdemographics": 8281,
      "ixel": 8282,
      "Ġbreathe": 8283,
      "Ġesp": 8284,
      "Ġincorporates": 8285,
      "Ġrestorative": 8286,
      "Ġrecognizable": 8287,
      "Ġprinciple": 8288,
      "Ġpresentation": 8289,
      "Ġenhances": 8290,
      "ĠAnimal": 8291,
      "Ġendless": 8292,
      "Ġdiscussed": 8293,
      "Ġmorale": 8294,
      "Ġfacilities": 8295,
      "Ġreturns": 8296,
      "Ġcrimin": 8297,
      "Ġelim": 8298,
      "Ġhighest": 8299,
      "Ġterrain": 8300,
      "Ġversions": 8301,
      "Ġbatteries": 8302,
      "ĠTrail": 8303,
      "Ġmarriage": 8304,
      "Ġaids": 8305,
      "Ġmistake": 8306,
      "Ġsmoothly": 8307,
      "Ġsmoothies": 8308,
      "Ġintervention": 8309,
      "Ġcircular": 8310,
      "Ġcolleges": 8311,
      "Ġstatistical": 8312,
      "ĠArtificial": 8313,
      "Ġimagination": 8314,
      "Ġhosts": 8315,
      "Ġmission": 8316,
      "Ġreminder": 8317,
      "Ġmutually": 8318,
      "hoods": 8319,
      "Ġintentionally": 8320,
      "Ġcarrying": 8321,
      "Ġglasses": 8322,
      "Ġdivision": 8323,
      "Ġpleasure": 8324,
      "Ġ80": 8325,
      "Ġengineering": 8326,
      "ĠAnalytics": 8327,
      "ĠAnalyze": 8328,
      "Ġnegotiations": 8329,
      "Ġfluctu": 8330,
      "Ġcontroller": 8331,
      "Ġtomatoes": 8332,
      "demark": 8333,
      "Ġantibiotic": 8334,
      "Ġeggs": 8335,
      "Ġmedicine": 8336,
      "Ġweeke": 8337,
      "Ġcoordination": 8338,
      "ĠParticipate": 8339,
      "Ġvitamins": 8340,
      "Ġcinnamon": 8341,
      "Ġhurricane": 8342,
      "Ġperpetuate": 8343,
      "ĠJournal": 8344,
      "Ġluxury": 8345,
      "Ġclubs": 8346,
      "Ġscript": 8347,
      "Comp": 8348,
      "Ġhandbag": 8349,
      "Ġenergized": 8350,
      "ĠDefine": 8351,
      "Ġstadium": 8352,
      "ĠHawai": 8353,
      "Ġpregnancy": 8354,
      "Ġvendors": 8355,
      "Ġresentment": 8356,
      "//": 8357,
      "16": 8358,
      "://": 8359,
      "Ex": 8360,
      "Keep": 8361,
      "Lastly": 8362,
      "Many": 8363,
      "Sp": 8364,
      "TF": 8365,
      "With": 8366,
      "dis": 8367,
      "epend": 8368,
      "fiction": 8369,
      "gely": 8370,
      "hib": 8371,
      "havior": 8372,
      "lane": 8373,
      "nic": 8374,
      "nel": 8375,
      "sle": 8376,
      "wa": 8377,
      "Ġawards": 8378,
      "Ġtides": 8379,
      "Ġcat": 8380,
      "Ġslic": 8381,
      "Ġsix": 8382,
      "Ġsoda": 8383,
      "Ġtheory": 8384,
      "Ġpil": 8385,
      "ences": 8386,
      "Ġmint": 8387,
      "Ġfiber": 8388,
      "Ġwalls": 8389,
      "Ġwarning": 8390,
      "level": 8391,
      "Ġending": 8392,
      "Ġlinguistic": 8393,
      "Ġlivestock": 8394,
      "imanj": 8395,
      "Ġgaps": 8396,
      "cha": 8397,
      "Ġstain": 8398,
      "etitive": 8399,
      "Ġwithstand": 8400,
      "ocate": 8401,
      "ĠSun": 8402,
      "ĠSant": 8403,
      "ĠServ": 8404,
      "Ġvia": 8405,
      "ĠCam": 8406,
      "ĠCur": 8407,
      "ĠCabernet": 8408,
      "acon": 8409,
      "Ġshares": 8410,
      "Ġseas": 8411,
      "ĠBar": 8412,
      "ptical": 8413,
      "Ġplain": 8414,
      "Ġmaybe": 8415,
      "ĠWind": 8416,
      "ĠWine": 8417,
      "ella": 8418,
      "Ġprecision": 8419,
      "Ġconsent": 8420,
      "orship": 8421,
      "ĠLay": 8422,
      "Ġsoothing": 8423,
      "enders": 8424,
      "Ġcozy": 8425,
      "ĠInf": 8426,
      "ĠNoir": 8427,
      "Ġindustrial": 8428,
      "Ġremot": 8429,
      "Ġedit": 8430,
      "Ġplayer": 8431,
      "Ġplayful": 8432,
      "Ġsustained": 8433,
      "Ġbeforehand": 8434,
      "obi": 8435,
      "Ġ25": 8436,
      "ĠKPIs": 8437,
      "Ġevenly": 8438,
      "Ġactivists": 8439,
      "Ġdefensive": 8440,
      "Ġracism": 8441,
      "Ġdistress": 8442,
      "ĠReal": 8443,
      "Ġtook": 8444,
      "curities": 8445,
      "Ġconsuming": 8446,
      "Ġcurated": 8447,
      "Ġcuriosity": 8448,
      "Ġdrones": 8449,
      "Ġlargely": 8450,
      "Ġrestoration": 8451,
      "Ġcostly": 8452,
      "Ġlikes": 8453,
      "ĠGPU": 8454,
      "Ġtells": 8455,
      "Ġcleaner": 8456,
      "ĠEmerg": 8457,
      "ĠAlthough": 8458,
      "Ġsolo": 8459,
      "Ġanimation": 8460,
      "Ġemergencies": 8461,
      "Ġjudgments": 8462,
      "Ġnumbers": 8463,
      "Ġletter": 8464,
      "atha": 8465,
      "ĠIndepend": 8466,
      "Ġtimely": 8467,
      "Ġbigger": 8468,
      "Ġseasoning": 8469,
      "Ġsweetness": 8470,
      "Ġexistence": 8471,
      "elligent": 8472,
      "Ġscenery": 8473,
      "Ġstrain": 8474,
      "Ġoccup": 8475,
      "grain": 8476,
      "Ġautomatically": 8477,
      "Ġmobility": 8478,
      "ĠListening": 8479,
      "Ġmissed": 8480,
      "Ġdiscovering": 8481,
      "Ġmuted": 8482,
      "Ġlaunching": 8483,
      "ĠBrain": 8484,
      "ĠSky": 8485,
      "ĠSketch": 8486,
      "Ġpreviously": 8487,
      "Ġutilizing": 8488,
      "Ġinterpretations": 8489,
      "Ġcontrolling": 8490,
      "ĠTrello": 8491,
      "Ġappointment": 8492,
      "Ġvictims": 8493,
      "Ġskeptical": 8494,
      "Ġempowering": 8495,
      "Ġisolation": 8496,
      "Ġdrugs": 8497,
      "Ġadministration": 8498,
      "Ġsplit": 8499,
      "Ġhousing": 8500,
      "Ġmediums": 8501,
      "ĠAcademy": 8502,
      "Ġepisode": 8503,
      "Ġnanotechnology": 8504,
      "ĠSatell": 8505,
      "ĠDetermine": 8506,
      "Ġmilestones": 8507,
      "ĠUtilize": 8508,
      "Ġempathize": 8509,
      "Ġreefs": 8510,
      "Ġdiscriminatory": 8511,
      "Ġinequalities": 8512,
      "ĠIndustry": 8513,
      "ĠAgriculture": 8514,
      "ĠKilimanj": 8515,
      "ĠKilimanjaro": 8516,
      ".,": 8517,
      "Ar": 8518,
      "SP": 8519,
      "focus": 8520,
      "kin": 8521,
      "log": 8522,
      "uk": 8523,
      "Ġil": 8524,
      "Ġtor": 8525,
      "Ġtie": 8526,
      "Ġcush": 8527,
      "Ġsight": 8528,
      "ero": 8529,
      "orrect": 8530,
      "Ġmatches": 8531,
      "Ġfake": 8532,
      "Ġfilling": 8533,
      "Ġinqu": 8534,
      "Ġdat": 8535,
      "Ġdust": 8536,
      "Ġdoll": 8537,
      "Ġdroughts": 8538,
      "Ġhorm": 8539,
      "asp": 8540,
      "astern": 8541,
      "Ġlink": 8542,
      "Ġlamp": 8543,
      "Ġgest": 8544,
      "Ġgold": 8545,
      "chol": 8546,
      "Ġalb": 8547,
      "Ġalerts": 8548,
      "Ġwhatever": 8549,
      "ĠSoc": 8550,
      "ĠSign": 8551,
      "ĠSEO": 8552,
      "Ġdeforestation": 8553,
      "Ġneigh": 8554,
      "ĠCPU": 8555,
      "isted": 8556,
      "Ġleggings": 8557,
      "Ġride": 8558,
      "ĠHatha": 8559,
      "ogg": 8560,
      "Ġsequ": 8561,
      "Ġsegments": 8562,
      "ĠBig": 8563,
      "Ġresort": 8564,
      "ĠPinot": 8565,
      "ĠPomodor": 8566,
      "ĠMaking": 8567,
      "Ġplacing": 8568,
      "Ġmayo": 8569,
      "Ġjar": 8570,
      "Ġmanager": 8571,
      "ĠRain": 8572,
      "ĠRisk": 8573,
      "ĠIts": 8574,
      "Ġliqu": 8575,
      "Ġliability": 8576,
      "Ġtrading": 8577,
      "Ġtrauma": 8578,
      "Ġoutline": 8579,
      "Ġrecre": 8580,
      "Ġrecall": 8581,
      "ĠGlass": 8582,
      "Ġknew": 8583,
      "Ġundoub": 8584,
      "Ġminds": 8585,
      "Ġscary": 8586,
      "Ġscope": 8587,
      "Ġspon": 8588,
      "ĠOcean": 8589,
      "Ġsocially": 8590,
      "ĠNor": 8591,
      "ĠNative": 8592,
      "ĠStress": 8593,
      "raps": 8594,
      "Ġattribut": 8595,
      "Ġattorney": 8596,
      "ĠYellow": 8597,
      "Ġbelt": 8598,
      "Ġprocessors": 8599,
      "Ġblocks": 8600,
      "Ġpromotion": 8601,
      "Ġstaycation": 8602,
      "Ġguard": 8603,
      "Ġconnects": 8604,
      "Ġtypical": 8605,
      "Ġcheaper": 8606,
      "Ġprotests": 8607,
      "Ġbrush": 8608,
      "Ġbrushes": 8609,
      "Ġinfring": 8610,
      "Ġprofessionalism": 8611,
      "Ġstressed": 8612,
      "Ġteamwork": 8613,
      "Ġkeywor": 8614,
      "Ġcalcul": 8615,
      "Ġcarp": 8616,
      "Ġcarro": 8617,
      "Ġcargo": 8618,
      "Ġstoryline": 8619,
      "Ġstands": 8620,
      "Ġstanding": 8621,
      "Ġgrab": 8622,
      "Ġharmon": 8623,
      "Ġpairings": 8624,
      "Ġspecializes": 8625,
      "Ġcorruption": 8626,
      "ĠUniverse": 8627,
      "ĠIntelligence": 8628,
      "tedly": 8629,
      "Ġreliance": 8630,
      "ĠIndividual": 8631,
      "Ġregarded": 8632,
      "Ġboho": 8633,
      "Ġtranslate": 8634,
      "Ġherbal": 8635,
      "ĠTraditional": 8636,
      "ĠSea": 8637,
      "Ġhistoric": 8638,
      "Ġshaped": 8639,
      "Ġcollege": 8640,
      "Ġautomate": 8641,
      "Ġautomated": 8642,
      "Ġdebates": 8643,
      "Ġvoter": 8644,
      "Ġbanks": 8645,
      "Ġintuitive": 8646,
      "Ġforgiving": 8647,
      "ĠBreaking": 8648,
      "Ġacidic": 8649,
      "Ġincentiv": 8650,
      "Ġsectors": 8651,
      "Ġcolonies": 8652,
      "Ġdecreased": 8653,
      "Ġpleasing": 8654,
      "Ġnutritious": 8655,
      "Ġinterrupting": 8656,
      "Ġsurvival": 8657,
      "ĠSmartphones": 8658,
      "Ġcrowd": 8659,
      "Ġsubstitute": 8660,
      "ĠPromoting": 8661,
      "ĠLimit": 8662,
      "Ġbitterness": 8663,
      "Ġpuzz": 8664,
      "Ġvitamin": 8665,
      "ĠRetail": 8666,
      "Ġprofitability": 8667,
      "colored": 8668,
      "Ġdiplom": 8669,
      "Ġviruses": 8670,
      "ĠCyber": 8671,
      "Ġinfections": 8672,
      "Ġautonomy": 8673,
      "Ġintimid": 8674,
      "Ġoxygen": 8675,
      "Ġsacrificing": 8676,
      "specific": 8677,
      "Ġreceptive": 8678,
      "ĠFlexibility": 8679,
      "Ġmandatory": 8680,
      "ojis": 8681,
      "represent": 8682,
      "ĠBetter": 8683,
      "ĠLiFi": 8684,
      "ĠForgiveness": 8685,
      "depth": 8686,
      "Ġunusual": 8687,
      "Ġremotely": 8688,
      "Ġundoubtedly": 8689,
      "17": 8690,
      "Great": 8691,
      "Tra": 8692,
      "Ugh": 8693,
      "aid": 8694,
      "bel": 8695,
      "clusive": 8696,
      "dden": 8697,
      "power": 8698,
      "table": 8699,
      "tops": 8700,
      "wing": 8701,
      "zan": 8702,
      "Ġtall": 8703,
      "redit": 8704,
      "Ġcow": 8705,
      "Ġsold": 8706,
      "Ġsemin": 8707,
      "eras": 8708,
      "Ġther": 8709,
      "Ġtheft": 8710,
      "Ġpus": 8711,
      "Ġpump": 8712,
      "Ġmiddle": 8713,
      "Ġfold": 8714,
      "Ġwent": 8715,
      "Ġwatches": 8716,
      "Ġborrow": 8717,
      "iches": 8718,
      "lete": 8719,
      "Ġelabor": 8720,
      "user": 8721,
      "roke": 8722,
      "Ġgot": 8723,
      "Ġgau": 8724,
      "ilty": 8725,
      "ĠII": 8726,
      "eters": 8727,
      "Ġorbit": 8728,
      "ulates": 8729,
      "ĠTw": 8730,
      "lywood": 8731,
      "Ġhearing": 8732,
      "Ġsudden": 8733,
      "stone": 8734,
      "ĠAwareness": 8735,
      "amom": 8736,
      "abet": 8737,
      "ĠCBT": 8738,
      "isting": 8739,
      "Ġlets": 8740,
      "resp": 8741,
      "resents": 8742,
      "Ġrid": 8743,
      "ĠHor": 8744,
      "peas": 8745,
      "ĠTherapy": 8746,
      "Ġcomply": 8747,
      "ĠBer": 8748,
      "ĠBad": 8749,
      "ĠBlu": 8750,
      "Ġtroub": 8751,
      "ĠPen": 8752,
      "ĠPers": 8753,
      "ĠPress": 8754,
      "ĠPose": 8755,
      "ĠPost": 8756,
      "ĠMental": 8757,
      "iene": 8758,
      "Ġmanaged": 8759,
      "Ġweights": 8760,
      "ĠEffective": 8761,
      "lower": 8762,
      "Ġhassle": 8763,
      "Ġpersonalize": 8764,
      "ĠLong": 8765,
      "Ġcolder": 8766,
      "arkable": 8767,
      "lesh": 8768,
      "Ġmeditative": 8769,
      "ĠNav": 8770,
      "ĠNatural": 8771,
      "Ġattent": 8772,
      "Ġmarketplace": 8773,
      "Ġguilty": 8774,
      "Ġtransmit": 8775,
      "Ġsetup": 8776,
      "Ġchallenged": 8777,
      "rowing": 8778,
      "ĠChar": 8779,
      "Ġconfron": 8780,
      "Ġ200": 8781,
      "ĠKen": 8782,
      "ceptions": 8783,
      "Ġracial": 8784,
      "Ġrefresh": 8785,
      "Ġopened": 8786,
      "Ġrespective": 8787,
      "Ġbike": 8788,
      "Ġlisteners": 8789,
      "Ġdecent": 8790,
      "Ġcameras": 8791,
      "Ġlegacy": 8792,
      "Ġreleasing": 8793,
      "Ġtrustworthy": 8794,
      "Ġspacecraft": 8795,
      "Ġlotions": 8796,
      "ĠKeeping": 8797,
      "Ġexplored": 8798,
      "Ġruns": 8799,
      "ikes": 8800,
      "Ġsweater": 8801,
      "Ġpreserv": 8802,
      "Ġburden": 8803,
      "Ġsecular": 8804,
      "Ġingredient": 8805,
      "Ġattracted": 8806,
      "Ġpredicting": 8807,
      "ĠIslam": 8808,
      "Ġinfluencer": 8809,
      "Ġfullness": 8810,
      "Ġfairly": 8811,
      "cont": 8812,
      "ĠSeason": 8813,
      "falls": 8814,
      "Ġheadphones": 8815,
      "Ġspreading": 8816,
      "Ġhonestly": 8817,
      "gedy": 8818,
      "ĠOffering": 8819,
      "Ġlayering": 8820,
      "ĠStudies": 8821,
      "Ġconference": 8822,
      "Ġillust": 8823,
      "Ġexpanding": 8824,
      "Ġconcerning": 8825,
      "Ġliterary": 8826,
      "screen": 8827,
      "Ġballots": 8828,
      "Ġcutting": 8829,
      "Ġphrase": 8830,
      "Ġconcentrate": 8831,
      "Ġdynamics": 8832,
      "Ġoversight": 8833,
      "Ġcrisis": 8834,
      "Ġmenu": 8835,
      "Ġresilient": 8836,
      "Ġoptimizing": 8837,
      "Ġzone": 8838,
      "Ġinstrumental": 8839,
      "Ġlabel": 8840,
      "ĠRepublic": 8841,
      "Ġfixed": 8842,
      "ĠExplain": 8843,
      "Ġbulk": 8844,
      "Ġunwind": 8845,
      "ĠStrateg": 8846,
      "Ġignore": 8847,
      "Ġallocate": 8848,
      "ĠAutom": 8849,
      "ĠRecognize": 8850,
      "Ġyields": 8851,
      "Ġflooding": 8852,
      "Ġrigorous": 8853,
      "impact": 8854,
      "Ġinaccurate": 8855,
      "ĠHelp": 8856,
      "Ġflaws": 8857,
      "Ġtransactions": 8858,
      "monogamous": 8859,
      "Ġhospit": 8860,
      "Ġbreakthroughs": 8861,
      "Ġdestruction": 8862,
      "Ġsickness": 8863,
      "Ġilleg": 8864,
      "Ġcushion": 8865,
      "ĠPomodoro": 8866,
      "Con": 8867,
      "Man": 8868,
      "PA": 8869,
      "Sh": 8870,
      "aust": 8871,
      "gent": 8872,
      "lo": 8873,
      "lists": 8874,
      "va": 8875,
      "voking": 8876,
      "Ġaqu": 8877,
      "Ġtorn": 8878,
      "atched": 8879,
      "anish": 8880,
      "Ġpure": 8881,
      "Ġpaste": 8882,
      "enues": 8883,
      "Ġmort": 8884,
      "Ġmold": 8885,
      "Ġmagn": 8886,
      "Ġmapping": 8887,
      "Ġtofu": 8888,
      "Ġinse": 8889,
      "Ġdil": 8890,
      "Ġdates": 8891,
      "Ġdiox": 8892,
      "Ġhalf": 8893,
      "Ġlift": 8894,
      "Ġload": 8895,
      "Ġlinks": 8896,
      "Ġbeat": 8897,
      "ĠIce": 8898,
      "owing": 8899,
      "othe": 8900,
      "Ġstone": 8901,
      "ayl": 8902,
      "ĠToday": 8903,
      "ĠTayl": 8904,
      "Ġheight": 8905,
      "Ġhairst": 8906,
      "ĠAge": 8907,
      "Ġalike": 8908,
      "ĠSit": 8909,
      "ĠSol": 8910,
      "ĠSSD": 8911,
      "Ġvill": 8912,
      "Ġviral": 8913,
      "Ġchic": 8914,
      "ĠCount": 8915,
      "ĠCertain": 8916,
      "ĠCinem": 8917,
      "ache": 8918,
      "acao": 8919,
      "Ġtex": 8920,
      "ĠHimal": 8921,
      "ieval": 8922,
      "ĠBag": 8923,
      "ĠBook": 8924,
      "Ġincom": 8925,
      "Ġresidents": 8926,
      "ĠPsych": 8927,
      "Ġnothing": 8928,
      "ĠDel": 8929,
      "ĠDay": 8930,
      "ĠDist": 8931,
      "ĠMag": 8932,
      "ĠWell": 8933,
      "ĠWashing": 8934,
      "Ġmodify": 8935,
      "sored": 8936,
      "ĠFil": 8937,
      "ĠETF": 8938,
      "Ġbutton": 8939,
      "Ġapple": 8940,
      "Ġoutwe": 8941,
      "Ġpersonalities": 8942,
      "Ġunfor": 8943,
      "ĠLights": 8944,
      "Ġspine": 8945,
      "ĠOper": 8946,
      "weed": 8947,
      "Ġampl": 8948,
      "Ġvaried": 8949,
      "Ġblame": 8950,
      "Ġowned": 8951,
      "Ġremarkable": 8952,
      "Ġorganisms": 8953,
      "Ġinvolving": 8954,
      "rick": 8955,
      "ĠKore": 8956,
      "ĠViet": 8957,
      "Ġconcert": 8958,
[...]
