{
  "version": "1.0",
  "truncation": null,
  "padding": null,
  "added_tokens": [
    {
      "id": 0,
      "content": "<pad>",
      "single_word": false,
      "lstrip": false,
      "rstrip": false,
      "normalized": false,
      "special": true
    },
    {
      "id": 1,
      "content": "<eot_human>",
      "single_word": false,
      "lstrip": false,
      "rstrip": false,
      "normalized": false,
      "special": true
    },
    {
      "id": 2,
      "content": "<eot_model>",
      "single_word": false,
      "lstrip": false,
      "rstrip": false,
      "normalized": false,
      "special": true
    }
  ],
  "normalizer": null,
  "pre_tokenizer": {
    "type": "ByteLevel",
    "add_prefix_space": false,
    "trim_offsets": true,
    "use_regex": true
  },
  "post_processor": {
    "type": "ByteLevel",
    "add_prefix_space": true,
    "trim_offsets": false,
    "use_regex": true
  },
  "decoder": {
    "type": "ByteLevel",
    "add_prefix_space": true,
    "trim_offsets": true,
    "use_regex": true
  },
  "model": {
    "type": "BPE",
    "dropout": null,
    "unk_token": null,
    "continuing_subword_prefix": null,
    "end_of_word_suffix": null,
    "fuse_unk": false,
    "byte_fallback": false,
    "ignore_merges": false,
    "vocab": {
      "<pad>": 0,
      "<eot_human>": 1,
      "<eot_model>": 2,
      "!": 3,
      "\"": 4,
      "#": 5,
      "$": 6,
      "%": 7,
      "&": 8,
      "'": 9,
      "(": 10,
      ")": 11,
      "*": 12,
      "+": 13,
      ",": 14,
      "-": 15,
      ".": 16,
      "/": 17,
      "0": 18,
      "1": 19,
      "2": 20,
      "3": 21,
      "4": 22,
      "5": 23,
      "6": 24,
      "7": 25,
      "8": 26,
      "9": 27,
      ":": 28,
      ";": 29,
      "<": 30,
      "=": 31,
      ">": 32,
      "?": 33,
      "@": 34,
      "A": 35,
      "B": 36,
      "C": 37,
      "D": 38,
      "E": 39,
      "F": 40,
      "G": 41,
      "H": 42,
      "I": 43,
      "J": 44,
      "K": 45,
      "L": 46,
      "M": 47,
      "N": 48,
      "O": 49,
      "P": 50,
      "Q": 51,
      "R": 52,
      "S": 53,
      "T": 54,
      "U": 55,
      "V": 56,
      "W": 57,
      "X": 58,
      "Y": 59,
      "Z": 60,
      "[": 61,
      "\\": 62,
      "]": 63,
      "^": 64,
      "_": 65,
      "`": 66,
      "a": 67,
      "b": 68,
      "c": 69,
      "d": 70,
      "e": 71,
      "f": 72,
      "g": 73,
      "h": 74,
      "i": 75,
      "j": 76,
      "k": 77,
      "l": 78,
      "m": 79,
      "n": 80,
      "o": 81,
      "p": 82,
      "q": 83,
      "r": 84,
      "s": 85,
      "t": 86,
      "u": 87,
      "v": 88,
      "w": 89,
      "x": 90,
      "y": 91,
      "z": 92,
      "{": 93,
      "|": 94,
      "}": 95,
      "~": 96,
      "¡": 97,
      "¢": 98,
      "£": 99,
      "¤": 100,
      "¥": 101,
      "¦": 102,
      "§": 103,
      "¨": 104,
      "©": 105,
      "ª": 106,
      "«": 107,
      "¬": 108,
      "®": 109,
      "¯": 110,
      "°": 111,
      "±": 112,
      "²": 113,
      "³": 114,
      "´": 115,
      "µ": 116,
      "¶": 117,
      "·": 118,
      "¸": 119,
      "¹": 120,
      "º": 121,
      "»": 122,
      "¼": 123,
      "½": 124,
      "¾": 125,
      "¿": 126,
      "À": 127,
      "Á": 128,
      "Â": 129,
      "Ã": 130,
      "Ä": 131,
      "Å": 132,
      "Æ": 133,
      "Ç": 134,
      "È": 135,
      "É": 136,
      "Ê": 137,
      "Ë": 138,
      "Ì": 139,
      "Í": 140,
      "Î": 141,
      "Ï": 142,
      "Ð": 143,
      "Ñ": 144,
      "Ò": 145,
      "Ó": 146,
      "Ô": 147,
      "Õ": 148,
      "Ö": 149,
      "×": 150,
      "Ø": 151,
      "Ù": 152,
      "Ú": 153,
      "Û": 154,
      "Ü": 155,
      "Ý": 156,
      "Þ": 157,
      "ß": 158,
      "à": 159,
      "á": 160,
      "â": 161,
      "ã": 162,
      "ä": 163,
      "å": 164,
      "æ": 165,
      "ç": 166,
      "è": 167,
      "é": 168,
      "ê": 169,
      "ë": 170,
      "ì": 171,
      "í": 172,
      "î": 173,
      "ï": 174,
      "ð": 175,
      "ñ": 176,
      "ò": 177,
      "ó": 178,
      "ô": 179,
      "õ": 180,
      "ö": 181,
      "÷": 182,
      "ø": 183,
      "ù": 184,
      "ú": 185,
      "û": 186,
      "ü": 187,
      "ý": 188,
      "þ": 189,
      "ÿ": 190,
      "Ā": 191,
      "ā": 192,
      "Ă": 193,
      "ă": 194,
      "Ą": 195,
      "ą": 196,
      "Ć": 197,
      "ć": 198,
      "Ĉ": 199,
      "ĉ": 200,
      "Ċ": 201,
      "ċ": 202,
      "Č": 203,
      "č": 204,
      "Ď": 205,
      "ď": 206,
      "Đ": 207,
      "đ": 208,
      "Ē": 209,
      "ē": 210,
      "Ĕ": 211,
      "ĕ": 212,
      "Ė": 213,
      "ė": 214,
      "Ę": 215,
      "ę": 216,
      "Ě": 217,
      "ě": 218,
      "Ĝ": 219,
      "ĝ": 220,
      "Ğ": 221,
      "ğ": 222,
      "Ġ": 223,
      "ġ": 224,
      "Ģ": 225,
      "ģ": 226,
      "Ĥ": 227,
      "ĥ": 228,
      "Ħ": 229,
      "ħ": 230,
      "Ĩ": 231,
      "ĩ": 232,
      "Ī": 233,
      "ī": 234,
      "Ĭ": 235,
      "ĭ": 236,
      "Į": 237,
      "į": 238,
      "İ": 239,
      "ı": 240,
      "Ĳ": 241,
      "ĳ": 242,
      "Ĵ": 243,
      "ĵ": 244,
      "Ķ": 245,
      "ķ": 246,
      "ĸ": 247,
      "Ĺ": 248,
      "ĺ": 249,
      "Ļ": 250,
      "ļ": 251,
      "Ľ": 252,
      "ľ": 253,
      "Ŀ": 254,
      "ŀ": 255,
      "Ł": 256,
      "ł": 257,
      "Ń": 258,
      "ĠĠ": 259,
      "Ġt": 260,
      "Ġa": 261,
      "in": 262,
      "he": 263,
      "ĠĠĠĠ": 264,
      "on": 265,
      "re": 266,
      "er": 267,
      "Ġthe": 268,
      "at": 269,
      "Ġs": 270,
      "Ġo": 271,
      "es": 272,
      "an": 273,
      "en": 274,
      "Ġc": 275,
      "al": 276,
      "or": 277,
      "it": 278,
      "is": 279,
      "ed": 280,
      "Ġan": 281,
      "ar": 282,
      "Ġw": 283,
      "Ġf": 284,
      "Ġp": 285,
      "Ġin": 286,
      "ic": 287,
      "Ġb": 288,
      "Ġof": 289,
      "ĠĠĠ": 290,
      "ion": 291,
      "ing": 292,
      "Ġand": 293,
      "Ġm": 294,
      "ou": 295,
      "el": 296,
      "Ġd": 297,
      "Ġto": 298,
      "ro": 299,
      "as": 300,
      "le": 301,
      "ĊĠĠĠĠ": 302,
      "Ġre": 303,
      "ent": 304,
      "st": 305,
      "ĠA": 306,
      "ct": 307,
      "et": 308,
      "Ġl": 309,
      "Ġh": 310,
      "om": 311,
      "im": 312,
      "Ġn": 313,
      "am": 314,
      "il": 315,
      "Ġe": 316,
      "ol": 317,
      "Ġth": 318,
      "id": 319,
      "ĠT": 320,
      "us": 321,
      "ation": 322,
      "ce": 323,
      "ur": 324,
      "ĊĠĠĠĠĠĠĠ": 325,
      "iv": 326,
      "ch": 327,
      "ot": 328,
      "ut": 329,
      "Ġis": 330,
      "ly": 331,
      "Ġfor": 332,
      "ĠS": 333,
      "--": 334,
      "ĊĠĠĠ": 335,
      "ad": 336,
      "ig": 337,
      "Ġ=": 338,
      "if": 339,
      "Ġbe": 340,
      "ul": 341,
      "Ġg": 342,
      "ers": 343,
      "un": 344,
      "Ġst": 345,
      "ow": 346,
      "Ġ(": 347,
      "od": 348,
      "Ġas": 349,
      "ĠI": 350,
      "ir": 351,
      "ĠC": 352,
      "ra": 353,
      "ĊĠĠĠĠĠĠĠĠ": 354,
      "Ġ\"": 355,
      "Ġon": 356,
      "se": 357,
      "Ġcon": 358,
      "Ġ1": 359,
      "est": 360,
      "ith": 361,
      "elf": 362,
      "em": 363,
      "Ġal": 364,
      "ag": 365,
      "Ġthat": 366,
      "pe": 367,
      "ist": 368,
      "Ġor": 369,
      "Ġy": 370,
      "Ġde": 371,
      "ort": 372,
      "Ġpro": 373,
      "Ġwith": 374,
      "ab": 375,
      "ay": 376,
      "um": 377,
      "her": 378,
      "ate": 379,
      "ĠThe": 380,
      "ve": 381,
      "op": 382,
      "ĠM": 383,
      "qu": 384,
      "our": 385,
      "Ġare": 386,
      "and": 387,
      "Ġv": 388,
      "th": 389,
      "ess": 390,
      "rom": 391,
      "Ġwh": 392,
      "res": 393,
      "ter": 394,
      "Ġex": 395,
      "Ġsu": 396,
      "Ġit": 397,
      "ĠB": 398,
      "oun": 399,
      "oc": 400,
      "os": 401,
      "ere": 402,
      "ri": 403,
      "Ġcom": 404,
      "ver": 405,
      "ĠP": 406,
      "Ġby": 407,
      "ĠH": 408,
      "ac": 409,
      "Ġhe": 410,
      "og": 411,
      "ity": 412,
      "ect": 413,
      "ies": 414,
      "pt": 415,
      "ame": 416,
      "pp": 417,
      "----": 418,
      "Ġus": 419,
      "'s": 420,
      "Ġcan": 421,
      "ain": 422,
      "ore": 423,
      "Ġ'": 424,
      "Ġwas": 425,
      "ak": 426,
      "ĊĠĠĠĠĠĠĠĠĠĠĠ": 427,
      "imp": 428,
      "Ġfrom": 429,
      "ĠR": 430,
      "ĠE": 431,
      "art": 432,
      "ang": 433,
      "ial": 434,
      "Ġr": 435,
      "ant": 436,
      "ive": 437,
      "Ġself": 438,
      "ĠĠĠĠĠĠĠĠ": 439,
      "ĠN": 440,
      "ĠF": 441,
      "ud": 442,
      "ult": 443,
      "ment": 444,
      "ical": 445,
      "ure": 446,
      "pl": 447,
      "ex": 448,
      "end": 449,
      "ĠD": 450,
      "ions": 451,
      "ĠL": 452,
      "ave": 453,
      "ans": 454,
      "cl": 455,
      "Ġat": 456,
      "ass": 457,
      "ĠG": 458,
      "Ġse": 459,
      "ld": 460,
      "all": 461,
      "ew": 462,
      "Ġnot": 463,
      "age": 464,
      "Ġimp": 465,
      "ich": 466,
      "igh": 467,
      "ill": 468,
      "iz": 469,
      "Ġun": 470,
      "ther": 471,
      "),": 472,
      "):": 473,
      "self": 474,
      "du": 475,
      "ĠW": 476,
      "ard": 477,
      "ue": 478,
      "ĠO": 479,
      "Ġhave": 480,
      "ph": 481,
      "orm": 482,
      "ov": 483,
      "Ġle": 484,
      "Ġres": 485,
      "Ġ2": 486,
      "ile": 487,
      "Ġ19": 488,
      "Ġch": 489,
      "ert": 490,
      "Ġsh": 491,
      "ated": 492,
      "ĠIn": 493,
      "ia": 494,
      "Ġtr": 495,
      "ost": 496,
      "ine": 497,
      "Ġcont": 498,
      "Ġwhich": 499,
      "ĊĊĠĠĠ": 500,
      "ome": 501,
      "00": 502,
      "Ġyou": 503,
      "ĠU": 504,
      "Ġar": 505,
      "act": 506,
      "ian": 507,
      "one": 508,
      "Ġwor": 509,
      "ations": 510,
      "ong": 511,
      "Ġ#": 512,
      "able": 513,
      "ip": 514,
      "\"\"": 515,
      "Ġen": 516,
      "con": 517,
      "Ġk": 518,
      "urn": 519,
      "ast": 520,
      "Ġcomp": 521,
      "ob": 522,
      "out": 523,
      "ime": 524,
      "Ġint": 525,
      "Ġdef": 526,
      "ell": 527,
      "ust": 528,
      "ount": 529,
      "ight": 530,
      "Ġif": 531,
      "ub": 532,
      "rit": 533,
      "Ġtheir": 534,
      "Ġyour": 535,
      "ound": 536,
      "ide": 537,
      "ef": 538,
      "Ġad": 539,
      "per": 540,
      "ary": 541,
      "Ġab": 542,
      "ber": 543,
      "gh": 544,
      "nt": 545,
      "so": 546,
      "der": 547,
      "ally": 548,
      "cc": 549,
      "av": 550,
      "Ġother": 551,
      "form": 552,
      "arg": 553,
      "ire": 554,
      "ind": 555,
      "ĉĉ": 556,
      "Ġpl": 557,
      "str": 558,
      "ear": 559,
      "ext": 560,
      "ous": 561,
      "ap": 562,
      "Ġwhe": 563,
      "--------": 564,
      "Ġcl": 565,
      "()": 566,
      "ĠAn": 567,
      "up": 568,
      "ep": 569,
      "Ġhis": 570,
      "olog": 571,
      "ĠĠĠĠĠĠĠ": 572,
      "ib": 573,
      "The": 574,
      "Ġmod": 575,
      "ack": 576,
      "are": 577,
      "ces": 578,
      "ff": 579,
      "Ġmore": 580,
      "ok": 581,
      "rou": 582,
      "ance": 583,
      "ely": 584,
      "\",": 585,
      "int": 586,
      "ace": 587,
      "Ġimport": 588,
      "ĠAl": 589,
      "Ġalso": 590,
      "ĠJ": 591,
      "Ġhas": 592,
      "ath": 593,
      "oll": 594,
      "ign": 595,
      "Ġret": 596,
      "ence": 597,
      "ater": 598,
      "angu": 599,
      "ric": 600,
      "ould": 601,
      "Ġel": 602,
      "ĠK": 603,
      "Ġform": 604,
      "Ġall": 605,
      "ik": 606,
      "ction": 607,
      "Ġapp": 608,
      "als": 609,
      "ĊĠĠĠĠĠĠĠĠĠĠĠĠĠĠĠ": 610,
      ").": 611,
      "pec": 612,
      "Ġbut": 613,
      "ition": 614,
      "any": 615,
      "ice": 616,
      "Ġsc": 617,
      "ĠTh": 618,
      "ents": 619,
      "âĢ": 620,
      "clud": 621,
      "fere": 622,
      "Ġcomm": 623,
      "Ġwere": 624,
      "Ġlangu": 625,
      "ject": 626,
      "Ġme": 627,
      "In": 628,
      "name": 629,
      "ates": 630,
      "eth": 631,
      "ry": 632,
      "Ġpart": 633,
      "vel": 634,
      "Ġreturn": 635,
      "Ġte": 636,
      "Ġdis": 637,
      "ĠSt": 638,
      "ake": 639,
      "Ġj": 640,
      "Ġsp": 641,
      "ach": 642,
      "eed": 643,
      "ish": 644,
      "Ġits": 645,
      "ata": 646,
      "Ġstr": 647,
      "('": 648,
      "irst": 649,
      "ail": 650,
      "ory": 651,
      "aram": 652,
      "Ġsome": 653,
      "ree": 654,
      "ark": 655,
      "ĠIt": 656,
      "ys": 657,
      "Ġthis": 658,
      "lp": 659,
      "Ġused": 660,
      "Ġmay": 661,
      "Ġpre": 662,
      "ress": 663,
      "',": 664,
      "Ġinclud": 665,
      "Ġsuch": 666,
      "Ġ:": 667,
      "__": 668,
      "ific": 669,
      "ĊĠĠĠĠĠĠĠĠĠĠĠĠĠĠĠĠ": 670,
      "get": 671,
      "ook": 672,
      "ĊĊĠĠĠĠĠĠĠ": 673,
      "Ġthey": 674,
      "ology": 675,
      "ase": 676,
      "Ġone": 677,
      "ors": 678,
      "ock": 679,
      "Ġ\"\"\"": 680,
      "erm": 681,
      "Ġhelp": 682,
      "own": 683,
      "Ġev": 684,
      "Ġfirst": 685,
      "Ġph": 686,
      "ord": 687,
      "ose": 688,
      "che": 689,
      "Ġcre": 690,
      "Ġrel": 691,
      "Ġbec": 692,
      "Ġdif": 693,
      "ge": 694,
      "Ġtime": 695,
      "ating": 696,
      "(\"": 697,
      "Ġtrans": 698,
      "))": 699,
      "cept": 700,
      "Ċĉĉ": 701,
      "erv": 702,
      "Ġam": 703,
      "ict": 704,
      "rib": 705,
      "ens": 706,
      "Ġcons": 707,
      "ĠThis": 708,
      "Ġind": 709,
      "Ġout": 710,
      "chn": 711,
      "Ġgo": 712,
      "Ġmodel": 713,
      "Ġwe": 714,
      "Ġspec": 715,
      "Ġsub": 716,
      "Ġass": 717,
      "ract": 718,
      "te": 719,
      "we": 720,
      "ax": 721,
      "ĠAr": 722,
      "val": 723,
      "mer": 724,
      "ages": 725,
      "Ġwork": 726,
      "Ġbeen": 727,
      "Ġinto": 728,
      "Ġac": 729,
      "ode": 730,
      "Ġrec": 731,
      "Ġval": 732,
      "uring": 733,
      "roup": 734,
      "Ġhad": 735,
      "')": 736,
      "Ġreg": 737,
      "Ġover": 738,
      "ings": 739,
      "Ġdo": 740,
      "Ġwho": 741,
      "Ġ-": 742,
      "Ġper": 743,
      "ual": 744,
      "ism": 745,
      "ons": 746,
      "ey": 747,
      "ec": 748,
      "amp": 749,
      "Ġsy": 750,
      "ular": 751,
      "ever": 752,
      "ative": 753,
      "Ġpr": 754,
      "Ġag": 755,
      "Ġob": 756,
      "from": 757,
      "quest": 758,
      "Ġso": 759,
      "Ġany": 760,
      "ĠCh": 761,
      "ient": 762,
      "Ġnew": 763,
      "Ġ+": 764,
      "Ġtechn": 765,
      "ype": 766,
      "Ġnum": 767,
      "ution": 768,
      "Ġthem": 769,
      "Ġprodu": 770,
      "Ġfil": 771,
      "tern": 772,
      "ange": 773,
      "Ġthere": 774,
      "âĢĵ": 775,
      "Ġmost": 776,
      "ied": 777,
      "ug": 778,
      "Ġoff": 779,
      "ĠUn": 780,
      "ced": 781,
      "Ġsm": 782,
      "ER": 783,
      "Ġ3": 784,
      "Ġpe": 785,
      "ite": 786,
      "ren": 787,
      "Ġlanguage": 788,
      "Ġtest": 789,
      "ize": 790,
      "Ġwhen": 791,
      "Ġdiffere": 792,
      "iet": 793,
      "ten": 794,
      "ased": 795,
      "ix": 796,
      "wo": 797,
      "ĠV": 798,
      "ern": 799,
      "ics": 800,
      "ues": 801,
      "ĊĊ": 802,
      "Ġbet": 803,
      "cre": 804,
      "Ġact": 805,
      "Ġ18": 806,
      "Ġprov": 807,
      "ures": 808,
      "Ġ0": 809,
      "ds": 810,
      "Ġmed": 811,
      "Ġ[": 812,
      "ough": 813,
      "fter": 814,
      "les": 815,
      "Ġpers": 816,
      "ck": 817,
      "Ġcent": 818,
      "ie": 819,
      "gr": 820,
      "Ġuse": 821,
      "Ġkn": 822,
      "file": 823,
      "hed": 824,
      "gan": 825,
      "01": 826,
      "put": 827,
      "ise": 828,
      "Ġset": 829,
      "Ġabout": 830,
      "ike": 831,
      "tr": 832,
      "Ġpos": 833,
      "aus": 834,
      "Ġmany": 835,
      "Ġdes": 836,
      "Ġem": 837,
      "Ġthan": 838,
      "Ġro": 839,
      "----------------": 840,
      "arch": 841,
      "Ġyear": 842,
      "ener": 843,
      "Ġresult": 844,
      "path": 845,
      "lic": 846,
      "19": 847,
      "Ġup": 848,
      "velop": 849,
      "ities": 850,
      "\")": 851,
      "ays": 852,
      "qual": 853,
      "ural": 854,
      "ople": 855,
      "red": 856,
      "ious": 857,
      "ful": 858,
      "ward": 859,
      "Ġacc": 860,
      "Ġthese": 861,
      "Ġwill": 862,
      "ade": 863,
      "ĠHe": 864,
      "ran": 865,
      "Ġ*": 866,
      "iss": 867,
      "param": 868,
      "rop": 869,
      "Ġear": 870,
      "ational": 871,
      "reat": 872,
      "Ġfe": 873,
      "Ġname": 874,
      "com": 875,
      "ks": 876,
      "Ġco": 877,
      "Ġstud": 878,
      "ft": 879,
      "set": 880,
      "':": 881,
      "pect": 882,
      "ited": 883,
      "ĠAs": 884,
      "Ġwhere": 885,
      "Ġsoc": 886,
      "Ġinv": 887,
      "Ġref": 888,
      "ists": 889,
      "Ġdevelop": 890,
      "ll": 891,
      "pon": 892,
      "sh": 893,
      "def": 894,
      "Ġatt": 895,
      "Ġfl": 896,
      "ĠĊ": 897,
      "Ġshow": 898,
      "ild": 899,
      "Ġcult": 900,
      "Ġdec": 901,
      "ourt": 902,
      "Ġunder": 903,
      "Ġdata": 904,
      "Ġdifferent": 905,
      "sc": 906,
      "tt": 907,
      "Ġtext": 908,
      "ement": 909,
      "ered": 910,
      "Ġvar": 911,
      "Ġap": 912,
      "stem": 913,
      "Ġtwo": 914,
      "Ġbus": 915,
      "']": 916,
      "Ġcount": 917,
      "ines": 918,
      "iness": 919,
      "iew": 920,
      "Ġtra": 921,
      "ick": 922,
      "row": 923,
      "ript": 924,
      "meric": 925,
      "Ġonly": 926,
      "Ġpeople": 927,
      "ger": 928,
      "ness": 929,
      "ove": 930,
      "Ġhow": 931,
      "ility": 932,
      "ror": 933,
      "oth": 934,
      "resent": 935,
      "Ġcol": 936,
      "Ġeff": 937,
      "ween": 938,
      "fl": 939,
      "rough": 940,
      "Ġinter": 941,
      "ury": 942,
      "AL": 943,
      "Ġ%": 944,
      "Ġcall": 945,
      "aking": 946,
      "ĠAp": 947,
      "Ġgroup": 948,
      "land": 949,
      "Ġrep": 950,
      "ah": 951,
      "fore": 952,
      "ars": 953,
      "Ġadd": 954,
      "ood": 955,
      "ning": 956,
      "lob": 957,
      "Ġ{": 958,
      "Ġ4": 959,
      "eg": 960,
      "Ġwhile": 961,
      "ments": 962,
      "Ġart": 963,
      "hen": 964,
      "Ġpract": 965,
      "Ġbetween": 966,
      "app": 967,
      "Ġduring": 968,
      "iqu": 969,
      "irect": 970,
      "ms": 971,
      "Ġbusiness": 972,
      "['": 973,
      "ollow": 974,
      "ample": 975,
      "Ġfun": 976,
      "ower": 977,
      "pport": 978,
      "Ġperson": 979,
      "oint": 980,
      "old": 981,
      "ually": 982,
      "Ġra": 983,
      "Ġlog": 984,
      "Ġlarg": 985,
      "Ġterm": 986,
      "inal": 987,
      "its": 988,
      "Ġpop": 989,
      "ĠAf": 990,
      "aw": 991,
      "iel": 992,
      "Ġpol": 993,
      "ized": 994,
      "ium": 995,
      "ink": 996,
      "Ġman": 997,
      "ĠAmeric": 998,
      "\".": 999,
      "Ġdist": 1000,
      "ife": 1001,
      "Ġget": 1002,
      "Ġexp": 1003,
      "fo": 1004,
      "As": 1005,
      "eb": 1006,
      "ids": 1007,
      "ivers": 1008,
      "ape": 1009,
      "oad": 1010,
      "ĠY": 1011,
      "Ġed": 1012,
      "ience": 1013,
      "Ġlike": 1014,
      "els": 1015,
      "let": 1016,
      "Ġ5": 1017,
      "Ġgener": 1018,
      "Ġexper": 1019,
      "Ġwould": 1020,
      "uth": 1021,
      "Ġstart": 1022,
      "iron": 1023,
      "Ġprop": 1024,
      "Ġafter": 1025,
      "ont": 1026,
      "Ġmake": 1027,
      "imes": 1028,
      "imal": 1029,
      "oh": 1030,
      "ature": 1031,
      "ident": 1032,
      "Ġ==": 1033,
      "Ġsystem": 1034,
      "alt": 1035,
      "ically": 1036,
      "Ġrem": 1037,
      "nov": 1038,
      "to": 1039,
      "Ġgr": 1040,
      "ĠSh": 1041,
      "ĠAng": 1042,
      "oy": 1043,
      "Ġinst": 1044,
      "orth": 1045,
      "uct": 1046,
      "Âł": 1047,
      "ince": 1048,
      "ery": 1049,
      "AR": 1050,
      "ret": 1051,
      "ily": 1052,
      "eng": 1053,
      "yn": 1054,
      "Ġwrit": 1055,
      "Ġeach": 1056,
      "ute": 1057,
      "Ġtransl": 1058,
      "Ġbeing": 1059,
      "Ġappe": 1060,
      "inc": 1061,
      "Ġfound": 1062,
      "ource": 1063,
      "ĠHow": 1064,
      "Ġqu": 1065,
      "ible": 1066,
      "._": 1067,
      "ins": 1068,
      "Ġfollow": 1069,
      "Ġext": 1070,
      "ĠNone": 1071,
      "fig": 1072,
      "uc": 1073,
      "ision": 1074,
      "arm": 1075,
      "cess": 1076,
      "ished": 1077,
      "yp": 1078,
      "Ġsk": 1079,
      "Ġop": 1080,
      "raph": 1081,
      "Ġimportant": 1082,
      "'t": 1083,
      "ON": 1084,
      "atic": 1085,
      "Ġthrough": 1086,
      "ause": 1087,
      "Ġyears": 1088,
      "viron": 1089,
      "Ġcourt": 1090,
      "Ġno": 1091,
      "Ġ_": 1092,
      "ify": 1093,
      "Ġworld": 1094,
      "Ġloc": 1095,
      "ivid": 1096,
      "test": 1097,
      "pro": 1098,
      "ale": 1099,
      "Ċĉ": 1100,
      "Ġpub": 1101,
      "ives": 1102,
      "Ġincluding": 1103,
      "ule": 1104,
      "hes": 1105,
      "Ġtechnology": 1106,
      "olution": 1107,
      "Ġinnov": 1108,
      "Ġorgan": 1109,
      "Ġ,": 1110,
      "Ġmov": 1111,
      "ization": 1112,
      "Ġlanguages": 1113,
      "ethod": 1114,
      "Ġwell": 1115,
      "ĠSe": 1116,
      "ember": 1117,
      "Ġnumber": 1118,
      "wn": 1119,
      "Ġoften": 1120,
      "cont": 1121,
      "Ġclass": 1122,
      "ices": 1123,
      "Ġchar": 1124,
      "Ġadv": 1125,
      "Ġelse": 1126,
      "000": 1127,
      "ollo": 1128,
      "Ġmean": 1129,
      "Ġcentury": 1130,
      "ponse": 1131,
      "Ġlong": 1132,
      "Ġhigh": 1133,
      "Ġorig": 1134,
      "Ġexample": 1135,
      "ĠHowever": 1136,
      "led": 1137,
      "line": 1138,
      "the": 1139,
      "ting": 1140,
      "Ġbefore": 1141,
      "import": 1142,
      "Ġdisc": 1143,
      "Ġent": 1144,
      "Ġher": 1145,
      "Ġbu": 1146,
      "apt": 1147,
      "cy": 1148,
      "Ġneed": 1149,
      "ev": 1150,
      "rue": 1151,
      "Ġhum": 1152,
      "ession": 1153,
      "Ġsocial": 1154,
      "args": 1155,
      "Ġknown": 1156,
      "ME": 1157,
      "ians": 1158,
      "ved": 1159,
      "Ġsign": 1160,
      "ĠAI": 1161,
      "ames": 1162,
      "Ġpartic": 1163,
      "ien": 1164,
      "Ġ`": 1165,
      "Ġrev": 1166,
      "ier": 1167,
      "Ġide": 1168,
      "ats": 1169,
      "alk": 1170,
      "ĠEn": 1171,
      "ĊĠĠĠĠĠĠĠĠĠĠĠĠĠĠĠĠĠĠĠĠĠĠĠĠ": 1172,
      "\":": 1173,
      "An": 1174,
      "IN": 1175,
      "ãĢ": 1176,
      "Ġeth": 1177,
      "ones": 1178,
      "Ġboth": 1179,
      "Ġcould": 1180,
      "assert": 1181,
      "lect": 1182,
      "Ġline": 1183,
      "ãĢĤ": 1184,
      "gy": 1185,
      "Ġhim": 1186,
      "url": 1187,
      "ains": 1188,
      "\"\"\"": 1189,
      "Ġim": 1190,
      "rent": 1191,
      "ality": 1192,
      "Ġinform": 1193,
      "uss": 1194,
      "Ġarg": 1195,
      "Ġconsid": 1196,
      "Ġmain": 1197,
      "ask": 1198,
      "Ġ201": 1199,
      "hip": 1200,
      "Ġstate": 1201,
      "oph": 1202,
      "ĠFor": 1203,
      "Ġthen": 1204,
      "Ġanim": 1205,
      "Ġdep": 1206,
      "ants": 1207,
      "nect": 1208,
      "Ġfilm": 1209,
      "ĠAngol": 1210,
      "Ġend": 1211,
      "ersion": 1212,
      "ĠInd": 1213,
      "Ġche": 1214,
      "Ġobject": 1215,
      "Ġsmall": 1216,
      "Ġback": 1217,
      "Ġbased": 1218,
      "ĠAt": 1219,
      "Ġprot": 1220,
      "Ġshould": 1221,
      "Ġcontin": 1222,
      "ccess": 1223,
      "Ġspace": 1224,
      "Ġeffect": 1225,
      "dir": 1226,
      "Ġdirect": 1227,
      "Ġlead": 1228,
      "Ġtry": 1229,
      "ĊĠĠĠĠĠĠĠĠĠĠĠĠĠĠĠĠĠĠĠ": 1230,
      "VAL": 1231,
      "Ġest": 1232,
      "orn": 1233,
      "Ġmade": 1234,
      "ĠOr": 1235,
      "ae": 1236,
      "bers": 1237,
      "ote": 1238,
      "Ġallow": 1239,
      "itive": 1240,
      "Ġmark": 1241,
      "iety": 1242,
      "ĠAd": 1243,
      "ially": 1244,
      "ĠAlb": 1245,
      "feren": 1246,
      "min": 1247,
      "uch": 1248,
      "atch": 1249,
      "Ġmin": 1250,
      "omm": 1251,
      "Ġcommon": 1252,
      "Ġsur": 1253,
      "Ġcar": 1254,
      "outh": 1255,
      "ĠSp": 1256,
      "opt": 1257,
      "air": 1258,
      "my": 1259,
      "read": 1260,
      "Ġthree": 1261,
      "Ġcalled": 1262,
      "],": 1263,
      "aut": 1264,
      "Ġcur": 1265,
      "iter": 1266,
      "Ġmet": 1267,
      "ĠApollo": 1268,
      "writ": 1269,
      "user": 1270,
      "stron": 1271,
      "Ġcharact": 1272,
      "ral": 1273,
      "Ġer": 1274,
      "ined": 1275,
      "ĠThey": 1276,
      "vironment": 1277,
      "py": 1278,
      "ather": 1279,
      "Ġrese": 1280,
      "ĠCon": 1281,
      "uro": 1282,
      "Ġserv": 1283,
      "Ġcommun": 1284,
      "Ġvalue": 1285,
      "itation": 1286,
      "Ġfew": 1287,
      "ases": 1288,
      "Ġsupport": 1289,
      "vern": 1290,
      "Ġleg": 1291,
      "Ġlear": 1292,
      "format": 1293,
      "Ġearly": 1294,
      "alth": 1295,
      "ivity": 1296,
      "wards": 1297,
      "Ġbel": 1298,
      "Ġ200": 1299,
      "gram": 1300,
      "Ġmethod": 1301,
      "ived": 1302,
      "ulation": 1303,
      "ocus": 1304,
      "rror": 1305,
      "ss": 1306,
      "ified": 1307,
      "ĠOn": 1308,
      "Ġproduct": 1309,
      "time": 1310,
      "ĠPro": 1311,
      "ples": 1312,
      "ĠAmerican": 1313,
      "Ġwater": 1314,
      "ield": 1315,
      "aj": 1316,
      "cent": 1317,
      "Ġsuccess": 1318,
      "AT": 1319,
      "ator": 1320,
      "Ġopt": 1321,
      "itle": 1322,
      "Ġincre": 1323,
      "Ġbl": 1324,
      "Ġinclude": 1325,
      "Ġshows": 1326,
      "ts": 1327,
      "alse": 1328,
      "Ġland": 1329,
      "ively": 1330,
      "Ġwhat": 1331,
      "very": 1332,
      "Ġ196": 1333,
      "ertain": 1334,
      "Ġbecame": 1335,
      "Ġindivid": 1336,
      "mod": 1337,
      "Ġav": 1338,
      "other": 1339,
      "ument": 1340,
      "andard": 1341,
      "class": 1342,
      "data": 1343,
      "Ġsim": 1344,
      "Ġocc": 1345,
      "Ġbr": 1346,
      "Ġimpro": 1347,
      "ique": 1348,
      "Ġown": 1349,
      "Ġrequ": 1350,
      "ĠIf": 1351,
      "Ċĉĉĉ": 1352,
      "Ġ.": 1353,
      "Ġmy": 1354,
      "Ġthink": 1355,
      "ray": 1356,
      "Ġuser": 1357,
      "ĠRe": 1358,
      "Error": 1359,
      "LE": 1360,
      "de": 1361,
      "inst": 1362,
      "02": 1363,
      "type": 1364,
      "Ġlater": 1365,
      "Ġsee": 1366,
      "Ġ199": 1367,
      "Ġdesc": 1368,
      "ĠAfric": 1369,
      "count": 1370,
      "Ġlist": 1371,
      "ources": 1372,
      "conom": 1373,
      "Ġspecific": 1374,
      "Ġprovide": 1375,
      "lished": 1376,
      "mp": 1377,
      "son": 1378,
      "Ġ6": 1379,
      "ately": 1380,
      "ley": 1381,
      "ets": 1382,
      "Ġusing": 1383,
      "Ġplay": 1384,
      "ohn": 1385,
      "Ġway": 1386,
      "ential": 1387,
      "stand": 1388,
      "Ġlife": 1389,
      "ols": 1390,
      "**": 1391,
      "gg": 1392,
      "cean": 1393,
      "ements": 1394,
      "urope": 1395,
      "ense": 1396,
      "omet": 1397,
      "Ġthose": 1398,
      "Ġsever": 1399,
      "Ġ)": 1400,
      "Ġ@": 1401,
      "Ġastron": 1402,
      "artph": 1403,
      "=\"": 1404,
      "St": 1405,
      "stit": 1406,
      "bed": 1407,
      "Ġfind": 1408,
      "aterial": 1409,
      "uthor": 1410,
      "Ġseveral": 1411,
      "book": 1412,
      "fil": 1413,
      "tle": 1414,
      "init": 1415,
      "ilar": 1416,
      "iven": 1417,
      "Ġgreat": 1418,
      "Ġhuman": 1419,
      "ĠZ": 1420,
      "Ġsl": 1421,
      "Ġcap": 1422,
      "Ġbre": 1423,
      "ention": 1424,
      "Equal": 1425,
      "atures": 1426,
      "Ġcr": 1427,
      "Ġothers": 1428,
      "Ġmon": 1429,
      "ĠAg": 1430,
      "eter": 1431,
      "ron": 1432,
      "cond": 1433,
      "Ġke": 1434,
      "Ġeven": 1435,
      "ites": 1436,
      "Ġhand": 1437,
      "Ġstat": 1438,
      "Ġeng": 1439,
      "mb": 1440,
      "request": 1441,
      "ann": 1442,
      "Ġnp": 1443,
      "Ġhead": 1444,
      "ired": 1445,
      "Ġjust": 1446,
      "Ġagain": 1447,
      "Ġinformation": 1448,
      "co": 1449,
      "ru": 1450,
      "ason": 1451,
      "Ġexcept": 1452,
      "Ġmaterial": 1453,
      "ĠWh": 1454,
      "Ġenvironment": 1455,
      "key": 1456,
      "Ġx": 1457,
      "arth": 1458,
      "Ġfocus": 1459,
      "Ġpresent": 1460,
      "Ġread": 1461,
      "Ġredu": 1462,
      "osed": 1463,
      "ries": 1464,
      "ustom": 1465,
      "ĠStates": 1466,
      "Ġacid": 1467,
      "info": 1468,
      "Ġrange": 1469,
      "Ġposs": 1470,
      "[\"": 1471,
      "Ġfam": 1472,
      "ĠAnd": 1473,
      "ĠUnited": 1474,
      "Ġinnovation": 1475,
      "ai": 1476,
      "ining": 1477,
      "ref": 1478,
      "Ġword": 1479,
      "Ġprint": 1480,
      "Ġpersonal": 1481,
      "\"]": 1482,
      "Ġcontext": 1483,
      "Ġsmartph": 1484,
      "az": 1485,
      "ering": 1486,
      "Ġpoint": 1487,
      "adem": 1488,
      "Ġprocess": 1489,
      "Ġelect": 1490,
      "valid": 1491,
      "feed": 1492,
      "Ġtem": 1493,
      "Ġser": 1494,
      "Ġsol": 1495,
      "Ġsame": 1496,
      "ital": 1497,
      "Ġbur": 1498,
      "cho": 1499,
      "Ġprogram": 1500,
      "Ġbecause": 1501,
      "Ġgovern": 1502,
      "iod": 1503,
      "ky": 1504,
      "log": 1505,
      "sp": 1506,
      "atter": 1507,
      "Ġspe": 1508,
      "Ġindu": 1509,
      "Ġdon": 1510,
      "dule": 1511,
      "None": 1512,
      "lish": 1513,
      "Ġz": 1514,
      "ody": 1515,
      "ĠIs": 1516,
      "istic": 1517,
      "Ġprof": 1518,
      "Ġassert": 1519,
      "assertEqual": 1520,
      "CE": 1521,
      "Ġcor": 1522,
      "Ġpres": 1523,
      "Ġpass": 1524,
      "Ġdet": 1525,
      "Ġexam": 1526,
      "Ġcurrent": 1527,
      "IT": 1528,
      "elect": 1529,
      "iving": 1530,
      "Ġgu": 1531,
      "ability": 1532,
      "Ġmeditation": 1533,
      "par": 1534,
      "abel": 1535,
      "ĠEurope": 1536,
      "ĠGree": 1537,
      "ĠJohn": 1538,
      "ajor": 1539,
      "fun": 1540,
      "io": 1541,
      "ename": 1542,
      "Ġfile": 1543,
      "Ġnon": 1544,
      "Ġeconom": 1545,
      "Ġ17": 1546,
      "Ġprom": 1547,
      "Ġstudy": 1548,
      "Ġfunction": 1549,
      "write": 1550,
      "AME": 1551,
      "not": 1552,
      "wargs": 1553,
      "Ġcustom": 1554,
      "iment": 1555,
      "iver": 1556,
      "Ġcontent": 1557,
      "Ġappro": 1558,
      "ĠAngola": 1559,
      ".\"": 1560,
      "med": 1561,
      "Ġhy": 1562,
      "ights": 1563,
      "ared": 1564,
      "ricult": 1565,
      "Ġtranslation": 1566,
      "list": 1567,
      "Ġi": 1568,
      "Ġtyp": 1569,
      "Ġos": 1570,
      "Ġfeed": 1571,
      "Ġthough": 1572,
      "Ġprob": 1573,
      "oci": 1574,
      "Ġcontro": 1575,
      "Ġrelations": 1576,
      "Ġpractice": 1577,
      "Al": 1578,
      "ault": 1579,
      "ware": 1580,
      "ond": 1581,
      "ane": 1582,
      "Ġmust": 1583,
      "ides": 1584,
      "Ġimpact": 1585,
      "Ġvalues": 1586,
      "au": 1587,
      "anies": 1588,
      "ilit": 1589,
      "--------------------------------": 1590,
      "Ġsimilar": 1591,
      "eds": 1592,
      "ilos": 1593,
      "rab": 1594,
      "Ġarea": 1595,
      "ging": 1596,
      "lex": 1597,
      "orts": 1598,
      "Ġproject": 1599,
      "ograph": 1600,
      "Ġrun": 1601,
      "Ġcreate": 1602,
      "Ġresearch": 1603,
      "af": 1604,
      "erc": 1605,
      "Ġshe": 1606,
      "Ġ10": 1607,
      "Ġalph": 1608,
      "Ġ197": 1609,
      "Ġaround": 1610,
      "Ġopen": 1611,
      "ole": 1612,
      "Ġu": 1613,
      "ork": 1614,
      "Ġdel": 1615,
      "ĠAust": 1616,
      "Ġsugg": 1617,
      "Ġtrad": 1618,
      "Ġtextbook": 1619,
      "Ġsuggest": 1620,
      "ĠEx": 1621,
      "til": 1622,
      "tem": 1623,
      "itions": 1624,
      "amb": 1625,
      "ĠThese": 1626,
      "indness": 1627,
      "Ġphys": 1628,
      "Ġamong": 1629,
      "flu": 1630,
      "Ġlarge": 1631,
      "ID": 1632,
      "ox": 1633,
      "è¯": 1634,
      "Ġtype": 1635,
      "erb": 1636,
      "Ġhealth": 1637,
      "Ġclim": 1638,
      "âĢĶ": 1639,
      "Ġunderstand": 1640,
      "True": 1641,
      "ner": 1642,
      "Ġ__": 1643,
      "Ġtake": 1644,
      "Ġfour": 1645,
      "Ġfact": 1646,
      "Ġpot": 1647,
      "Ġmult": 1648,
      "Ġmajor": 1649,
      "akes": 1650,
      "value": 1651,
      "ription": 1652,
      "Ġethical": 1653,
      "Ġaff": 1654,
      "Ġmuch": 1655,
      "ross": 1656,
      "Ġhist": 1657,
      "ĠTV": 1658,
      "ĠNew": 1659,
      "Ġchang": 1660,
      "Ġperiod": 1661,
      "ream": 1662,
      "Ġbeh": 1663,
      "Ġorder": 1664,
      "ission": 1665,
      "ttp": 1666,
      "Ġsignific": 1667,
      "</": 1668,
      "='": 1669,
      "for": 1670,
      "Ġbook": 1671,
      "Ġmem": 1672,
      "Ġmaking": 1673,
      "add": 1674,
      "ES": 1675,
      "ead": 1676,
      "alue": 1677,
      "ash": 1678,
      "ama": 1679,
      "Ġstill": 1680,
      "ĠPh": 1681,
      "ĠEarth": 1682,
      "Ġatom": 1683,
      "ological": 1684,
      "Ġrepresent": 1685,
      "ior": 1686,
      "ler": 1687,
      "ves": 1688,
      "Ġpat": 1689,
      "Ġstandard": 1690,
      "Ġexpl": 1691,
      "ĠBy": 1692,
      "ĠRuss": 1693,
      "Ġuntil": 1694,
      "ĠWar": 1695,
      "..": 1696,
      "bit": 1697,
      "less": 1698,
      "Ġwithout": 1699,
      "ours": 1700,
      "TER": 1701,
      "pr": 1702,
      "Ġ8": 1703,
      "Ġview": 1704,
      "though": 1705,
      "itional": 1706,
      "ee": 1707,
      "Ġwear": 1708,
      "Ġpower": 1709,
      "Ġevery": 1710,
      "ided": 1711,
      "ended": 1712,
      "illion": 1713,
      "])": 1714,
      "ml": 1715,
      "icy": 1716,
      "Ġlim": 1717,
      "Ġcountry": 1718,
      "iversity": 1719,
      "by": 1720,
      "fer": 1721,
      "ty": 1722,
      "Ġsince": 1723,
      "Ġrequest": 1724,
      "Ġeas": 1725,
      "iform": 1726,
      "riend": 1727,
      "ained": 1728,
      "Ġ198": 1729,
      "epend": 1730,
      "Ġmarket": 1731,
      "'.": 1732,
      "Ex": 1733,
      "back": 1734,
      "man": 1735,
      "Ġsat": 1736,
      "ank": 1737,
      "Ġlow": 1738,
      "Ġnat": 1739,
      "idd": 1740,
      "ands": 1741,
      "plit": 1742,
      "Ġresources": 1743,
      "Ġchange": 1744,
      "Ġmodels": 1745,
      "Ġfeatures": 1746,
      "10": 1747,
      "bon": 1748,
      "day": 1749,
      "Ġtri": 1750,
      "Ġbi": 1751,
      "ional": 1752,
      "ĠAc": 1753,
      "olum": 1754,
      "antic": 1755,
      "Ġmodern": 1756,
      "Ġphilos": 1757,
      "Ġgood": 1758,
      "Ġspecies": 1759,
      "ĠEng": 1760,
      "Ġrelationship": 1761,
      "ION": 1762,
      "PAR": 1763,
      "por": 1764,
      "Ġ7": 1765,
      "ina": 1766,
      "head": 1767,
      "Ġdue": 1768,
      "igu": 1769,
      "Ġvis": 1770,
      "oving": 1771,
      "Ġknow": 1772,
      "ief": 1773,
      "ted": 1774,
      "ways": 1775,
      "Ġter": 1776,
      "Ġinflu": 1777,
      "Ġless": 1778,
      "play": 1779,
      "Ġpopulation": 1780,
      "Ġagainst": 1781,
      "cing": 1782,
      "me": 1783,
      "serv": 1784,
      "Ġwar": 1785,
      "lear": 1786,
      "ival": 1787,
      "ogn": 1788,
      "Ġprev": 1789,
      "Ġvarious": 1790,
      "Ġfollowing": 1791,
      "Ġpublic": 1792,
      "Ġprotect": 1793,
      "Ġcharacter": 1794,
      "Ġgovernment": 1795,
      "AS": 1796,
      "ges": 1797,
      "gen": 1798,
      "Ġmind": 1799,
      "rodu": 1800,
      "ĠDe": 1801,
      "chedule": 1802,
      "ribut": 1803,
      "Ġperform": 1804,
      "Ġinvest": 1805,
      "Ġalphab": 1806,
      "Ġtel": 1807,
      "Ġoper": 1808,
      "estern": 1809,
      "Ġdev": 1810,
      "Ġchall": 1811,
      "arameter": 1812,
      "Ġ+=": 1813,
      "Ġestab": 1814,
      "date": 1815,
      "oid": 1816,
      "ton": 1817,
      "esc": 1818,
      "Ġcrit": 1819,
      "array": 1820,
      "Ġpo": 1821,
      "Ġnow": 1822,
      "ĠSome": 1823,
      "Ġconnect": 1824,
      "erest": 1825,
      "ĠHu": 1826,
      "ĠNorth": 1827,
      "Ġcompanies": 1828,
      "Ġdeveloped": 1829,
      "Ġgroups": 1830,
      "reen": 1831,
      "ories": 1832,
      "itic": 1833,
      "ised": 1834,
      "ĠSc": 1835,
      "Ġgiven": 1836,
      "ĠDo": 1837,
      "aving": 1838,
      "ĠAll": 1839,
      "Ġbecome": 1840,
      "ynam": 1841,
      "Ġlocal": 1842,
      "Ġfin": 1843,
      "Ġbody": 1844,
      "asi": 1845,
      "Ġresp": 1846,
      "Ġdoes": 1847,
      "Ġ**": 1848,
      "Ġrefer": 1849,
      "Ġbuild": 1850,
      "Ġsignificant": 1851,
      "##": 1852,
      "Ġpath": 1853,
      "ĊĠĠĠĠĠ": 1854,
      "ental": 1855,
      "sequ": 1856,
      "abor": 1857,
      "Ġsust": 1858,
      "Ġsecond": 1859,
      "ording": 1860,
      "ometimes": 1861,
      "AI": 1862,
      "Ġ9": 1863,
      "Ġauthor": 1864,
      "Ġfore": 1865,
      "Ġdr": 1866,
      "oman": 1867,
      "ips": 1868,
      "Ġstruct": 1869,
      "ternational": 1870,
      "Ġpositive": 1871,
      "ophy": 1872,
      "iformes": 1873,
      "].": 1874,
      "ser": 1875,
      "čĊ": 1876,
      "ĠQ": 1877,
      "Ġet": 1878,
      "Ġold": 1879,
      "ises": 1880,
      "Ġanal": 1881,
      "Ġfr": 1882,
      "Ġmus": 1883,
      "ently": 1884,
      "Ġlower": 1885,
      "Ġequ": 1886,
      "ĠMar": 1887,
      "throp": 1888,
      "Ġusually": 1889,
      "Ġlevel": 1890,
      "quality": 1891,
      "Ġinvol": 1892,
      "Ġdescrib": 1893,
      "cur": 1894,
      "face": 1895,
      "num": 1896,
      "ĠCl": 1897,
      "ĠAsia": 1898,
      "ĠYou": 1899,
      "ED": 1900,
      "item": 1901,
      "ateg": 1902,
      "Ġpopular": 1903,
      "Ġgeneral": 1904,
      "return": 1905,
      "Ġideas": 1906,
      "sky": 1907,
      "Ã©": 1908,
      "åı": 1909,
      "Ġdom": 1910,
      "aster": 1911,
      "Ġalg": 1912,
      "ounds": 1913,
      "berde": 1914,
      "Ġdesign": 1915,
      "ĠGreek": 1916,
      "Ġhyd": 1917,
      "berdeen": 1918,
      "Yes": 1919,
      "dict": 1920,
      "np": 1921,
      "yl": 1922,
      "Ġcare": 1923,
      "Ġcode": 1924,
      "Ġinc": 1925,
      "Ġdown": 1926,
      "Ġreal": 1927,
      "ĠAch": 1928,
      "ull": 1929,
      "thlet": 1930,
      "ĠPl": 1931,
      "aced": 1932,
      "ploy": 1933,
      "shape": 1934,
      "Ġsustain": 1935,
      "title": 1936,
      "elet": 1937,
      "amer": 1938,
      "ivil": 1939,
      "Ġalk": 1940,
      "struct": 1941,
      "Ġmeaning": 1942,
      "Ġconsidered": 1943,
      "ĠAtl": 1944,
      "Ġkeep": 1945,
      "18": 1946,
      "Parameter": 1947,
      "aid": 1948,
      "dom": 1949,
      "hat": 1950,
      "mon": 1951,
      "uals": 1952,
      "Ġour": 1953,
      "isions": 1954,
      "Ġwid": 1955,
      "roasi": 1956,
      "place": 1957,
      "pload": 1958,
      "Ġshort": 1959,
      "Ġkey": 1960,
      "Ġoffer": 1961,
      "ĠAfrica": 1962,
      "ademy": 1963,
      "yth": 1964,
      "Ġ<": 1965,
      "orage": 1966,
      "Ġdem": 1967,
      "imately": 1968,
      "Ġgrow": 1969,
      "ĠThere": 1970,
      "Ġresponse": 1971,
      "Ġcompany": 1972,
      "Ġagricult": 1973,
      "Ġmedia": 1974,
      "ilitary": 1975,
      "roasiatic": 1976,
      "be": 1977,
      "kindness": 1978,
      "now": 1979,
      "Ġanarch": 1980,
      "omp": 1981,
      "Ġiss": 1982,
      "und": 1983,
      "raft": 1984,
      "ills": 1985,
      "oviet": 1986,
      "Ġenc": 1987,
      "Ġinterest": 1988,
      "ĠAlban": 1989,
      "Ġexamples": 1990,
      "''": 1991,
      "Name": 1992,
      "ged": 1993,
      "met": 1994,
      "ring": 1995,
      "Ġ>": 1996,
      "hem": 1997,
      "Ġcal": 1998,
      "Ġben": 1999,
      "Ġmax": 2000,
      "ctr": 2001,
      "ĠTr": 2002,
      "ĠCan": 2003,
      "oss": 2004,
      "Ġris": 2005,
      "apture": 2006,
      "iences": 2007,
      "Ġnatural": 2008,
      "oin": 2009,
      "schedule": 2010,
      "Ġocean": 2011,
      "ances": 2012,
      "eder": 2013,
      "Ġreason": 2014,
      "ston": 2015,
      "uture": 2016,
      "ĠSoviet": 2017,
      "ift": 2018,
      "raw": 2019,
      "uments": 2020,
      "essage": 2021,
      "Ġculture": 2022,
      "Ġpolit": 2023,
      "Ġappeal": 2024,
      "Ġorigin": 2025,
      "Ġanimals": 2026,
      "Ġproducts": 2027,
      "Ġastronom": 2028,
      "AMETER": 2029,
      "PARAMETER": 2030,
      "ST": 2031,
      "UE": 2032,
      "Ġident": 2033,
      "enn": 2034,
      "Ġpar": 2035,
      "ĠAberdeen": 2036,
      "Ġens": 2037,
      "Ġoutput": 2038,
      "Ġrecord": 2039,
      "Ġdevelopment": 2040,
      "Ġparticip": 2041,
      "Ġreview": 2042,
      "ĠOrder": 2043,
      "Ġlearn": 2044,
      "():": 2045,
      "ope": 2046,
      "uck": 2047,
      "Ġsimp": 2048,
      "Ġcoll": 2049,
      "amed": 2050,
      "Ġalways": 2051,
      "ĠBrit": 2052,
      "rior": 2053,
      "ignment": 2054,
      "Ġmeans": 2055,
      "Invalid": 2056,
      "append": 2057,
      "INVAL": 2058,
      "gress": 2059,
      "icate": 2060,
      "start": 2061,
      "ĠArab": 2062,
      "Ġstep": 2063,
      "Ġconv": 2064,
      "ches": 2065,
      "//": 2066,
      "ued": 2067,
      "Ġvery": 2068,
      "Ġscript": 2069,
      "Ġoptions": 2070,
      "INVALID": 2071,
      "201": 2072,
      "Value": 2073,
      "rist": 2074,
      "Ġcertain": 2075,
      "ither": 2076,
      "Ġpur": 2077,
      "Ġins": 2078,
      "Ġneg": 2079,
      "Ġareas": 2080,
      "Ġhere": 2081,
      "Ġunique": 2082,
      "ublic": 2083,
      "ailed": 2084,
      "Ġbehav": 2085,
      "ĠAcademy": 2086,
      "InvalidParameter": 2087,
      "INVALIDPARAMETER": 2088,
      ".__": 2089,
      "tic": 2090,
      "Ġsing": 2091,
      "Ġbas": 2092,
      "Ġbran": 2093,
      "ĠSouth": 2094,
      "andom": 2095,
      "Ġplace": 2096,
      "Ġparticular": 2097,
      "ference": 2098,
      "Ġfamily": 2099,
      "Ġcontrol": 2100,
      "thletic": 2101,
      "xley": 2102,
      "anes": 2103,
      "rote": 2104,
      "Ġreality": 2105,
      "Ġhig": 2106,
      "Ġbeg": 2107,
      "ĠHis": 2108,
      "ternal": 2109,
      "Con": 2110,
      "li": 2111,
      "nd": 2112,
      "Ġtimes": 2113,
      "Ġfarm": 2114,
      "Ġder": 2115,
      "eters": 2116,
      "Ġlen": 2117,
      "irc": 2118,
      "clus": 2119,
      "Ġcommand": 2120,
      "Ġinteract": 2121,
      "VALUE": 2122,
      "Ġavail": 2123,
      "InvalidParameterValue": 2124,
      "INVALIDPARAMETERVALUE": 2125,
      "db": 2126,
      "mit": 2127,
      "ä¸": 2128,
      "Ġcaus": 2129,
      "Ġmar": 2130,
      "Ġday": 2131,
      "Ġlast": 2132,
      "ĠBl": 2133,
      "ĠPort": 2134,
      "illes": 2135,
      "Ġcrew": 2136,
      "Ġcultural": 2137,
      "Ġproble": 2138,
      "RO": 2139,
      "Test": 2140,
      "lam": 2141,
      "ming": 2142,
      "sub": 2143,
      "text": 2144,
      "version": 2145,
      "Ġsw": 2146,
      "Ġcase": 2147,
      "Ġwalk": 2148,
      "Ġtowards": 2149,
      "ulations": 2150,
      "Ġ16": 2151,
      "Ġexist": 2152,
      "ĠFalse": 2153,
      "Ġprim": 2154,
      "Ġbetter": 2155,
      "Ġactiv": 2156,
      "ĠSea": 2157,
      "ferences": 2158,
      "Ġimprove": 2159,
      "Ġpossible": 2160,
      "Ġhydro": 2161,
      "Ġaard": 2162,
      "orld": 2163,
      "Ġmat": 2164,
      "Ġmot": 2165,
      "Ġmount": 2166,
      "Ġtop": 2167,
      "Ġloving": 2168,
      "Ġsty": 2169,
      "Ġstay": 2170,
      "Ġlet": 2171,
      "ification": 2172,
      "Ġtransform": 2173,
      "Ġassoci": 2174,
      "comp": 2175,
      "Ġdepend": 2176,
      "Ġcarbon": 2177,
      "bedo": 2178,
      "Ġbenef": 2179,
      "It": 2180,
      "ius": 2181,
      "iation": 2182,
      "pen": 2183,
      "run": 2184,
      "atus": 2185,
      "idence": 2186,
      "Ġwithin": 2187,
      "Ġitem": 2188,
      "Ġusers": 2189,
      "Ġelements": 2190,
      "Ġfeel": 2191,
      "Ġindividual": 2192,
      "Ġmembers": 2193,
      "Ġterrit": 2194,
      "Get": 2195,
      "jan": 2196,
      "tes": 2197,
      "Ġathletic": 2198,
      "Ġparam": 2199,
      "Ġmass": 2200,
      "ots": 2201,
      "rap": 2202,
      "empt": 2203,
      "Ġcho": 2204,
      "Ġcompet": 2205,
      "stry": 2206,
      "Ġindepend": 2207,
      "Ġregion": 2208,
      "Ġobserv": 2209,
      "Ġrole": 2210,
      "Ġresults": 2211,
      "Ġoccur": 2212,
      "instance": 2213,
      "Ġrespons": 2214,
      "Res": 2215,
      "fic": 2216,
      "way": 2217,
      "ze": 2218,
      "Ġax": 2219,
      "ergy": 2220,
      "Ġsometimes": 2221,
      "Ġbro": 2222,
      "Ġlook": 2223,
      "Ġlaw": 2224,
      "Ġstrong": 2225,
      "Ġworks": 2226,
      "bs": 2227,
      "cient": 2228,
      "dis": 2229,
      "max": 2230,
      "ĠâĢĵ": 2231,
      "ination": 2232,
      "Ġanthrop": 2233,
      "aries": 2234,
      "Ġfre": 2235,
      "ĠAN": 2236,
      "Ġnext": 2237,
      "Ġbegan": 2238,
      "assi": 2239,
      "phib": 2240,
      "ĠUnion": 2241,
      "Ġaccess": 2242,
      "Ġdecision": 2243,
      "Ġinstance": 2244,
      "Ġconsider": 2245,
      "Ġclimate": 2246,
      "``": 2247,
      "fs": 2248,
      "Ġcamer": 2249,
      "Ġfood": 2250,
      "Ġfield": 2251,
      "Ġinit": 2252,
      "Ġbest": 2253,
      "Ġliter": 2254,
      "ille": 2255,
      "Ġglob": 2256,
      "Ġconfig": 2257,
      "Ġalong": 2258,
      "ĠWhen": 2259,
      "arget": 2260,
      "ched": 2261,
      "Ġamb": 2262,
      "Ġbusinesses": 2263,
      "ength": 2264,
      "12": 2265,
      "50": 2266,
      "==": 2267,
      "bl": 2268,
      "join": 2269,
      "Ġes": 2270,
      "Ġstates": 2271,
      "ĠRep": 2272,
      "Ġchild": 2273,
      "Ġcomplet": 2274,
      "Ġexperiment": 2275,
      "Ġpropert": 2276,
      "Ġsystems": 2277,
      "ĠAlbert": 2278,
      "Ġlearning": 2279,
      "{}": 2280,
      "ĠX": 2281,
      "Ġ}": 2282,
      "ators": 2283,
      "ĠAz": 2284,
      "Ġcond": 2285,
      "ably": 2286,
      "ĠBr": 2287,
      "ĠBer": 2288,
      "Ġappell": 2289,
      "Ġrelated": 2290,
      "rench": 2291,
      "Ġtraining": 2292,
      "Ġseries": 2293,
      "ĠAchilles": 2294,
      "ĠAtlantic": 2295,
      "11": 2296,
      "By": 2297,
      "CT": 2298,
      "fort": 2299,
      "lin": 2300,
      "lines": 2301,
      "Äģ": 2302,
      "inn": 2303,
      "Ġanother": 2304,
      "aris": 2305,
      "Ġmillion": 2306,
      "outher": 2307,
      "Ġdid": 2308,
      "Ġled": 2309,
      "Ġne": 2310,
      "Ġnear": 2311,
      "Ġnorth": 2312,
      "ams": 2313,
      "ĠTrue": 2314,
      "urther": 2315,
      "agn": 2316,
      "ĠHere": 2317,
      "ĠWorld": 2318,
      "ception": 2319,
      "Ġsubject": 2320,
      "lands": 2321,
      "Ġoriginal": 2322,
      "Ġindividuals": 2323,
      "Ġprofession": 2324,
      "Ġchalleng": 2325,
      "kwargs": 2326,
      "here": 2327,
      "atin": 2328,
      "Ġways": 2329,
      "Ġrest": 2330,
      "oln": 2331,
      "ung": 2332,
      "ĠCong": 2333,
      "ĠComm": 2334,
      "Ġconc": 2335,
      "Ġ12": 2336,
      "acity": 2337,
      "pecially": 2338,
      "Ġstring": 2339,
      "ĊĠĠĠĠĠĠĠĠĠĠĠĠĠĠĠĠĠĠĠĠĠĠĠ": 2340,
      "Ġraise": 2341,
      "incoln": 2342,
      "Ġalphabet": 2343,
      "outhern": 2344,
      "split": 2345,
      "Ġaut": 2346,
      "Ġsit": 2347,
      "Ġsong": 2348,
      "icated": 2349,
      "ĠAb": 2350,
      "Ġcomb": 2351,
      "duct": 2352,
      "Ġ193": 2353,
      "Ġexperience": 2354,
      "Ġservice": 2355,
      "Ġsmartphones": 2356,
      "Ġindustry": 2357,
      "Ġensure": 2358,
      "ĠBritish": 2359,
      "Ġavailable": 2360,
      "ql": 2361,
      "with": 2362,
      "Ġsum": 2363,
      "Ġoil": 2364,
      "ication": 2365,
      "oura": 2366,
      "Ġdi": 2367,
      "asing": 2368,
      "Ġnov": 2369,
      "Ġgod": 2370,
      "Ġconf": 2371,
      "Ġ15": 2372,
      "Ġvide": 2373,
      "Ġexpect": 2374,
      "Ġsupp": 2375,
      "ĠEmp": 2376,
      "Ġ20": 2377,
      "ibility": 2378,
      "Ġmodule": 2379,
      "Ġprinc": 2380,
      "Ġ``": 2381,
      "ĠHuxley": 2382,
      ".,": 2383,
      "SI": 2384,
      "čĊĉ": 2385,
      "Ġess": 2386,
      "Ġfuture": 2387,
      "ingu": 2388,
      "ceed": 2389,
      "Ġenergy": 2390,
      "obe": 2391,
      "Ġplan": 2392,
      "arent": 2393,
      "itionally": 2394,
      "__(": 2395,
      "Ġeduc": 2396,
      "gypt": 2397,
      "Ġreduce": 2398,
      "'m": 2399,
      "Ch": 2400,
      "fix": 2401,
      "oon": 2402,
      "ym": 2403,
      "reg": 2404,
      "rep": 2405,
      "Ġsens": 2406,
      "Ġfriend": 2407,
      "Ġhard": 2408,
      "otle": 2409,
      "Ġconstit": 2410,
      "Ġalche": 2411,
      "opy": 2412,
      "ourn": 2413,
      "ached": 2414,
      "ango": 2415,
      "Ġright": 2416,
      "Ġ202": 2417,
      "ĠUS": 2418,
      "Ġintrodu": 2419,
      "Ġrecogn": 2420,
      "Ġcountries": 2421,
      "Ġ{}": 2422,
      "Ġrequire": 2423,
      "ynamo": 2424,
      "Cl": 2425,
      "aim": 2426,
      "fact": 2427,
      "ke": 2428,
      "load": 2429,
      "Ġ/": 2430,
      "atform": 2431,
      "ales": 2432,
      "Ġwrote": 2433,
      "Ġhaving": 2434,
      "ush": 2435,
      "ĠMus": 2436,
      "Ġrecomm": 2437,
      "Ġreflect": 2438,
      "Ġwritten": 2439,
      "iddle": 2440,
      "ĠPortug": 2441,
      "Ġespecially": 2442,
      "lor": 2443,
      "čĊĉĉ": 2444,
      "Ġtips": 2445,
      "aring": 2446,
      "Ġfive": 2447,
      "Ġfish": 2448,
      "Ġfinal": 2449,
      "Ġpost": 2450,
      "Ġeither": 2451,
      "ads": 2452,
      "Ġalbedo": 2453,
      "resh": 2454,
      "Ġcome": 2455,
      "ĠĠĠĠĠĠĠĠĠĠĠĠĠĠĠĠ": 2456,
      "ovsky": 2457,
      "ĠKh": 2458,
      "Ġforms": 2459,
      "Ġmeas": 2460,
      "Ġparts": 2461,
      "Ġevidence": 2462,
      "Ġgenerally": 2463,
      "Ġpublished": 2464,
      "Ġactivities": 2465,
      "Pro": 2466,
      "[:": 2467,
      "jango": 2468,
      "most": 2469,
      "ration": 2470,
      "Ġsouth": 2471,
      "Ġnames": 2472,
      "utions": 2473,
      "ĠSw": 2474,
      "Ġrad": 2475,
      "ĠFrench": 2476,
      "Ġleft": 2477,
      "config": 2478,
      "Ġabac": 2479,
      "Ġscient": 2480,
      "ribute": 2481,
      "pond": 2482,
      "Ġcheck": 2483,
      "Ġsuccessful": 2484,
      "ĠAgassi": 2485,
      "Ġchanges": 2486,
      "ython": 2487,
      "Ġpolitical": 2488,
      "ĠEmpire": 2489,
      "ipp": 2490,
      "ency": 2491,
      "Ġwant": 2492,
      "Ġtot": 2493,
      "lement": 2494,
      "ĠAm": 2495,
      "Ġla": 2496,
      "Ġexc": 2497,
      "aces": 2498,
      "Ġrul": 2499,
      "plate": 2500,
      "Ġscience": 2501,
      "ecess": 2502,
      "Ġaccount": 2503,
      "tters": 2504,
      "ycl": 2505,
      "Ġsize": 2506,
      "Ġfit": 2507,
      "Ġdiv": 2508,
      "ĠAfter": 2509,
      "Ġlight": 2510,
      "Ġep": 2511,
      "chol": 2512,
      "chie": 2513,
      "ird": 2514,
      "Ġsuper": 2515,
      "ĠBe": 2516,
      "ĠRes": 2517,
      "ĠEgypt": 2518,
      "Ġsea": 2519,
      "Ġ194": 2520,
      "Ġincludes": 2521,
      "iction": 2522,
      "Ġ[]": 2523,
      "Ġlogging": 2524,
      "Ġmaterials": 2525,
      "([": 2526,
      "CO": 2527,
      "On": 2528,
      "group": 2529,
      "of": 2530,
      "sy": 2531,
      "vark": 2532,
      "wfile": 2533,
      "æķ": 2534,
      "Ġtable": 2535,
      "Ġselect": 2536,
      "Ġmilitary": 2537,
      "Ġrele": 2538,
      "Ġlik": 2539,
      "Ġ(\"": 2540,
      "Ġsepar": 2541,
      "Ġemploy": 2542,
      "aska": 2543,
      "Ġnegative": 2544,
      "Ġsingle": 2545,
      "Ġcamera": 2546,
      "Id": 2547,
      "UR": 2548,
      "Un": 2549,
      "based": 2550,
      "call": 2551,
      "oard": 2552,
      "ris": 2553,
      "Ġtreat": 2554,
      "inary": 2555,
      "Ġprior": 2556,
      "Ġinput": 2557,
      "Ġbase": 2558,
      "ĠCar": 2559,
      "Ġ13": 2560,
      "Ġdeath": 2561,
      "orther": 2562,
      "Ġversion": 2563,
      "aker": 2564,
      "ĠLatin": 2565,
      "ĠInternational": 2566,
      "Ġformed": 2567,
      "Ġrelat": 2568,
      "ĠArist": 2569,
      "ĠUniversity": 2570,
      "Ġdifferen": 2571,
      "Ġlargest": 2572,
      "Ġcharacters": 2573,
      "Ġmethods": 2574,
      "aijan": 2575,
      "Ġphysical": 2576,
      "erbaijan": 2577,
      "ĠEnglish": 2578,
      "Ġabacus": 2579,
      "æķ°": 2580,
      "ein": 2581,
      "mical": 2582,
      "tings": 2583,
      "wh": 2584,
      "Ġid": 2585,
      "Ġtarget": 2586,
      "Ġachie": 2587,
      "Ġsense": 2588,
      "Ġport": 2589,
      "Ġdat": 2590,
      "omen": 2591,
      "Ġge": 2592,
      "Ġgre": 2593,
      "Ġstream": 2594,
      "Ġalthough": 2595,
      "Ġorbit": 2596,
      "ried": 2597,
      "aining": 2598,
      "exec": 2599,
      "ĠLincoln": 2600,
      "Ġyourself": 2601,
      "arkovsky": 2602,
      "erman": 2603,
      "Ġregular": 2604,
      "Ġtestdir": 2605,
      "Ġattempt": 2606,
      "Ġinterp": 2607,
      "Ġerr": 2608,
      "ficult": 2609,
      "Ġambigu": 2610,
      "Ġconcern": 2611,
      "False": 2612,
      "cul": 2613,
      "mark": 2614,
      "side": 2615,
      "td": 2616,
      "word": 2617,
      "Ġ;": 2618,
      "Ġreact": 2619,
      "utes": 2620,
      "ĠCount": 2621,
      "ĠCourt": 2622,
      "ĠMod": 2623,
      "Ġvol": 2624,
      "Ġuses": 2625,
      "ĠNational": 2626,
      "plot": 2627,
      "ender": 2628,
      "Ġ192": 2629,
      "iple": 2630,
      "Ġphot": 2631,
      "Ġdifficult": 2632,
      "Ġaccept": 2633,
      "Ġsociety": 2634,
      "ields": 2635,
      "ography": 2636,
      "Ġpotential": 2637,
      "ĠAlberta": 2638,
      "ires": 2639,
      "Ġurl": 2640,
      "anced": 2641,
      "iting": 2642,
      "Ġfree": 2643,
      "Ġrece": 2644,
      "Ġlive": 2645,
      "amm": 2646,
      "ils": 2647,
      "ister": 2648,
      "umen": 2649,
      "ysis": 2650,
      "Ġcreated": 2651,
      "Ġrelig": 2652,
      "Ċĉĉĉĉ": 2653,
      "Ġproduction": 2654,
      "tru": 2655,
      "iques": 2656,
      "Ġbreak": 2657,
      "ĠRussian": 2658,
      "Ġestablished": 2659,
      "Ġsustainable": 2660,
      "Ġletter": 2661,
      "ĠAzerbaijan": 2662,
      "orthern": 2663,
      "://": 2664,
      "cap": 2665,
      "gment": 2666,
      "ios": 2667,
      "su": 2668,
      "uly": 2669,
      "Ġaud": 2670,
      "Ġcirc": 2671,
      "itch": 2672,
      "Ġdoc": 2673,
      "Ġnode": 2674,
      "response": 2675,
      "ĠGod": 2676,
      "Ġrespect": 2677,
      "Ġwords": 2678,
      "obj": 2679,
      "Ġformat": 2680,
      "Ġdecisions": 2681,
      "Ġopin": 2682,
      "ĠAdd": 2683,
      "iefs": 2684,
      "Ġalgae": 2685,
      "ĠRepublic": 2686,
      "ET": 2687,
      "FC": 2688,
      "MP": 2689,
      "Re": 2690,
      "UN": 2691,
      "table": 2692,
      "tml": 2693,
      "win": 2694,
      "inct": 2695,
      "attr": 2696,
      "Ġsource": 2697,
      "itor": 2698,
      "Ġren": 2699,
      "ceans": 2700,
      "Ġconcept": 2701,
      "ayer": 2702,
      "ĠBC": 2703,
      "osition": 2704,
      "Ġcomes": 2705,
      "acy": 2706,
      "Ġcannot": 2707,
      "Ġseeds": 2708,
      "Ġletters": 2709,
      "Ġarr": 2710,
      "Ġjud": 2711,
      "Ġassist": 2712,
      "Ġnumer": 2713,
      "Ġcentral": 2714,
      "Ġvari": 2715,
      "Ġterms": 2716,
      "Ġneeds": 2717,
      "ĠOne": 2718,
      "Ġsmartphone": 2719,
      "col": 2720,
      "dat": 2721,
      "Ġtheory": 2722,
      "Ġsys": 2723,
      "alax": 2724,
      "Ġann": 2725,
      "arily": 2726,
      "Ġwin": 2727,
      "Ġblob": 2728,
      "stri": 2729,
      "etime": 2730,
      "Ġnamed": 2731,
      "ĠSoc": 2732,
      "ĠCal": 2733,
      "ĠComp": 2734,
      "aging": 2735,
      "Ġcomfort": 2736,
      "Ġadopt": 2737,
      "rict": 2738,
      "achine": 2739,
      "Ġspecial": 2740,
      "Ġoffers": 2741,
      "Ġcolon": 2742,
      "Ġaddress": 2743,
      "Ġexpress": 2744,
      "Ġmaint": 2745,
      "chool": 2746,
      "ĠCongress": 2747,
      "ĠAristotle": 2748,
      "200": 2749,
      "Ar": 2750,
      "DE": 2751,
      "ling": 2752,
      "off": 2753,
      "ving": 2754,
      "Ġsent": 2755,
      "anish": 2756,
      "Ġwon": 2757,
      "Ġfar": 2758,
      "Ġfig": 2759,
      "Ġfall": 2760,
      "Ġdig": 2761,
      "ĠTo": 2762,
      "ott": 2763,
      "Ġgive": 2764,
      "unar": 2765,
      "Ġ11": 2766,
      "ĠLe": 2767,
      "ĠWith": 2768,
      "ĠOther": 2769,
      "Ġincluded": 2770,
      "Ġsoft": 2771,
      "Ġtechniques": 2772,
      "Ġcultures": 2773,
      "overed": 2774,
      "ebr": 2775,
      "Ġsurface": 2776,
      "models": 2777,
      "ĠJohnston": 2778,
      "Ġtypes": 2779,
      "Ġhistory": 2780,
      "print": 2781,
      "Ġsitu": 2782,
      "II": 2783,
      "iate": 2784,
      "oot": 2785,
      "ven": 2786,
      "Ġturn": 2787,
      "rec": 2788,
      "Ġschol": 2789,
      "ences": 2790,
      "Ġcivil": 2791,
      "Ġbit": 2792,
      "omy": 2793,
      "ateur": 2794,
      "Ġshape": 2795,
      "Ġcomput": 2796,
      "ĠAnimal": 2797,
      "Ġevent": 2798,
      "Ġweight": 2799,
      "ĠChrist": 2800,
      "Ġposition": 2801,
      "lication": 2802,
      "Ġhowever": 2803,
      "Ġeconomic": 2804,
      "cer": 2805,
      "fg": 2806,
      "lim": 2807,
      "non": 2808,
      "over": 2809,
      "rc": 2810,
      "rel": 2811,
      "Ġcel": 2812,
      "Ġclear": 2813,
      "ishes": 2814,
      "ouse": 2815,
      "Ġlate": 2816,
      "irt": 2817,
      "Ġ14": 2818,
      "agement": 2819,
      "istics": 2820,
      "Ġdeep": 2821,
      "result": 2822,
      "ĠGo": 2823,
      "Ġshare": 2824,
      "object": 2825,
      "Ġabs": 2826,
      "Ġable": 2827,
      "ĠAlaska": 2828,
      "ails": 2829,
      "Ġcoast": 2830,
      "Ġstudies": 2831,
      "scription": 2832,
      "Ġstarted": 2833,
      "Ġskills": 2834,
      "'re": 2835,
      "AP": 2836,
      "SC": 2837,
      "go": 2838,
      "ï¼": 2839,
      "Ġtitle": 2840,
      "onic": 2841,
      "Ġoceans": 2842,
      "Ġbound": 2843,
      "ĠApp": 2844,
      "Ġthings": 2845,
      "ĠShe": 2846,
      "ĠMany": 2847,
      "Ġexerc": 2848,
      "Ġabove": 2849,
      "Ġtrack": 2850,
      "msg": 2851,
      "Ġmoved": 2852,
      "content": 2853,
      "Ġastronaut": 2854,
      "rupt": 2855,
      "ĠAndor": 2856,
      "Ġrelationships": 2857,
      "Ġinterpret": 2858,
      "AN": 2859,
      "FI": 2860,
      "Is": 2861,
      "blob": 2862,
      "json": 2863,
      "Ġquest": 2864,
      "Ġson": 2865,
      "Ġcod": 2866,
      "Ġcost": 2867,
      "orpor": 2868,
      "Ġant": 2869,
      "Ġmight": 2870,
      "Ġmission": 2871,
      "Ġtools": 2872,
      "Ġliving": 2873,
      "Ġhome": 2874,
      "Ġnever": 2875,
      "aken": 2876,
      "akers": 2877,
      "Ġseen": 2878,
      "izing": 2879,
      "izations": 2880,
      "ghan": 2881,
      "Ġpreferences": 2882,
      "Ġacross": 2883,
      "Ġoffic": 2884,
      "trans": 2885,
      "Ġavoid": 2886,
      "ĠAfrican": 2887,
      "Ġtemper": 2888,
      "Ġstructure": 2889,
      "Ġanthropology": 2890,
      "Ġappellate": 2891,
      "aur": 2892,
      "dout": 2893,
      "åĪ": 2894,
      "Ġaver": 2895,
      "Ġcity": 2896,
      "Ġlove": 2897,
      "Ġthus": 2898,
      "Ġstri": 2899,
      "Ġonline": 2900,
      "Ġconn": 2901,
      "Ġaltru": 2902,
      "Ġdeb": 2903,
      "ables": 2904,
      "ĠRand": 2905,
      "ĠNo": 2906,
      "ĠWe": 2907,
      "connect": 2908,
      "Ġapps": 2909,
      "Ġfeature": 2910,
      "arser": 2911,
      "Ġinstead": 2912,
      "Ġorganization": 2913,
      "Ġargument": 2914,
      "func": 2915,
      "function": 2916,
      "Ġbegin": 2917,
      "Ġtotal": 2918,
      "Not": 2919,
      "OR": 2920,
      "Th": 2921,
      "bot": 2922,
      "cle": 2923,
      "ĊĠ": 2924,
      "Ġve": 2925,
      "Ġaware": 2926,
      "reme": 2927,
      "Ġsaf": 2928,
      "ittle": 2929,
      "Ġbal": 2930,
      "stant": 2931,
      "ido": 2932,
      "ĠTarkovsky": 2933,
      "uration": 2934,
      "ored": 2935,
      "Ġrather": 2936,
      "ĠGe": 2937,
      "Ġ195": 2938,
      "avy": 2939,
      "ackage": 2940,
      "anguage": 2941,
      "ikido": 2942,
      "ocks": 2943,
      "Ġamphib": 2944,
      "Ġassum": 2945,
      "ĠChina": 2946,
      "Ġnumbers": 2947,
      "Ġemot": 2948,
      "Ġcollect": 2949,
      "Ġidea": 2950,
      "Ġerror": 2951,
      "Ġbelie": 2952,
      "ATH": 2953,
      "feeds": 2954,
      "Ġtextbooks": 2955,
      "Ġstandards": 2956,
      "Ġsatell": 2957,
      "Ġdescribed": 2958,
      "Ġaardvark": 2959,
      "Ġglobal": 2960,
      "PATH": 2961,
      "do": 2962,
      "ek": 2963,
      "work": 2964,
      "Ġtw": 2965,
      "Ġside": 2966,
      "Ġopp": 2967,
      "Ġput": 2968,
      "Ġnecess": 2969,
      "ĠCent": 2970,
      "orted": 2971,
      "ĠGr": 2972,
      "arge": 2973,
      "api": 2974,
      "Ġelement": 2975,
      "Ġcommit": 2976,
      "uese": 2977,
      "pportun": 2978,
      "Ġpolicy": 2979,
      "ebug": 2980,
      "****": 2981,
      "ĠWhile": 2982,
      "Ġissues": 2983,
      "Ġbehavior": 2984,
      "Ġterritory": 2985,
      "alaxy": 2986,
      "DO": 2987,
      "En": 2988,
      "OT": 2989,
      "SER": 2990,
      "like": 2991,
      "rast": 2992,
      "sel": 2993,
      "size": 2994,
      "vers": 2995,
      "Ġquality": 2996,
      "Ġopportun": 2997,
      "itud": 2998,
      "Ġlabel": 2999,
      "Ġnorm": 3000,
      "Ġnational": 3001,
      "ilt": 3002,
      "ĠPr": 3003,
      "ĠGener": 3004,
      "ĠOcean": 3005,
      "Ġkwargs": 3006,
      "Ġdefault": 3007,
      "index": 3008,
      "Ġconsist": 3009,
      "Ġconsum": 3010,
      "Ġstudents": 3011,
      "ĠAmerica": 3012,
      "Ġappear": 3013,
      "pytest": 3014,
      "instein": 3015,
      "Ġenvironmental": 3016,
      "Ġcustomer": 3017,
      "Ġunderstanding": 3018,
      "Ġphilosophy": 3019,
      "Ġanalysis": 3020,
      "elete": 3021,
      "Ġencoura": 3022,
      "Ġhigher": 3023,
      "Ġlikely": 3024,
      "debug": 3025,
      "http": 3026,
      "ps": 3027,
      "upload": 3028,
      "atory": 3029,
      "Ġcases": 3030,
      "Ġfac": 3031,
      "asc": 3032,
      "Ġey": 3033,
      "igr": 3034,
      "ĠCol": 3035,
      "rain": 3036,
      "Ġconsequ": 3037,
      "hers": 3038,
      "account": 3039,
      "Ġheld": 3040,
      "Ġcomplex": 3041,
      "Ġwhether": 3042,
      "Ġclaim": 3043,
      "Ġelif": 3044,
      "Ġgoals": 3045,
      "parameters": 3046,
      "ledge": 3047,
      "Ġdiscuss": 3048,
      "Ġanimation": 3049,
      "Ġobjects": 3050,
      "è¯¯": 3051,
      "Ġaffect": 3052,
      "Ġatomic": 3053,
      "Ġrecommend": 3054,
      "'),": 3055,
      "Oper": 3056,
      "][": 3057,
      "ait": 3058,
      "hib": 3059,
      "spe": 3060,
      "vent": 3061,
      "ĊĊĠĠĠĠĠĠĠĠĠĠĠ": 3062,
      "Ġur": 3063,
      "ĠâĢ": 3064,
      "Ġsect": 3065,
      "ali": 3066,
      "isc": 3067,
      "Ġtoo": 3068,
      "abama": 3069,
      "ander": 3070,
      "ĠPat": 3071,
      "Ġformer": 3072,
      "Ġappl": 3073,
      "Ġacids": 3074,
      "Ġfiles": 3075,
      "Ġfilms": 3076,
      "reng": 3077,
      "ship": 3078,
      "Ġpractic": 3079,
      "hesis": 3080,
      "Ġallows": 3081,
      "Ġcapital": 3082,
      "ĠEuropean": 3083,
      "Ġeconomy": 3084,
      "Ġfeedback": 3085,
      "čĊč": 3086,
      "Ġwalking": 3087,
      "Ġprofessional": 3088,
      "Ġlaun": 3089,
      ">\\": 3090,
      "IS": 3091,
      "cos": 3092,
      "code": 3093,
      "no": 3094,
      "pace": 3095,
      "uction": 3096,
      "rect": 3097,
      "Ġsem": 3098,
      "ene": 3099,
      "arian": 3100,
      "Ġbo": 3101,
      "Ġmakes": 3102,
      "Ġdjango": 3103,
      "Ġlines": 3104,
      "unction": 3105,
      "Ġstorage": 3106,
      "Ġstreng": 3107,
      "essages": 3108,
      "Ġrandom": 3109,
      "ending": 3110,
      "Ġresolution": 3111,
      "Ġmeet": 3112,
      "Ġ186": 3113,
      "Ġperspect": 3114,
      "Ġinnovative": 3115,
      "ĠIndian": 3116,
      "Ġapproach": 3117,
      "augh": 3118,
      "Ġprevious": 3119,
      "'ll": 3120,
      "15": 3121,
      ":`": 3122,
      "LA": 3123,
      "bre": 3124,
      "light": 3125,
      "map": 3126,
      "pop": 3127,
      "Â°": 3128,
      "Ġaction": 3129,
      "ĠĠĠĠĠ": 3130,
      "orph": 3131,
      "Ġfav": 3132,
      "ĊĠĠĠĠĊĠĠĠ": 3133,
      "ĠAct": 3134,
      "ĠColum": 3135,
      "ager": 3136,
      "ths": 3137,
      "ĠRiver": 3138,
      "ĠDuring": 3139,
      "Ġinte": 3140,
      "oken": 3141,
      "ĠArm": 3142,
      "Ġactive": 3143,
      "Ġprovided": 3144,
      "Ġpractices": 3145,
      "ĠShah": 3146,
      "Ġwriting": 3147,
      "Ġcourts": 3148,
      "Ġmovement": 3149,
      "ready": 3150,
      "Ġdeterm": 3151,
      "Ġpromote": 3152,
      "Ġthought": 3153,
      "ĠAustroasiatic": 3154,
      "Ġhistor": 3155,
      "Ġagriculture": 3156,
      "ĠPortuguese": 3157,
      "500": 3158,
      "99": 3159,
      "EN": 3160,
      "fin": 3161,
      "html": 3162,
      "tx": 3163,
      "attle": 3164,
      "status": 3165,
      "eturn": 3166,
      "change": 3167,
      "ĠSch": 3168,
      "Ġconduct": 3169,
      "pper": 3170,
      "ĠEast": 3171,
      "ured": 3172,
      "ĠUse": 3173,
      "Ġbecom": 3174,
      "Ġregard": 3175,
      "Ġfilename": 3176,
      "Ġ183": 3177,
      "params": 3178,
      "Ġvariety": 3179,
      "Ġaddition": 3180,
      "Ġwrite": 3181,
      "filename": 3182,
      "Ġburger": 3183,
      "Ġreferred": 3184,
      "Ġmusic": 3185,
      "Ġgrowth": 3186,
      "ech": 3187,
      "node": 3188,
      "uel": 3189,
      "ufact": 3190,
      "éĶ": 3191,
      "Ġut": 3192,
      "Ļè¯¯": 3193,
      "Ġtaking": 3194,
      "ino": 3195,
      "rem": 3196,
      "Ġsom": 3197,
      "Ġancient": 3198,
      "arc": 3199,
      "Ġpy": 3200,
      "etic": 3201,
      "olicy": 3202,
      "Ġalready": 3203,
      "istan": 3204,
      "ops": 3205,
      "andler": 3206,
      "Ġvow": 3207,
      "Ġsuff": 3208,
      "ĠPe": 3209,
      "ĠRoman": 3210,
      "Ġrout": 3211,
      "Ġimplement": 3212,
      "Ġleast": 3213,
      "iance": 3214,
      "Ġadapt": 3215,
      "Ġadobe": 3216,
      "Ġscreen": 3217,
      "Ind": 3218,
      "Ġjson": 3219,
      "('<": 3220,
      "Ġconserv": 3221,
      "create": 3222,
      "ĠAss": 3223,
      "Ġlogical": 3224,
      "Ġservices": 3225,
      "module": 3226,
      "Ġpoints": 3227,
      "Ġreasoning": 3228,
      "Ġassociated": 3229,
      "Ġnovel": 3230,
      "Ġgreater": 3231,
      "Ġvolun": 3232,
      "Ġsoftware": 3233,
      "éĶĻè¯¯": 3234,
      "17": 3235,
      "Cont": 3236,
      "dynamo": 3237,
      "hood": 3238,
      "iers": 3239,
      "len": 3240,
      "pass": 3241,
      "round": 3242,
      "Ġsaid": 3243,
      "Ġfather": 3244,
      "ingdom": 3245,
      "Ġmole": 3246,
      "asks": 3247,
      "ilities": 3248,
      "iding": 3249,
      "Ġdecl": 3250,
      "oper": 3251,
      "ĠMount": 3252,
      "oung": 3253,
      "client": 3254,
      "ĠOpen": 3255,
      "inds": 3256,
      "().": 3257,
      "Ġprefer": 3258,
      "Ġamateur": 3259,
      "rown": 3260,
      "ĠAfghan": 3261,
      "Ġfollowed": 3262,
      "profile": 3263,
      "ĠSpanish": 3264,
      "Ġbreath": 3265,
      "Ġtraditional": 3266,
      "Ġinfluence": 3267,
      "####": 3268,
      "hemat": 3269,
      "ĠTrans": 3270,
      "ĠCanad": 3271,
      "Ġastronomers": 3272,
      "Ġidentify": 3273,
      "ĠArabic": 3274,
      "Ġopinions": 3275,
      "\"),": 3276,
      "aff": 3277,
      "base": 3278,
      "cs": 3279,
      "ients": 3280,
      "ystem": 3281,
      "alf": 3282,
      "Ġbor": 3283,
      "olved": 3284,
      "oting": 3285,
      "Ġ()": 3286,
      "ĠRob": 3287,
      "Ġplatform": 3288,
      "ĠJap": 3289,
      "Ġevents": 3290,
      "Ġtransp": 3291,
      "Ġthroughout": 3292,
      "Ġleading": 3293,
      "ĠConf": 3294,
      "Ġblock": 3295,
      "Ġdevices": 3296,
      "Ġcritical": 3297,
      "Ġwidely": 3298,
      "ĠAlbania": 3299,
      "ä¸į": 3300,
      "Ġhydrogen": 3301,
      "Ġproperties": 3302,
      "Ġchallenges": 3303,
      "Request": 3304,
      ".)": 3305,
      "::": 3306,
      "craft": 3307,
      "lier": 3308,
      "message": 3309,
      "sl": 3310,
      "sys": 3311,
      "Ġsix": 3312,
      "anc": 3313,
      "icro": 3314,
      "role": 3315,
      "stdout": 3316,
      "Ġlunar": 3317,
      "used": 3318,
      "ĠSu": 3319,
      "Ġgl": 3320,
      "Ġgold": 3321,
      "sec": 3322,
      "open": 3323,
      "ĠMay": 3324,
      "osal": 3325,
      "ĠRed": 3326,
      "ĠFr": 3327,
      "Ġseem": 3328,
      "ĠWill": 3329,
      "Ġdefined": 3330,
      "ccording": 3331,
      "Ġplant": 3332,
      "ĠAlabama": 3333,
      "Ġdisplay": 3334,
      "Ġsymb": 3335,
      "Ġmanufact": 3336,
      "Ġdiscovered": 3337,
      "Ġimage": 3338,
      "Ġincreasing": 3339,
      "Ġtypically": 3340,
      "ributed": 3341,
      "Ġderived": 3342,
      "Ġparams": 3343,
      "Ġessential": 3344,
      "Ġambiguity": 3345,
      "PO": 3346,
      "RES": 3347,
      "da": 3348,
      "ean": 3349,
      "last": 3350,
      "mber": 3351,
      "pite": 3352,
      "rs": 3353,
      "right": 3354,
      "well": 3355,
      "åĲ": 3356,
      "Ġair": 3357,
      "Ġsouthern": 3358,
      "Ġfurther": 3359,
      "Ġtoget": 3360,
      "ĠAug": 3361,
      "Ġnuc": 3362,
      "Ġemer": 3363,
      "ider": 3364,
      "ula": 3365,
      "istory": 3366,
      "Ġprogress": 3367,
      "ĠGerman": 3368,
      "struction": 3369,
      "update": 3370,
      "Ġhelpful": 3371,
      "Ġphr": 3372,
      "weight": 3373,
      "Ġwhole": 3374,
      "Ġobj": 3375,
      "cret": 3376,
      "Ġearth": 3377,
      "Ġcover": 3378,
      "ALI": 3379,
      "Ġexperiences": 3380,
      "Ġsmaller": 3381,
      "Ġeffects": 3382,
      "options": 3383,
      "Ġbeliefs": 3384,
      "Ġincreased": 3385,
      "Ġthinking": 3386,
      "Ġcustomers": 3387,
      "Ġstyle": 3388,
      "Ġbenefits": 3389,
      "Ġfrequ": 3390,
      "ceeded": 3391,
      "[:,": 3392,
      "Ġtogether": 3393,
      "cular": 3394,
      "fn": 3395,
      "ÃŃ": 3396,
      "Ġ--------------------------------": 3397,
      "Ġtaken": 3398,
      "Ġcell": 3399,
      "Ġbatter": 3400,
      "Ġhapp": 3401,
      "cember": 3402,
      "Ġforces": 3403,
      "ades": 3404,
      "erson": 3405,
      "Ġones": 3406,
      "Ġconcent": 3407,
      "ĠMon": 3408,
      "ĠMed": 3409,
      "Ġver": 3410,
      "Ġsure": 3411,
      "ĠBest": 3412,
      "artment": 3413,
      "ĠGu": 3414,
      "phas": 3415,
      "phalt": 3416,
      "Ġclos": 3417,
      "ologies": 3418,
      "igned": 3419,
      "Ġjourn": 3420,
      "Ġamount": 3421,
      "Ġ->": 3422,
      "Ġaccording": 3423,
      "Ġattack": 3424,
      "Ġflag": 3425,
      "Ġhimself": 3426,
      "Ġcontinued": 3427,
      "Ġrequired": 3428,
      "ĠReality": 3429,
      "Ġtrial": 3430,
      "Ġanarchism": 3431,
      "Ġparticipants": 3432,
      "ĠAdditionally": 3433,
      "ï¼Į": 3434,
      "selves": 3435,
      "14": 3436,
      "16": 3437,
      "40": 3438,
      "rm": 3439,
      "spec": 3440,
      "å¤": 3441,
      "Ġtend": 3442,
      "ato": 3443,
      "Ġcamp": 3444,
      "Ġcause": 3445,
      "aly": 3446,
      "Ġanimal": 3447,
      "Ġpress": 3448,
      "Ġlost": 3449,
      "Ġhost": 3450,
      "ĠTro": 3451,
      "resident": 3452,
      "ĠRender": 3453,
      "Ġrise": 3454,
      "Ġresource": 3455,
      "Ġtrue": 3456,
      "Ġdefinit": 3457,
      "Ġability": 3458,
      "aps": 3459,
      "Ġformal": 3460,
      "Ġresulting": 3461,
      "Ġstarting": 3462,
      "Ġorganizations": 3463,
      "Ġentire": 3464,
      "ĠAngolan": 3465,
      "ĠAda": 3466,
      "Ġoccup": 3467,
      "header": 3468,
      "Ġvisual": 3469,
      "Ġfront": 3470,
      "Ġincorpor": 3471,
      "Ġproblems": 3472,
      "Ġchildren": 3473,
      "Ġaverage": 3474,
      "ĠâĢł": 3475,
      ",\"": 3476,
      "13": 3477,
      "Can": 3478,
      "LI": 3479,
      "What": 3480,
      "delete": 3481,
      "just": 3482,
      "ril": 3483,
      "sw": 3484,
      "source": 3485,
      "Ġ&": 3486,
      "Ġult": 3487,
      "enced": 3488,
      "Ġcame": 3489,
      "Ġcapture": 3490,
      "Ġfail": 3491,
      "oub": 3492,
      "astern": 3493,
      "Ġlittle": 3494,
      "otic": 3495,
      "erse": 3496,
      "ĠCons": 3497,
      "Ġexec": 3498,
      "Ġcontain": 3499,
      "apacity": 3500,
      "())": 3501,
      "There": 3502,
      "rice": 3503,
      "Ġcreating": 3504,
      "Ġworking": 3505,
      "Ġthemselves": 3506,
      "wood": 3507,
      "Ġaccur": 3508,
      "Ġearlier": 3509,
      "'])": 3510,
      "Ġlogic": 3511,
      "Ass": 3512,
      "Ġgrad": 3513,
      "Ġestim": 3514,
      "Ġcommunication": 3515,
      "Ġincrease": 3516,
      "files": 3517,
      "Ġcrinfo": 3518,
      "ĠDecember": 3519,
      "Ġperformance": 3520,
      "Ġagricultural": 3521,
      "lamic": 3522,
      "block": 3523,
      "Ġcompletely": 3524,
      "Ġeducation": 3525,
      "Ġscholars": 3526,
      "Ġintegr": 3527,
      "ĠAugust": 3528,
      "How": 3529,
      "To": 3530,
      "fect": 3531,
      "host": 3532,
      "iol": 3533,
      "ipl": 3534,
      "joy": 3535,
      "Ġtrib": 3536,
      "Ġtren": 3537,
      "hel": 3538,
      "error": 3539,
      "Ġang": 3540,
      "Ġpair": 3541,
      "Ġmen": 3542,
      "Ġdest": 3543,
      "Ġlack": 3544,
      "Ġnature": 3545,
      "Ġever": 3546,
      "Ġthird": 3547,
      "uries": 3548,
      "Ġ100": 3549,
      "emitic": 3550,
      "aged": 3551,
      "abit": 3552,
      "abled": 3553,
      "term": 3554,
      "osp": 3555,
      "eren": 3556,
      "ĠFran": 3557,
      "illed": 3558,
      "Ġunivers": 3559,
      "Ġarch": 3560,
      "ibr": 3561,
      "ĠJuly": 3562,
      "Ġteam": 3563,
      "ĠIts": 3564,
      "Ġphone": 3565,
      "Ġupon": 3566,
      "Ġextens": 3567,
      "Ġcommonly": 3568,
      "stitute": 3569,
      "refs": 3570,
      "Ġapprox": 3571,
      "Ġknowledge": 3572,
      "åıĤ": 3573,
      "Ġcollabor": 3574,
      "Ġpurp": 3575,
      "ĠMuslim": 3576,
      "Ġbalance": 3577,
      "20": 3578,
      ">')": 3579,
      "PER": 3580,
      "iam": 3581,
      "rig": 3582,
      "uff": 3583,
      "wise": 3584,
      "oral": 3585,
      "arly": 3586,
      "Ġple": 3587,
      "Ġmember": 3588,
      "Ġden": 3589,
      "Ġred": 3590,
      "ĠSm": 3591,
      "une": 3592,
      "agg": 3593,
      "ĠTheir": 3594,
      "ĠMoon": 3595,
      "ĠPython": 3596,
      "ĠHer": 3597,
      "ĠDes": 3598,
      "apole": 3599,
      "Ġsomeone": 3600,
      "Ġhelps": 3601,
      "ribution": 3602,
      "ixed": 3603,
      "Ġemphas": 3604,
      "uthors": 3605,
      "Ġremained": 3606,
      "Ġquick": 3607,
      "Ġeffectively": 3608,
      "ATION": 3609,
      "Ġfocused": 3610,
      "Ġestablish": 3611,
      "Ġalkanes": 3612,
      "Ġexpected": 3613,
      "ĠSociety": 3614,
      "irtual": 3615,
      "Ġnecessary": 3616,
      "Ġvolunte": 3617,
      "apoleon": 3618,
      "loc": 3619,
      "making": 3620,
      "})": 3621,
      "Ġtre": 3622,
      "ĠĠĠĠĠĠ": 3623,
      "org": 3624,
      "Ġmatter": 3625,
      "Ġdays": 3626,
      "Ġdivers": 3627,
      "Ġreally": 3628,
      "stats": 3629,
      "Ġhalf": 3630,
      "Ġgen": 3631,
      "ĠCa": 3632,
      "Ġyoung": 3633,
      "Ġitself": 3634,
      "ĠNe": 3635,
      "ĠDav": 3636,
      "Ġnote": 3637,
      "Ġshown": 3638,
      "ething": 3639,
      "Ġreturned": 3640,
      "Ġjob": 3641,
      ")))": 3642,
      "Ġprovince": 3643,
      "Ġbuilt": 3644,
      "Ġhumans": 3645,
      "Ġcontinue": 3646,
      "Ġallowed": 3647,
      "Ġcommunity": 3648,
      "Ġengine": 3649,
      "Ġprocesses": 3650,
      "Ġprevent": 3651,
      "Ġmindful": 3652,
      "Ġproblem": 3653,
      "Ġvideos": 3654,
      "Ġalchemy": 3655,
      "Ġpriorit": 3656,
      "Ġaudience": 3657,
      "Ġbitumen": 3658,
      "Ġperspectives": 3659,
      "ĠColumb": 3660,
      "').": 3661,
      "22": 3662,
      "FAI": 3663,
      "Group": 3664,
      "Ph": 3665,
      "cr": 3666,
      "care": 3667,
      "ham": 3668,
      "ias": 3669,
      "mology": 3670,
      "session": 3671,
      "year": 3672,
      "åħ": 3673,
      "Ġage": 3674,
      "Ġaway": 3675,
      "replace": 3676,
      "att": 3677,
      "Ġwestern": 3678,
      "Ġpack": 3679,
      "Ġmock": 3680,
      "Ġmother": 3681,
      "Ġdone": 3682,
      "roid": 3683,
      "step": 3684,
      "Ġlin": 3685,
      "Ġhours": 3686,
      "ament": 3687,
      "ĠTex": 3688,
      "Ġstar": 3689,
      "Ġask": 3690,
      "uman": 3691,
      "anda": 3692,
      "ĠBut": 3693,
      "ocial": 3694,
      "ĠParis": 3695,
      "ĠEinstein": 3696,
      "ĠWest": 3697,
      "ĠWestern": 3698,
      "obar": 3699,
      "string": 3700,
      "ĠAny": 3701,
      "Ġregulations": 3702,
      "Ġprovides": 3703,
      "Ġtravel": 3704,
      "flict": 3705,
      "ĠApril": 3706,
      "Ġfund": 3707,
      "ĠIndia": 3708,
      "Ġmetals": 3709,
      "Ġlegal": 3710,
      "Ġbrands": 3711,
      "Ġplayer": 3712,
      "Ġheader": 3713,
      "Ġatoms": 3714,
      "olumn": 3715,
      "ASA": 3716,
      "ĠAllah": 3717,
      "Ġbranch": 3718,
      "ĠEgyptian": 3719,
      "Ġdatetime": 3720,
      "Ġnumerous": 3721,
      "strial": 3722,
      "Ġcomfortable": 3723,
      "ĠAndorra": 3724,
      "ĠConfeder": 3725,
      "BC": 3726,
      "\\\\": 3727,
      "lo": 3728,
      "member": 3729,
      "ne": 3730,
      "oom": 3731,
      "rich": 3732,
      "send": 3733,
      "select": 3734,
      "ä¼": 3735,
      "æľ": 3736,
      "Ġill": 3737,
      "Ġtax": 3738,
      "heast": 3739,
      "ony": 3740,
      "Ġcle": 3741,
      "Ġcub": 3742,
      "Ġfab": 3743,
      "Ġinsp": 3744,
      "Ġbar": 3745,
      "Ġdog": 3746,
      "Ġtook": 3747,
      "lete": 3748,
      "Ġrepl": 3749,
      "stra": 3750,
      "Ġload": 3751,
      "Ġnorthern": 3752,
      "ĠTe": 3753,
      "ivate": 3754,
      "chan": 3755,
      "ĠSub": 3756,
      "ĠCoun": 3757,
      "ĠHttp": 3758,
      "Ġrights": 3759,
      "except": 3760,
      "clock": 3761,
      "Ġunit": 3762,
      "Ġenh": 3763,
      "conds": 3764,
      "Ġdefend": 3765,
      "Ġclose": 3766,
      "epartment": 3767,
      "Ġappoint": 3768,
      "ĠStandard": 3769,
      "Ġtechnologies": 3770,
      "Ġproduced": 3771,
      "comment": 3772,
      "setup": 3773,
      "Ġartic": 3774,
      "ĠYork": 3775,
      "Ġproposed": 3776,
      "Ġethn": 3777,
      "Ġarguments": 3778,
      "Ġcareer": 3779,
      "metic": 3780,
      "Ġbroad": 3781,
      "Ġdocument": 3782,
      "Ġcomputer": 3783,
      "Ġconservation": 3784,
      "Ġ----------------------------------------------------------------": 3785,
      "'ve": 3786,
      "Failed": 3787,
      "can": 3788,
      "km": 3789,
      "net": 3790,
      "point": 3791,
      "then": 3792,
      "west": 3793,
      "čĊĠĠĠ": 3794,
      "Ġ--": 3795,
      "Ġsqu": 3796,
      "Ġsolution": 3797,
      "ana": 3798,
      "Ġwall": 3799,
      "Ġfull": 3800,
      "Ġinf": 3801,
      "icies": 3802,
      "Ġdict": 3803,
      "Ġdivid": 3804,
      "Ġreput": 3805,
      "imed": 3806,
      "Ġeast": 3807,
      "ulf": 3808,
      "Ġstage": 3809,
      "ĠColl": 3810,
      "Ġalmost": 3811,
      "istry": 3812,
      "Ġord": 3813,
      "ĠRem": 3814,
      "ĠRev": 3815,
      "Ġrank": 3816,
      "Ġrival": 3817,
      "ĠInstitute": 3818,
      "ĠUN": 3819,
      "uba": 3820,
      "earch": 3821,
      "Ġvalid": 3822,
      "Ġregions": 3823,
      "ĠChar": 3824,
      "Ġactivity": 3825,
      "Ġcolle": 3826,
      "Ġadded": 3827,
      "Ġremains": 3828,
      "Ġinstit": 3829,
      "Ġrunning": 3830,
      "oxels": 3831,
      "Ġinvolved": 3832,
      "Ġdomin": 3833,
      "Ġrisk": 3834,
      "Ġprimary": 3835,
      "Ġmotion": 3836,
      "Ġconditions": 3837,
      "execute": 3838,
      "Ġamphibians": 3839,
      "Ġpracticing": 3840,
      "Ġbattery": 3841,
      "åħ¥": 3842,
      "64": 3843,
      "RE": 3844,
      "ares": 3845,
      "bum": 3846,
      "gers": 3847,
      "iber": 3848,
      "label": 3849,
      "mail": 3850,
      "match": 3851,
      "Åį": 3852,
      "ĠÃ": 3853,
      "Ġtakes": 3854,
      "erve": 3855,
      "Ġsn": 3856,
      "Ġsession": 3857,
      "Ġsources": 3858,
      "Ġschool": 3859,
      "Ġwide": 3860,
      "ctions": 3861,
      "Ġlength": 3862,
      "imit": 3863,
      "Ġnom": 3864,
      "olf": 3865,
      "ĠTagg": 3866,
      "use": 3867,
      "oted": 3868,
      "ĠSat": 3869,
      "Ġ('": 3870,
      "Ġconflict": 3871,
      "Ġprofile": 3872,
      "umn": 3873,
      "respond": 3874,
      "Ġ'''": 3875,
      "ĠNapoleon": 3876,
      "Ġtrade": 3877,
      "indow": 3878,
      "ĠAlthough": 3879,
      "Ġsche": 3880,
      "Ġmechan": 3881,
      "Ġinds": 3882,
      "isms": 3883,
      "Ġsynt": 3884,
      "Ġ30": 3885,
      "Ġrow": 3886,
      "193": 3887,
      "inese": 3888,
      "Ġ{'": 3889,
      "Ġdistract": 3890,
      "Ġedge": 3891,
      "Ġadvance": 3892,
      "Ġhighly": 3893,
      "Animal": 3894,
      "Ġminutes": 3895,
      "Ġprograms": 3896,
      "Ġupload": 3897,
      "Ġmultiple": 3898,
      "ĠRussia": 3899,
      "Ġforest": 3900,
      "Ġforeign": 3901,
      "Ġbranches": 3902,
      "Ġmarine": 3903,
      "ĠANSI": 3904,
      "Ġrelatively": 3905,
      "ĠChristian": 3906,
      "Operation": 3907,
      "ä¼ł": 3908,
      "Ġfabric": 3909,
      "ĠTaggart": 3910,
      ");": 3911,
      "*\",": 3912,
      ".'": 3913,
      "Handler": 3914,
      "IALI": 3915,
      "Ref": 3916,
      "aper": 3917,
      "friend": 3918,
      "nel": 3919,
      "ture": 3920,
      "wan": 3921,
      "war": 3922,
      "only": 3923,
      "enge": 3924,
      "Ġcateg": 3925,
      "Ġcfg": 3926,
      "orig": 3927,
      "Ġbir": 3928,
      "Ġmessage": 3929,
      "ele": 3930,
      "Ġdur": 3931,
      "Ġdance": 3932,
      "Ġtool": 3933,
      "Ġreach": 3934,
      "Ġreference": 3935,
      "Ġlat": 3936,
      "imals": 3937,
      "otal": 3938,
      "lying": 3939,
      "ĠIran": 3940,
      "seeds": 3941,
      "ague": 3942,
      "que": 3943,
      "Ġvert": 3944,
      "ĠPol": 3945,
      "ĠPresident": 3946,
      "ache": 3947,
      "assion": 3948,
      "Ġ190": 3949,
      "ĠUser": 3950,
      "Ġarith": 3951,
      "periment": 3952,
      "berg": 3953,
      "ĠAlger": 3954,
      "Ġstrateg": 3955,
      "Ġprefix": 3956,
      "Ġagre": 3957,
      "ĠChinese": 3958,
      "ropri": 3959,
      "comm": 3960,
      "Ġefforts": 3961,
      "Ġpolicies": 3962,
      "Ġground": 3963,
      "Ġentertain": 3964,
      "ING": 3965,
      "Ġchemical": 3966,
      "Ġspacecraft": 3967,
      "Ġsurv": 3968,
      "Ġbring": 3969,
      "initial": 3970,
      "cope": 3971,
      "mediate": 3972,
      "template": 3973,
      "Ġmajority": 3974,
      "Ġbooks": 3975,
      "Ġpowerful": 3976,
      "Ġcritic": 3977,
      "Ġsimple": 3978,
      "Ġmathemat": 3979,
      "Ġmountain": 3980,
      "Ġdifference": 3981,
      "Ġopportunities": 3982,
      "Ġsomething": 3983,
      "ä¼łåħ¥": 3984,
      "Item": 3985,
      "NAME": 3986,
      "ZER": 3987,
      "]['": 3988,
      "iples": 3989,
      "oat": 3990,
      "och": 3991,
      "pub": 3992,
      "package": 3993,
      "ras": 3994,
      "wide": 3995,
      "éĻ": 3996,
      "Ġ!": 3997,
      "Ġ\\": 3998,
      "Ġqual": 3999,
      "hest": 4000,
      "Ġsal": 4001,
      "Ġcrop": 4002,
      "Ġctx": 4003,
      "icient": 4004,
      "Ġmiss": 4005,
      "Ġmention": 4006,
      "Ġdied": 4007,
      "rog": 4008,
      "Ġreb": 4009,
      "state": 4010,
      "ĠAnt": 4011,
      "etch": 4012,
      "iforn": 4013,
      "Ġgave": 4014,
      "Ġgraph": 4015,
      "ersh": 4016,
      "Ġstats": 4017,
      "Ġ(),": 4018,
      "irit": 4019,
      "ĠMiddle": 4020,
      "ĠBet": 4021,
      "ĠBCE": 4022,
      "osen": 4023,
      "ption": 4024,
      "ĠEth": 4025,
      "Ġrat": 4026,
      "anted": 4027,
      "ĠNov": 4028,
      "Ġseas": 4029,
      "izer": 4030,
      "astic": 4031,
      "Ġdefin": 4032,
      "Ġdiss": 4033,
      "Ġsubsequ": 4034,
      "ĠArt": 4035,
      "Ġrecent": 4036,
      "Ġoverall": 4037,
      "ugg": 4038,
      "show": 4039,
      "olders": 4040,
      "foo": 4041,
      "foobar": 4042,
      "olutionary": 4043,
      "ĠSept": 4044,
      "context": 4045,
      "Ġadvanced": 4046,
      "ĊĠĠĠĠĠĠĠĠĠĠĠĠĠĠĠĠĠĠĠĠĠĠĠĠĠĠĠĠĠĠĠĠĠĠĠĠĠĠĠĠ": 4047,
      "Ġsupported": 4048,
      "Ġmonitor": 4049,
      "Ġelectron": 4050,
      "Ġspeakers": 4051,
      "ĠAustin": 4052,
      "è¯·": 4053,
      "Ġviewers": 4054,
      "Ġlimited": 4055,
      "porary": 4056,
      "Ġinvolves": 4057,
      "Ġindependence": 4058,
      "Response": 4059,
      "Ġrequirements": 4060,
      "sych": 4061,
      "ĠCaliforn": 4062,
      "SERIALI": 4063,
      "itude": 4064,
      "ĠGeneral": 4065,
      "Ġapplied": 4066,
      "PERATION": 4067,
      "FAILE": 4068,
      "ĠCalifornia": 4069,
      "SERIALIZER": 4070,
      "\").": 4071,
      "Ad": 4072,
      "Column": 4073,
      "RI": 4074,
      "Type": 4075,
      "gres": 4076,
      "lib": 4077,
      "mock": 4078,
      "ney": 4079,
      "pk": 4080,
      "pid": 4081,
      "part": 4082,
      "zer": 4083,
      "Ġaikido": 4084,
      "rest": 4085,
      "Ġsun": 4086,
      "Ġsample": 4087,
      "ancy": 4088,
      "Ġca": 4089,
      "Ġcere": 4090,
      "Ġcopy": 4091,
      "arb": 4092,
      "Ġment": 4093,
      "Ġmove": 4094,
      "Ġmental": 4095,
      "Ġmessages": 4096,
      "Ġtoday": 4097,
      "ety": 4098,
      "image": 4099,
      "Ġnation": 4100,
      "Ġstrict": 4101,
      "agger": 4102,
      "ĠMost": 4103,
      "Ġvary": 4104,
      "ĠBec": 4105,
      "pped": 4106,
      "ĠGalt": 4107,
      "Ġarmy": 4108,
      "Ġenjoy": 4109,
      "Ġclient": 4110,
      "Ġteach": 4111,
      "ĊĊĉ": 4112,
      "Ġdeveloping": 4113,
      "Ġedges": 4114,
      "Ġquant": 4115,
      "Ġneeded": 4116,
      "Ġslow": 4117,
      "ambda": 4118,
      "Ġfactors": 4119,
      "...": 4120,
      "number": 4121,
      "Ġ>=": 4122,
      "Ġrisks": 4123,
      "Ġmountains": 4124,
      "Ġindependent": 4125,
      "FILE": 4126,
      "DOPERATION": 4127,
      "ĠAfghanistan": 4128,
      "ĠFrance": 4129,
      "ĠTexas": 4130,
      "FailedOperation": 4131,
      "Ġ!=": 4132,
      "ershwin": 4133,
      "ĠSeptember": 4134,
      "FAILEDOPERATION": 4135,
      ")]": 4136,
      "Americ": 4137,
      "Return": 4138,
      "Sw": 4139,
      "SON": 4140,
      "cil": 4141,
      "ii": 4142,
      "pick": 4143,
      "view": 4144,
      "xy": 4145,
      "Ġá": 4146,
      "het": 4147,
      "atomy": 4148,
      "Ġsold": 4149,
      "ald": 4150,
      "isl": 4151,
      "Ġfost": 4152,
      "Ġpra": 4153,
      "Ġpast": 4154,
      "ington": 4155,
      "Ġmachine": 4156,
      "Ġreached": 4157,
      "oms": 4158,
      "Ġnet": 4159,
      "olid": 4160,
      "ĠTime": 4161,
      "iff": 4162,
      "unit": 4163,
      "Ġaspect": 4164,
      "ĠChe": 4165,
      "Ġonce": 4166,
      "emale": 4167,
      "opes": 4168,
      "ĠMan": 4169,
      "Ġunits": 4170,
      "Ġcontrast": 4171,
      "irection": 4172,
      "ĠKingdom": 4173,
      "Ġappropri": 4174,
      "Ġdisrupt": 4175,
      "ĠArmy": 4176,
      "Ġproduce": 4177,
      "Ġoffset": 4178,
      "Ġsetting": 4179,
      "rought": 4180,
      "hens": 4181,
      "Ġlarger": 4182,
      "Ġgrid": 4183,
      "ynast": 4184,
      "Ġquery": 4185,
      "testing": 4186,
      "Ġproton": 4187,
      "Ġeffective": 4188,
      "Ġminim": 4189,
      "Ġstatus": 4190,
      "Ġpattern": 4191,
      "Ġetc": 4192,
      "Ġframe": 4193,
      "ederal": 4194,
      "Ġsteps": 4195,
      "Ġprimarily": 4196,
      "Ġtreatment": 4197,
      "Ġmaintain": 4198,
      "Ġlaunch": 4199,
      "Ġstrength": 4200,
      "olicyAss": 4201,
      "Ġcampa": 4202,
      "Ġ------------------------------------------------------------------------": 4203,
      "UB": 4204,
      "UT": 4205,
      "mm": 4206,
      "prop": 4207,
      "ta": 4208,
      "Ã¶": 4209,
      "åĩ": 4210,
      "Ġaward": 4211,
      "onstr": 4212,
      "reate": 4213,
      "Ġcit": 4214,
      "aling": 4215,
      "ito": 4216,
      "ising": 4217,
      "icense": 4218,
      "Ġmel": 4219,
      "Ġdate": 4220,
      "level": 4221,
      "stries": 4222,
      "ctic": 4223,
      "Ġlo": 4224,
      "Ġlif": 4225,
      "iminal": 4226,
      "Ġequal": 4227,
      "Ġbeads": 4228,
      "Ġ\"*": 4229,
      "query": 4230,
      "Ġwhom": 4231,
      "oses": 4232,
      "ĠEd": 4233,
      "Ġrule": 4234,
      "cls": 4235,
      "Ġsearch": 4236,
      "Ġenough": 4237,
      "Ġdefe": 4238,
      "Ġplaced": 4239,
      "ression": 4240,
      "Ġemb": 4241,
      "default": 4242,
      "script": 4243,
      "Ġcolumn": 4244,
      "Ġmanagement": 4245,
      "Ġdistingu": 4246,
      "Ġlocation": 4247,
      "Ġlocated": 4248,
      "Ġallowing": 4249,
      "ĠSpace": 4250,
      "Ġreducing": 4251,
      "Ġsolutions": 4252,
      "Ġcorrect": 4253,
      "Ġlevels": 4254,
      "Ġdomest": 4255,
      "Ġdemand": 4256,
      "Ġexisting": 4257,
      "Ġinitial": 4258,
      "Ġsumm": 4259,
      "Ġmeasure": 4260,
      "ĠSwift": 4261,
      "Ġreceived": 4262,
      "Ġconsequences": 4263,
      "Ġbecoming": 4264,
      "åıĤæķ°": 4265,
      "Ġprioritize": 4266,
      "friendly": 4267,
      "Ġarithmetic": 4268,
      "(),": 4269,
      "25": 4270,
      "><": 4271,
      "All": 4272,
      "ML": 4273,
      "MIT": 4274,
      "OS": 4275,
      "That": 4276,
      "board": 4277,
      "lt": 4278,
      "method": 4279,
      "pi": 4280,
      "rons": 4281,
      "tz": 4282,
      "uate": 4283,
      "ww": 4284,
      "Ġtit": 4285,
      "escope": 4286,
      "anu": 4287,
      "orial": 4288,
      "Ġpay": 4289,
      "Ġborn": 4290,
      "asion": 4291,
      "ĊĠĠĠĠĠĠ": 4292,
      "stream": 4293,
      "ĠAD": 4294,
      "ĠAlex": 4295,
      "ctob": 4296,
      "Ġhold": 4297,
      "Ġharm": 4298,
      "Ġhyp": 4299,
      "ilm": 4300,
      "Ġthous": 4301,
      "uris": 4302,
      "otes": 4303,
      "Ġforce": 4304,
      "ĠSo": 4305,
      "ĠII": 4306,
      "ĠCo": 4307,
      "ĠCont": 4308,
      "Ġalbum": 4309,
      "opp": 4310,
      "rize": 4311,
      "verall": 4312,
      "Ġusage": 4313,
      "Ġriver": 4314,
      "ĠGreat": 4315,
      "Ġseason": 4316,
      "ewis": 4317,
      "ĠOctob": 4318,
      "Ġcomposed": 4319,
      "Ġjo": 4320,
      "aily": 4321,
      "Ġeval": 4322,
      "Ġoutside": 4323,
      "Ġtechnique": 4324,
      "Ġtherefore": 4325,
      "Ġactual": 4326,
      "Ġ['": 4327,
      "Ġsets": 4328,
      "llo": 4329,
      "Ġexpand": 4330,
      "Ġmoving": 4331,
      "evision": 4332,
      "counts": 4333,
      "ademic": 4334,
      "Ġindustries": 4335,
      "Ġcorrespond": 4336,
      "ographic": 4337,
      "ambigu": 4338,
      "Ġinfluenced": 4339,
      "Ġinvestment": 4340,
      "Ġalkali": 4341,
      "Ġdemonstr": 4342,
      "Ġbasic": 4343,
      "Config": 4344,
      "Ġcaused": 4345,
      "Ġvideo": 4346,
      "Ġprinciples": 4347,
      "Ġscientists": 4348,
      "Ġcelebr": 4349,
      "Ġaltruism": 4350,
      "Ġsatellite": 4351,
      "Ġdefinitely": 4352,
      "Ġtrends": 4353,
      "ä¼łåħ¥éĶĻè¯¯": 4354,
      "Ġcampaign": 4355,
      "ĠOctober": 4356,
      "CH": 4357,
      "LO": 4358,
      "PA": 4359,
      "Time": 4360,
      "Wh": 4361,
      "bing": 4362,
      "come": 4363,
      "case": 4364,
      "ha": 4365,
      "new": 4366,
      "uild": 4367,
      "yle": 4368,
      "è§": 4369,
      "oric": 4370,
      "oring": 4371,
      "orge": 4372,
      "Ġpet": 4373,
      "Ġbric": 4374,
      "Ġmo": 4375,
      "roc": 4376,
      "roll": 4377,
      "ĠASC": 4378,
      "Ġlatter": 4379,
      "Ġnight": 4380,
      "ida": 4381,
      "ĠSemitic": 4382,
      "Ġstory": 4383,
      "ĠCivil": 4384,
      "ravel": 4385,
      "Ġyet": 4386,
      "ump": 4387,
      "ĠMy": 4388,
      "ĠMarch": 4389,
      "ĠEl": 4390,
      "ĠFrom": 4391,
      "udd": 4392,
      "ĠDis": 4393,
      "ĠDef": 4394,
      "ĠLa": 4395,
      "Ġcompon": 4396,
      "Ġplt": 4397,
      "Ġplot": 4398,
      "Ġapplication": 4399,
      "Ġcommerc": 4400,
      "Ġspirit": 4401,
      "Ġindex": 4402,
      "values": 4403,
      "Ġ184": 4404,
      "settings": 4405,
      "Ġflight": 4406,
      "Ġlonger": 4407,
      "Ġcontinu": 4408,
      "Ġblack": 4409,
      "Ġdescription": 4410,
      "Ġxctr": 4411,
      "Ġpresented": 4412,
      "refix": 4413,
      "Ġburgers": 4414,
      "Ġtried": 4415,
      "Ġdesigned": 4416,
      "being": 4417,
      "Ġreviews": 4418,
      "Ġsimply": 4419,
      "Ġhighest": 4420,
      "clusion": 4421,
      "Ġinteractive": 4422,
      "Ġswitch": 4423,
      "Ġitems": 4424,
      "====": 4425,
      "Char": 4426,
      "Ġintroduced": 4427,
      "Ġdivision": 4428,
      "Ġadopted": 4429,
      "Ġeventually": 4430,
      "Ġabsor": 4431,
      "Ġtemperature": 4432,
      "Ġbeginning": 4433,
      "aught": 4434,
      "Ġfavor": 4435,
      "Ġultimately": 4436,
      "Ġquickly": 4437,
      "ĠAlgeria": 4438,
      "Ġhypot": 4439,
      "urisdict": 4440,
      "AD": 4441,
      "At": 4442,
      "During": 4443,
      "EX": 4444,
      "For": 4445,
      "Man": 4446,
      "br": 4447,
      "ees": 4448,
      "fishes": 4449,
      "life": 4450,
      "md": 4451,
      "rin": 4452,
      "rad": 4453,
      "uk": 4454,
      "uid": 4455,
      "æŃ": 4456,
      "Ġice": 4457,
      "Ġtask": 4458,
      "hetic": 4459,
      "Ġsplit": 4460,
      "orks": 4461,
      "itations": 4462,
      "Ġwarm": 4463,
      "Ġwatch": 4464,
      "Ġpoll": 4465,
      "Ġbrought": 4466,
      "Ġmer": 4467,
      "Ġmatch": 4468,
      "Ġdry": 4469,
      "ĠAir": 4470,
      "ĠAtt": 4471,
      "Ġlab": 4472,
      "omer": 4473,
      "idge": 4474,
      "ĠSince": 4475,
      "see": 4476,
      "Ġaltern": 4477,
      "Ġdeg": 4478,
      "umer": 4479,
      "vere": 4480,
      "Ġsuc": 4481,
      "ĠPar": 4482,
      "Ġsequ": 4483,
      "izes": 4484,
      "Ġunc": 4485,
      "Ġresist": 4486,
      "Ġ25": 4487,
      "oney": 4488,
      "aste": 4489,
      "rite": 4490,
      "ibly": 4491,
      "ĠAlien": 4492,
      "clude": 4493,
      "Ġparty": 4494,
      "ĠState": 4495,
      "Ġjurisdict": 4496,
      "Ġindic": 4497,
      "Ġacqu": 4498,
      "Ġago": 4499,
      "Ġmostly": 4500,
      "Ġsett": 4501,
      "Ġemail": 4502,
      "Ġ40": 4503,
      "ebru": 4504,
      "Ġtranslations": 4505,
      "contin": 4506,
      "minist": 4507,
      "Ġera": 4508,
      "Ġexception": 4509,
      "ĠWhat": 4510,
      "ĠIsland": 4511,
      "Ġpresident": 4512,
      "Ġhealthy": 4513,
      "Ġalphabets": 4514,
      "Ġfinanc": 4515,
      "Ġstructures": 4516,
      "Ġanaly": 4517,
      "Ġcalcul": 4518,
      "Ġrecorded": 4519,
      "Ġbasis": 4520,
      "Ġfeelings": 4521,
      "Ġproperty": 4522,
      "Ġplanet": 4523,
      "Ġfriends": 4524,
      "Ġscientific": 4525,
      "Ġseparate": 4526,
      "Ġboundary": 4527,
      "Ġemotions": 4528,
      "Ġbelieved": 4529,
      "openh": 4530,
      "Ġcells": 4531,
      "Ġapproximately": 4532,
      "Ġdiverse": 4533,
      "crinfo": 4534,
      "Referen": 4535,
      "ebruary": 4536,
      "((": 4537,
      "Function": 4538,
      "History": 4539,
      "Sp": 4540,
      "Some": 4541,
      "Sub": 4542,
      "See": 4543,
      "ball": 4544,
      "cers": 4545,
      "div": 4546,
      "fit": 4547,
      "nown": 4548,
      "names": 4549,
      "yg": 4550,
      "ying": 4551,
      "Ġten": 4552,
      "atives": 4553,
      "Ġsay": 4554,
      "Ġsalt": 4555,
      "Ġcross": 4556,
      "isation": 4557,
      "Ġwest": 4558,
      "Ġinh": 4559,
      "else": 4560,
      "Ġdynast": 4561,
      "Ġdaily": 4562,
      "entuck": 4563,
      "ĠAwards": 4564,
      "Ġlives": 4565,
      "ĠTur": 4566,
      "ĠSpec": 4567,
      "ado": 4568,
      "Ġproper": 4569,
      "opic": 4570,
      "opher": 4571,
      "Ġvia": 4572,
      "Ġwhose": 4573,
      "osing": 4574,
      "rian": 4575,
      "ĠHol": 4576,
      "Ġheav": 4577,
      "ainer": 4578,
      "Ġ'%": 4579,
      "ĠReg": 4580,
      "ĠFebruary": 4581,
      "ĠDur": 4582,
      "ĠGershwin": 4583,
      "ĠOsc": 4584,
      "Ġ24": 4585,
      "Ġcontribut": 4586,
      "ellow": 4587,
      "ĠKentuck": 4588,
      "Ġscale": 4589,
      "Ġspoken": 4590,
      "ensity": 4591,
      "ĠVal": 4592,
      "Ġactions": 4593,
      "Ġ185": 4594,
      "Ġcenturies": 4595,
      "Ġrobot": 4596,
      "Ġcool": 4597,
      "'],": 4598,
      "ollowing": 4599,
      "Ġdistinct": 4600,
      "Ġ50": 4601,
      "Ġargs": 4602,
      "Ġ2013": 4603,
      "Ġtrying": 4604,
      "Ġbelow": 4605,
      "Ġrequires": 4606,
      "filter": 4607,
      "Ġmonths": 4608,
      "Ġreading": 4609,
      "Ġguid": 4610,
      "Ġprobably": 4611,
      "auer": 4612,
      "è¯ķ": 4613,
      "force": 4614,
      "Ġperformed": 4615,
      "Ġbehavi": 4616,
      "CTION": 4617,
      "Ġautom": 4618,
      "Ġconstitution": 4619,
      "ipped": 4620,
      "Ġdifferences": 4621,
      "Ġconcepts": 4622,
      "Ġnormal": 4623,
      "ĠMountains": 4624,
      "ĠCanada": 4625,
      "Ġnucle": 4626,
      "Ġclosely": 4627,
      "Ġlinks": 4628,
      "Ġclean": 4629,
      "Ġdivided": 4630,
      "éĻĲ": 4631,
      "openhauer": 4632,
      "'):": 4633,
      "'))": 4634,
      "*-": 4635,
      "After": 4636,
      "Count": 4637,
      "Pl": 4638,
      "SE": 4639,
      "aul": 4640,
      "core": 4641,
      "dec": 4642,
      "eah": 4643,
      "field": 4644,
      "fields": 4645,
      "iated": 4646,
      "job": 4647,
      "oice": 4648,
      "pre": 4649,
      "rg": 4650,
      "where": 4651,
      "âĪ": 4652,
      "Ġ$": 4653,
      "Ġtasks": 4654,
      "inate": 4655,
      "Ġcook": 4656,
      "itt": 4657,
      "arr": 4658,
      "Ġwife": 4659,
      "Ġface": 4660,
      "Ġinternational": 4661,
      "Ġinternal": 4662,
      "Ġbra": 4663,
      "road": 4664,
      "ĠAFC": 4665,
      "Ġloss": 4666,
      "Ġlingu": 4667,
      "imb": 4668,
      "Ġnative": 4669,
      "Ġeight": 4670,
      "oto": 4671,
      "ulated": 4672,
      "Ġgas": 4673,
      "ĠImp": 4674,
      "Ġconstruction": 4675,
      "vered": 4676,
      "ĠMal": 4677,
      "Ġvers": 4678,
      "Ġviol": 4679,
      "thing": 4680,
      "essions": 4681,
      "ounter": 4682,
      "ocr": 4683,
      "ria": 4684,
      "ĠProp": 4685,
      "aches": 4686,
      "ĠLanguage": 4687,
      "assignment": 4688,
      "ards": 4689,
      "Ġcharge": 4690,
      "Ġcomparis": 4691,
      "aves": 4692,
      "These": 4693,
      "Ġteams": 4694,
      "ificial": 4695,
      "erved": 4696,
      "Ġworked": 4697,
      "Ġworkout": 4698,
      "Ġrecip": 4699,
      "Ġpercent": 4700,
      "ground": 4701,
      "Ġemp": 4702,
      "Ġrefers": 4703,
      "Ġattention": 4704,
      "Ġflav": 4705,
      "Ġdecided": 4706,
      "Ġeffort": 4707,
      "Ġarts": 4708,
      "Ġlargely": 4709,
      "Ġexpert": 4710,
      "Ġappeals": 4711,
      "Ġimm": 4712,
      "Ġdirectly": 4713,
      "Ġdirectory": 4714,
      "Ġleaders": 4715,
      "Ġcommunicate": 4716,
      "Ġoption": 4717,
      "Ġimproved": 4718,
      "Ġpresence": 4719,
      "ITA": 4720,
      "Ġeasily": 4721,
      "Ġeasier": 4722,
      "Ġsatis": 4723,
      "Ġchallenge": 4724,
      "Ġpoem": 4725,
      "Ġoldest": 4726,
      "items": 4727,
      "Ġcalc": 4728,
      "Ġastronomy": 4729,
      "liest": 4730,
      "Ġcauses": 4731,
      "Ġdepending": 4732,
      "Ġresponsibility": 4733,
      "ariesalt": 4734,
      "Ġliterature": 4735,
      "Ġerrors": 4736,
      "Ġreligious": 4737,
      "Ġrender": 4738,
      "Ġsituations": 4739,
      "ĠApple": 4740,
      "Ġquestion": 4741,
      "Ġstrike": 4742,
      "Ġawareness": 4743,
      "ĠGrand": 4744,
      "Ġpurpose": 4745,
      "Ġrivalry": 4746,
      "ĠASCII": 4747,
      "References": 4748,
      "26": 4749,
      "Limit": 4750,
      "NOT": 4751,
      "SO": 4752,
      "View": 4753,
      "ban": 4754,
      "capture": 4755,
      "direct": 4756,
      "known": 4757,
      "make": 4758,
      "ng": 4759,
      "ool": 4760,
      "ores": 4761,
      "patch": 4762,
      "tra": 4763,
      "times": 4764,
      "Ã§": 4765,
      "æĹ": 4766,
      "Ġ]": 4767,
      "įè¯ķ": 4768,
      "Ġtiss": 4769,
      "erial": 4770,
      "ativity": 4771,
      "Ġsil": 4772,
      "Ġsend": 4773,
      "Ġsound": 4774,
      "Ġcy": 4775,
      "Ġcycl": 4776,
      "Ġwomen": 4777,
      "ician": 4778,
      "Ġbond": 4779,
      "Ġmagn": 4780,
      "Ġtok": 4781,
      "ĠAld": 4782,
      "Ġlay": 4783,
      "Ġlink": 4784,
      "omas": 4785,
      "imens": 4786,
      "Ġnav": 4787,
      "ifically": 4788,
      "odes": 4789,
      "ĠCom": 4790,
      "ested": 4791,
      "agon": 4792,
      "ĠMin": 4793,
      "ourse": 4794,
      "Ġwhite": 4795,
      "Ġexact": 4796,
      "ĠBel": 4797,
      "ounced": 4798,
      "ĠPers": 4799,
      "ĠPract": 4800,
      "ogle": 4801,
      "aks": 4802,
      "ĠEm": 4803,
      "ĠNASA": 4804,
      "ĠFirst": 4805,
      "exc": 4806,
      "ĠDon": 4807,
      "ĠLewis": 4808,
      "close": 4809,
      "oved": 4810,
      "Ġcontains": 4811,
      "ongo": 4812,
      "Ġcomplete": 4813,
      "outheast": 4814,
      "avel": 4815,
      "Ġplaces": 4816,
      "strong": 4817,
      "ously": 4818,
      "ints": 4819,
      "ĠJames": 4820,
      "ĠKa": 4821,
      "ĠStats": 4822,
      "Ġspent": 4823,
      "Ġtransfer": 4824,
      "tee": 4825,
      "ĠValue": 4826,
      "ieval": 4827,
      "Ġsettle": 4828,
      "199": 4829,
      "Ġearliest": 4830,
      "Ġreported": 4831,
      "ĠAfroasiatic": 4832,
      "ucial": 4833,
      "ĊĠĠĠĠĠĠĠĠĠĠĠĠĠĠĠĠĠĠĠĠĠĠĠĠĠĠĠ": 4834,
      "Ġlegs": 4835,
      "State": 4836,
      "Ġcrucial": 4837,
      "requests": 4838,
      "ociation": 4839,
      "Ġupper": 4840,
      "ourses": 4841,
      "Ġoperations": 4842,
      "Ġauthority": 4843,
      "Ġsustainability": 4844,
      "Ġinteractions": 4845,
      "Ġstyles": 4846,
      "Ġresponsible": 4847,
      "Ġlooking": 4848,
      "gmentation": 4849,
      "objects": 4850,
      "Ġexercises": 4851,
      "Ġastronauts": 4852,
      "ĠSchopenhauer": 4853,
      "Ġvowel": 4854,
      "ĠWilliam": 4855,
      "swer": 4856,
      "Ġdefendant": 4857,
      "Ġschedule": 4858,
      "Ġstrategies": 4859,
      "Ġceremon": 4860,
      "Ġcitiz": 4861,
      "ĠKentucky": 4862,
      "âĪĴ": 4863,
      ">{": 4864,
      "Base": 4865,
      "CK": 4866,
      "CON": 4867,
      "FO": 4868,
      "GE": 4869,
      "Yeah": 4870,
      "del": 4871,
      "desc": 4872,
      "ford": 4873,
      "jack": 4874,
      "nst": 4875,
      "oor": 4876,
      "prefix": 4877,
      "rf": 4878,
      "sm": 4879,
      "social": 4880,
      "vant": 4881,
      "walk": 4882,
      "}</": 4883,
      "åľ": 4884,
      "éĩ": 4885,
      "ĊĊĉĉ": 4886,
      "čĊĠĠĠĠĠĠĠ": 4887,
      "Ġion": 4888,
      "inally": 4889,
      "onds": 4890,
      "Ġanatomy": 4891,
      "ara": 4892,
      "ari": 4893,
      "arse": 4894,
      "Ġfoot": 4895,
      "Ġpsych": 4896,
      "Ġinstruct": 4897,
      "Ġmom": 4898,
      "Ġdam": 4899,
      "Ġdraw": 4900,
      "ros": 4901,
      "Ġreplace": 4902,
      "enth": 4903,
      "Ġhom": 4904,
      "Ġnd": 4905,
      "amples": 4906,
      "ĠTod": 4907,
      "ĠSy": 4908,
      "ĠSal": 4909,
      "ĠSouthern": 4910,
      "odies": 4911,
      "seq": 4912,
      "Ġconstant": 4913,
      "Ġvict": 4914,
      "resource": 4915,
      "ĠPre": 4916,
      "ĠNote": 4917,
      "ĠFarm": 4918,
      "ĠLu": 4919,
      "ĠList": 4920,
      "Ġattr": 4921,
      "ĠInter": 4922,
      "Ġcontribute": 4923,
      "ĠUs": 4924,
      "Ġmode": 4925,
      "Ġscope": 4926,
      "Ġwebs": 4927,
      "Ġ-*-": 4928,
      "Ġpeace": 4929,
      "Ġtesting": 4930,
      "Ġproviding": 4931,
      "Ġroot": 4932,
      "Ġupdate": 4933,
      "Ġdistribution": 4934,
      "Ġremain": 4935,
      "Ġmovements": 4936,
      "container": 4937,
      "Ġadvent": 4938,
      "Ġimag": 4939,
      "Ġimages": 4940,
      "Ġdepos": 4941,
      "Ġguide": 4942,
      "ĠException": 4943,
      "Ġeasy": 4944,
      "Ġprotection": 4945,
      "Ġtelescope": 4946,
      "Ġtelevision": 4947,
      "Ġdevice": 4948,
      "Ġdrama": 4949,
      "Ġinterests": 4950,
      "ĠAlbanian": 4951,
      "Ġmaxim": 4952,
      "Ġoriginally": 4953,
      "mitted": 4954,
      "Ġaardw": 4955,
      "Ġregularly": 4956,
      "Ġcodes": 4957,
      "Ġanti": 4958,
      "Ġrecommendations": 4959,
      "Ġsemi": 4960,
      "ĠTechn": 4961,
      "ĠCouncil": 4962,
      "Ġenhance": 4963,
      "ambiguation": 4964,
      "Ġcommercial": 4965,
      "\"))": 4966,
      "EL": 4967,
      "OV": 4968,
      "OUR": 4969,
      "PI": 4970,
      "PRO": 4971,
      "Run": 4972,
      "TC": 4973,
      "TO": 4974,
      "pay": 4975,
      "post": 4976,
      "rate": 4977,
      "rame": 4978,
      "src": 4979,
      "uce": 4980,
      "yr": 4981,
      "Ġtour": 4982,
      "Ġauthors": 4983,
      "requ": 4984,
      "Ġspect": 4985,
      "Ġsrc": 4986,
      "ese": 4987,
      "Ġcorn": 4988,
      "isher": 4989,
      "edges": 4990,
      "Ġwild": 4991,
      "Ġfra": 4992,
      "Ġphen": 4993,
      "icial": 4994,
      "Ġmid": 4995,
      "Ġmale": 4996,
      "Ġhun": 4997,
      "Ġthrow": 4998,
      "idx": 4999,
      "uted": 5000,
      "ĠSet": 5001,
      "ĠSup": 5002,
      "adic": 5003,
      "igen": 5004,
      "igate": 5005,
      "Ġgalaxy": 5006,
      "Ġstress": 5007,
      "Ġstock": 5008,
      "odium": 5009,
      "seg": 5010,
      "Ġyctr": 5011,
      "Ġdecre": 5012,
      "ĠMet": 5013,
      "ĠMag": 5014,
      "Ġvast": 5015,
      "ĠBra": 5016,
      "access": 5017,
      "ptions": 5018,
      "ĠRun": 5019,
      "plates": 5020,
      "ĠDem": 5021,
      "Ġseven": 5022,
      "ighb": 5023,
      "Ġ21": 5024,
      "Ġshared": 5025,
      "Ġcompared": 5026,
      "efore": 5027,
      "strict": 5028,
      "Ġhash": 5029,
      "Ġapply": 5030,
      "Ġspread": 5031,
      "Ġstrugg": 5032,
      "Ġcred": 5033,
      "Ġcreative": 5034,
      "Ġcreativity": 5035,
      "Ġweak": 5036,
      "ĠArg": 5037,
      "ĠArtic": 5038,
      "Ġacademic": 5039,
      "Ġdoing": 5040,
      "Ġnumpy": 5041,
      "ĠViet": 5042,
      "Ġactually": 5043,
      "196": 5044,
      "Ġcooper": 5045,
      "Ġstudied": 5046,
      "Ġtexts": 5047,
      "Ġcolor": 5048,
      "ĠAppe": 5049,
      "process": 5050,
      "Ġclasses": 5051,
      "Ġadvice": 5052,
      "ĊĠĠĠĠĠĠĠĠĠĠĠĠĠĠĠĠĠĠĠĠĠĠĠĠĠ": 5053,
      "Ġmainly": 5054,
      "Ġserved": 5055,
      "Ġbrand": 5056,
      "Ġseek": 5057,
      "Ġheaders": 5058,
      "Ġfamil": 5059,
      "chools": 5060,
      "Ġprogramming": 5061,
      "Ġthoughts": 5062,
      "Ġcontroll": 5063,
      "Ġimpacts": 5064,
      "Ġphysics": 5065,
      "Ġafford": 5066,
      "Ġphilosoph": 5067,
      "Ġpoor": 5068,
      "ophytes": 5069,
      "current": 5070,
      "Ġissue": 5071,
      "Ġparticularly": 5072,
      "Ġbenefit": 5073,
      "Resource": 5074,
      "Ġbrother": 5075,
      "Ġcondition": 5076,
      "ĠBerber": 5077,
      "ĠAmaz": 5078,
      "Ġarrang": 5079,
      "color": 5080,
      "related": 5081,
      "Ġofficial": 5082,
      "åĪ¶": 5083,
      "********": 5084,
      "Ġencourage": 5085,
      "https": 5086,
      "Context": 5087,
      "ĠRobert": 5088,
      "ĠJapan": 5089,
      "Ġmanufacture": 5090,
      "Ġfailure": 5091,
      "Ġgradually": 5092,
      "ĠColumbia": 5093,
      "Ġreplaced": 5094,
      "ĠNovember": 5095,
      "ltimately": 5096,
      "anuary": 5097,
      "Ġjoined": 5098,
      "OURCE": 5099,
      "\"],": 5100,
      "(\"\"\"": 5101,
      "He": 5102,
      "Node": 5103,
      "Overall": 5104,
      "Sure": 5105,
      "]]": 5106,
      "author": 5107,
      "bounds": 5108,
      "gb": 5109,
      "ple": 5110,
      "rans": 5111,
      "sk": 5112,
      "åĨ": 5113,
      "ĊĊĊĠĠĠ": 5114,
      "eria": 5115,
      "Ġsite": 5116,
      "Ġsaw": 5117,
      "Ġsnow": 5118,
      "eshib": 5119,
      "ened": 5120,
      "Ġcourse": 5121,
      "Ġfailed": 5122,
      "Ġpig": 5123,
      "Ġpow": 5124,
      "icons": 5125,
      "Ġbri": 5126,
      "Ġmill": 5127,
      "Ġmarg": 5128,
      "ellect": 5129,
      "Ġded": 5130,
      "Ġdtype": 5131,
      "Ġreef": 5132,
      "ĠAward": 5133,
      "Ġhon": 5134,
      "olic": 5135,
      "ĠTake": 5136,
      "ura": 5137,
      "Ġisland": 5138,
      "Ġislands": 5139,
      "ĠSl": 5140,
      "ĠSant": 5141,
      "iful": 5142,
      "ules": 5143,
      "Ġgame": 5144,
      "Ġgreen": 5145,
      "abs": 5146,
      "opter": 5147,
      "ĠMP": 5148,
      "Ġverb": 5149,
      "Ġvoxels": 5150,
      "Ġwhy": 5151,
      "Ġexists": 5152,
      "Ġexchange": 5153,
      "ĠBur": 5154,
      "Ġ'.": 5155,
      "Ġrate": 5156,
      "ultural": 5157,
      "exp": 5158,
      "ĠDel": 5159,
      "arden": 5160,
      "ardown": 5161,
      "ĠOld": 5162,
      "ĠOtt": 5163,
      "phal": 5164,
      "Ġchlor": 5165,
      "ipel": 5166,
      "Ġcompassion": 5167,
      "elled": 5168,
      "Ġimportance": 5169,
      "ĠJSON": 5170,
      "ĠJanuary": 5171,
      "ĠKe": 5172,
      "Ġformation": 5173,
      "Ġevolved": 5174,
      "icture": 5175,
      "Ġsubst": 5176,
      "Ġworkers": 5177,
      "Ġrecycl": 5178,
      "Ġsoil": 5179,
      "ĊĊĠ": 5180,
      "Ġsetup": 5181,
      "198": 5182,
      "Ġfeet": 5183,
      "Ġcovered": 5184,
      "Ġflat": 5185,
      "Ġdecades": 5186,
      "Ġvariance": 5187,
      "Ġraised": 5188,
      "alties": 5189,
      "ĠShack": 5190,
      "Ġextra": 5191,
      "Ġorganic": 5192,
      "Ġadvant": 5193,
      "ĊĠĠĠĠĠĠĠĠĠĠĠĠĠĠĠĠĠĠĠĠĠĠĠĠĠĠĠĠĠĠĠĠ": 5194,
      "Ġlinear": 5195,
      "Ġinformed": 5196,
      "Ġanimated": 5197,
      "ĠSpain": 5198,
      "Ġlegisl": 5199,
      "Ġcontexts": 5200,
      "Ġ1970": 5201,
      "Ġsuggested": 5202,
      "Ġchanging": 5203,
      "ĠPhil": 5204,
      "Ġfinally": 5205,
      "ĠQu": 5206,
      "Ġolder": 5207,
      "Ġequival": 5208,
      "Ġconvention": 5209,
      "ĠBlack": 5210,
      "Ġparameters": 5211,
      "Ġchoose": 5212,
      "disambiguation": 5213,
      "Ġliterally": 5214,
      "Ġ},": 5215,
      "ĠResearch": 5216,
      "ĠCounty": 5217,
      "ĠCompany": 5218,
      "Ġcosts": 5219,
      "Ġsafety": 5220,
      "ĠCentral": 5221,
      "ĠPeople": 5222,
      "RESOURCE": 5223,
      "Ġverify": 5224,
      "ĠUNITA": 5225,
      "Ġinstitutions": 5226,
      "Ġadvancements": 5227,
      "Ġmentioned": 5228,
      "Ġdefinition": 5229,
      "ĠBecause": 5230,
      "olicyAssignment": 5231,
      "Ġfinancial": 5232,
      "ĠOscar": 5233,
      "åľ¨": 5234,
      "igenous": 5235,
      "eshiba": 5236,
      "'}": 5237,
      "FL": 5238,
      "Rem": 5239,
      "Range": 5240,
      "Up": 5241,
      "cest": 5242,
      "fetch": 5243,
      "iy": 5244,
      "ka": 5245,
      "length": 5246,
      "main": 5247,
      "swith": 5248,
      "uet": 5249,
      "vements": 5250,
      "yond": 5251,
      "Ã¼": 5252,
      "Ġts": 5253,
      "Ġtro": 5254,
      "Ġaw": 5255,
      "inter": 5256,
      "hello": 5257,
      "atal": 5258,
      "orith": 5259,
      "Ġwent": 5260,
      "Ġfert": 5261,
      "Ġfight": 5262,
      "Ġfoss": 5263,
      "Ġfields": 5264,
      "Ġpen": 5265,
      "Ġpain": 5266,
      "Ġinj": 5267,
      "Ġburn": 5268,
      "eles": 5269,
      "Ġtown": 5270,
      "leep": 5271,
      "Ġreject": 5272,
      "Ġlose": 5273,
      "Ġhol": 5274,
      "iments": 5275,
      "ola": 5276,
      "older": 5277,
      "ĠTim": 5278,
      "utive": 5279,
      "Ġbeyond": 5280,
      "Ġgain": 5281,
      "semb": 5282,
      "ĠMe": 5283,
      "ĠMake": 5284,
      "ĠEdu": 5285,
      "ĠNet": 5286,
      "Ġseq": 5287,
      "Ġcharg": 5288,
      "Ġenabled": 5289,
      "Ġkindness": 5290,
      "eful": 5291,
      "Ġplants": 5292,
      "Ġjoint": 5293,
      "ervice": 5294,
      "Ġindicate": 5295,
      "Ġgoing": 5296,
      "Ġspecified": 5297,
      "Ġspecifically": 5298,
      "ĠAruba": 5299,
      "Ġregul": 5300,
      "Ġobt": 5301,
      "Ġtests": 5302,
      "ieties": 5303,
      "Ġrob": 5304,
      "Ġdecimal": 5305,
      "Ġadditional": 5306,
      "Ġfunctions": 5307,
      "oyal": 5308,
      "Ġinstall": 5309,
      "ĠSee": 5310,
      "Ang": 5311,
      "Ġ2010": 5312,
      "ĠOrgan": 5313,
      "Ġcommunities": 5314,
      "Ġ1960": 5315,
      "Ġhandle": 5316,
      "ĠIslamic": 5317,
      "Ġfeeds": 5318,
      "ĠAustral": 5319,
      "ĠExperiment": 5320,
      "ĠPho": 5321,
      "Ġbias": 5322,
      "Ġtelesc": 5323,
      "Ġbuilding": 5324,
      "curity": 5325,
      "bean": 5326,
      "Ġfarming": 5327,
      "GetGroup": 5328,
      "links": 5329,
      "Ġalchemical": 5330,
      "Ġsituation": 5331,
      "Ġcoding": 5332,
      "Ġeyes": 5333,
      "ĠArmstrong": 5334,
      "Ġroutine": 5335,
      "Index": 5336,
      "ĠTransl": 5337,
      "Ġphrases": 5338,
      "Ġaccurate": 5339,
      "Ġentertainment": 5340,
      "Swagger": 5341,
      "propert": 5342,
      "éĻĲåĪ¶": 5343,
      "ViewSwagger": 5344,
      "ĠSupreme": 5345,
      "ĠArticles": 5346,
      "Ġtelescopes": 5347,
      "(*": 5348,
      ".\"\"\"": 5349,
      "04": 5350,
      "202": 5351,
      "43": 5352,
      "Ag": 5353,
      "Ap": 5354,
      "Do": 5355,
      "Field": 5356,
      "Mock": 5357,
      "No": 5358,
      "Other": 5359,
      "Tree": 5360,
      "_(": 5361,
      "fd": 5362,
      "uz": 5363,
      "works": 5364,
      "xml": 5365,
      "½æķ°": 5366,
      "Ã¡": 5367,
      "åŃ": 5368,
      "čĊĉĉĉ": 5369,
      "Ġ~": 5370,
      "ero": 5371,
      "Ġsex": 5372,
      "Ġsister": 5373,
      "esium": 5374,
      "enc": 5375,
      "Ġcop": 5376,
      "Ġcourses": 5377,
      "oration": 5378,
      "edge": 5379,
      "Ġful": 5380,
      "Ġmis": 5381,
      "Ġmil": 5382,
      "Ġmaster": 5383,
      "Ġmigr": 5384,
      "Ġdb": 5385,
      "Ġdiversity": 5386,
      "Ġdoub": 5387,
      "leg": 5388,
      "ĠAccording": 5389,
      "Ġlived": 5390,
      "Ġlabor": 5391,
      "Ġhope": 5392,
      "Ġhabit": 5393,
      "imate": 5394,
      "ĠTer": 5395,
      "Ġisinstance": 5396,
      "ĠSams": 5397,
      "adata": 5398,
      "Ġgra": 5399,
      "Ġgather": 5400,
      "uns": 5401,
      "Ġasphalt": 5402,
      "ĠIm": 5403,
      "ĠCapacity": 5404,
      "emporary": 5405,
      "ume": 5406,
      "umber": 5407,
      "ĠMat": 5408,
      "thur": 5409,
      "ĠBre": 5410,
      "ĠPac": 5411,
      "exit": 5412,
      "exists": 5413,
      "ĠLos": 5414,
      "ĠGroup": 5415,
      "Ġseg": 5416,
      "overs": 5417,
      "ĠInst": 5418,
      "Ġtrust": 5419,
      "conn": 5420,
      "Ġintended": 5421,
      "ĠThomas": 5422,
      "âĢĻ": 5423,
      "Ġdisp": 5424,
      "Ġ::": 5425,
      "Ġsubnet": 5426,
      "Ġagree": 5427,
      "Ġproducers": 5428,
      "ought": 5429,
      "Ġpositions": 5430,
      "195": 5431,
      "rani": 5432,
      "Ġattract": 5433,
      "ildren": 5434,
      "Ġapi": 5435,
      "Ġrapid": 5436,
      "Ġlogger": 5437,
      "Ġgenerate": 5438,
      "ync": 5439,
      "Ġfounded": 5440,
      "Ġsky": 5441,
      "apturing": 5442,
      "And": 5443,
      "Ġ1968": 5444,
      "Ġ1969": 5445,
      "Ġusername": 5446,
      "ĠRearden": 5447,
      "Ġ1991": 5448,
      "Ġkeys": 5449,
      "Ġprojects": 5450,
      "Ġsuggests": 5451,
      "Ġeastern": 5452,
      "Ġ1980": 5453,
      "Ġbiases": 5454,
      "'''": 5455,
      "anese": 5456,
      "Ġchallenging": 5457,
      "Ġselection": 5458,
      "Ġidx": 5459,
      "Ġreaction": 5460,
      "Ġquestions": 5461,
      "ĠGeorge": 5462,
      "Ġsection": 5463,
      "straints": 5464,
      "Ġappointed": 5465,
      "American": 5466,
      "Ġappropriate": 5467,
      "åĩ½æķ°": 5468,
      "ocratic": 5469,
      "ĠPractice": 5470,
      "Ġphenomen": 5471,
      "ĠMPLA": 5472,
      "ĠSamsung": 5473,
      "({": 5474,
      "70": 5475,
      ":%": 5476,
      "GET": 5477,
      "If": 5478,
      "Kh": 5479,
      "PE": 5480,
      "ao": 5481,
      "band": 5482,
      "car": 5483,
      "hi": 5484,
      "pet": 5485,
      "pos": 5486,
      "rated": 5487,
      "vision": 5488,
      "wid": 5489,
      "Ã¸": 5490,
      "Ġtell": 5491,
      "Ġtaste": 5492,
      "Ġsed": 5493,
      "Ġsell": 5494,
      "Ġcut": 5495,
      "Ġcities": 5496,
      "edy": 5497,
      "arange": 5498,
      "Ġflex": 5499,
      "Ġpython": 5500,
      "icode": 5501,
      "Ġbig": 5502,
      "Ġbodies": 5503,
      "Ġmit": 5504,
      "Ġmoney": 5505,
      "rol": 5506,
      "Ġrepe": 5507,
      "stat": 5508,
      "storage": 5509,
      "ete": 5510,
      "omorph": 5511,
      "ĠTAI": 5512,
      "ĠTenn": 5513,
      "aditional": 5514,
      "uled": 5515,
      "Ġgar": 5516,
      "Ġstub": 5517,
      "ĠId": 5518,
      "irm": 5519,
      "ĠCode": 5520,
      "Ġconver": 5521,
      "umed": 5522,
      "vey": 5523,
      "ĠMor": 5524,
      "ĠMary": 5525,
      "quet": 5526,
      "ĠPer": 5527,
      "Ġhearing": 5528,
      "ĠEastern": 5529,
      "ĠForm": 5530,
      "ĠGood": 5531,
      "Ġseed": 5532,
      "ĠWater": 5533,
      "ĠOver": 5534,
      "Ġlect": 5535,
      "Ġ2000": 5536,
      "ĠUeshiba": 5537,
      "action": 5538,
      "ipment": 5539,
      "sole": 5540,
      "soft": 5541,
      "ĠAncient": 5542,
      "Ġmodified": 5543,
      "oke": 5544,
      "ĠJune": 5545,
      "Ġscales": 5546,
      "Ġparties": 5547,
      "ĠStud": 5548,
      "Ġsports": 5549,
      "ysics": 5550,
      "Ġrelative": 5551,
      "Ġgoal": 5552,
      "Ġprivate": 5553,
      "Ġmedieval": 5554,
      "Ġcenter": 5555,
      "lications": 5556,
      "194": 5557,
      "Ġstudent": 5558,
      "Ġwhereas": 5559,
      "llino": 5560,
      "icking": 5561,
      "Ġpoly": 5562,
      "Ġremove": 5563,
      "ĠAngeles": 5564,
      "Ġextrem": 5565,
      "ucas": 5566,
      "Ġ2012": 5567,
      "Ġ2017": 5568,
      "Ġsurround": 5569,
      "airs": 5570,
      "ĠConstruct": 5571,
      "ĠProject": 5572,
      "Ġlisten": 5573,
      "stitution": 5574,
      "Ġpassed": 5575,
      "Ġsuggestions": 5576,
      "Ġchanged": 5577,
      "tymology": 5578,
      "Exceeded": 5579,
      "ĠEngland": 5580,
      "Ġoperating": 5581,
      "ĠScience": 5582,
      "Ġdescribe": 5583,
      "ROR": 5584,
      "Ġobserved": 5585,
      "Ġcompleted": 5586,
      "inners": 5587,
      "agny": 5588,
      "ĠCommun": 5589,
      "Ġprincip": 5590,
      "Ġ2020": 5591,
      "Ġreleased": 5592,
      "execution": 5593,
      "results": 5594,
      "Ġcoastal": 5595,
      "Ġexercise": 5596,
      "Ġdebris": 5597,
      "Ġsatellites": 5598,
      "Ġtransport": 5599,
      "Ġpressure": 5600,
      "Ġemphasis": 5601,
      "pickle": 5602,
      "Ġmoist": 5603,
      "Ġhypothesis": 5604,
      "Ġsequence": 5605,
      "Ġcomparison": 5606,
      "ĠValueError": 5607,
      "OVA": 5608,
      "Ġtroops": 5609,
      "llinois": 5610,
      "(_": 5611,
      "29": 5612,
      ">'.": 5613,
      "AM": 5614,
      "According": 5615,
      "Department": 5616,
      "Etymology": 5617,
      "From": 5618,
      "File": 5619,
      "Or": 5620,
      "TML": 5621,
      "Wow": 5622,
      "bin": 5623,
      "bert": 5624,
      "bars": 5625,
      "gu": 5626,
      "gar": 5627,
      "overy": 5628,
      "parser": 5629,
      "png": 5630,
      "}$": 5631,
      "Äĵ": 5632,
      "ä¿": 5633,
      "è´": 5634,
      "Ġ),": 5635,
      "Ħè": 5636,
      "Ġtut": 5637,
      "Ġtail": 5638,
      "indu": 5639,
      "onian": 5640,
      "Ġsounds": 5641,
      "itors": 5642,
      "Ġancest": 5643,
      "Ġworth": 5644,
      "Ġfn": 5645,
      "Ġfaster": 5646,
      "Ġfiction": 5647,
      "Ġparent": 5648,
      "Ġparser": 5649,
      "icon": 5650,
      "Ġmix": 5651,
      "Ġdile": 5652,
      "Ġdirection": 5653,
      "asons": 5654,
      "lem": 5655,
      "Ġreasons": 5656,
      "Ġlot": 5657,
      "Ġlib": 5658,
      "Ġthreat": 5659,
      "urg": 5660,
      "urs": 5661,
      "unc": 5662,
      "Ġstore": 5663,
      "ĠIN": 5664,
      "ĠIllinois": 5665,
      "ĠCity": 5666,
      "ĠCush": 5667,
      "Ġ\"\"": 5668,
      "istical": 5669,
      "abul": 5670,
      "ĠMu": 5671,
      "resents": 5672,
      "ĠBook": 5673,
      "ĠHuman": 5674,
      "Ġhero": 5675,
      "Ġheart": 5676,
      "Ġheard": 5677,
      "Ġheavy": 5678,
      "Ġuseful": 5679,
      "Ġwaste": 5680,
      "Ġround": 5681,
      "ĠFI": 5682,
      "ĠDist": 5683,
      "assium": 5684,
      "Ġseconds": 5685,
      "Ġnotes": 5686,
      "Ġleave": 5687,
      "ĠUR": 5688,
      "ĠUltimately": 5689,
      "Ġintellect": 5690,
      "ube": 5691,
      "Ġadminist": 5692,
      "argument": 5693,
      "rics": 5694,
      "Ġsched": 5695,
      "Ġmeant": 5696,
      "Ġpred": 5697,
      "Ġpredict": 5698,
      "Ġphon": 5699,
      "render": 5700,
      "Ġupd": 5701,
      "ranch": 5702,
      "Ġcultiv": 5703,
      "flat": 5704,
      "lobal": 5705,
      "Ġ{\"": 5706,
      "Ġartificial": 5707,
      "application": 5708,
      "Ġdistance": 5709,
      "Ġproposal": 5710,
      "Ġappeared": 5711,
      "Ġextinct": 5712,
      "Ġskin": 5713,
      "Ġworldwide": 5714,
      "progress": 5715,
      "Ġdiscipl": 5716,
      "Ġentry": 5717,
      "Ġethics": 5718,
      "Ġdepict": 5719,
      "Ġmetal": 5720,
      "Ġresemb": 5721,
      "Ġresearc": 5722,
      "ĠAgricult": 5723,
      "anned": 5724,
      "ĠAndre": 5725,
      "Ġsolar": 5726,
      "Ġprofess": 5727,
      "Ġpassword": 5728,
      "medi": 5729,
      "temp": 5730,
      "Ġhealthcare": 5731,
      "eek": 5732,
      "External": 5733,
      "ĠDevelop": 5734,
      "Ġconnection": 5735,
      "meta": 5736,
      "Ġmarried": 5737,
      "Ġmotiv": 5738,
      "Ġfreed": 5739,
      "ByColumn": 5740,
      "Ġneut": 5741,
      "Ġrecognize": 5742,
      "Ġrules": 5743,
      "URL": 5744,
      "Ġreligion": 5745,
      "ĠGovern": 5746,
      "ĠGoogle": 5747,
      "Ġinterpreted": 5748,
      "This": 5749,
      "########": 5750,
      "icrosoft": 5751,
      "POST": 5752,
      "åĲİ": 5753,
      "Ġfrequently": 5754,
      "Ġconcentration": 5755,
      "LIMIT": 5756,
      "Ġtribes": 5757,
      "local": 5758,
      "Ġreputation": 5759,
      "Ġdurable": 5760,
      "EXCE": 5761,
      "Ġdynasty": 5762,
      "ĠDurrani": 5763,
      "ĠAldrin": 5764,
      "nsted": 5765,
      "Ġaardwolf": 5766,
      "ĠPhoen": 5767,
      "Ġfully": 5768,
      "ĠPacific": 5769,
      "Ã¸nsted": 5770,
      "Ġdilemm": 5771,
      ")):": 5772,
      "/{": 5773,
      "32": 5774,
      "36": 5775,
      "75": 5776,
      "79": 5777,
      "Af": 5778,
      "Aust": 5779,
      "Blob": 5780,
      "Found": 5781,
      "Row": 5782,
      "Sc": 5783,
      "`.": 5784,
      "bas": 5785,
      "doc": 5786,
      "fish": 5787,
      "gal": 5788,
      "language": 5789,
      "ma": 5790,
      "mt": 5791,
      "may": 5792,
      "more": 5793,
      "mission": 5794,
      "na": 5795,
      "oe": 5796,
      "port": 5797,
      "ters": 5798,
      "wd": 5799,
      "western": 5800,
      "inated": 5801,
      "real": 5802,
      "Ġtherm": 5803,
      "Ġschools": 5804,
      "Ġcogn": 5805,
      "orse": 5806,
      "Ġanswer": 5807,
      "Ġpil": 5808,
      "Ġpun": 5809,
      "Ġpie": 5810,
      "Ġbott": 5811,
      "Ġdial": 5812,
      "ented": 5813,
      "entions": 5814,
      "Ġhouse": 5815,
      "iling": 5816,
      "Ġeq": 5817,
      "ĠTH": 5818,
      "ĠTest": 5819,
      "uri": 5820,
      "urally": 5821,
      "Ġforced": 5822,
      "ĠSer": 5823,
      "ĠSun": 5824,
      "ĠSaf": 5825,
      "ĠSchool": 5826,
      "ifies": 5827,
      "ifting": 5828,
      "Ġgives": 5829,
      "erses": 5830,
      "Ġstand": 5831,
      "Ġstret": 5832,
      "ĠCr": 5833,
      "Ġdead": 5834,
      "ĠMem": 5835,
      "ĠMos": 5836,
      "andid": 5837,
      "Ġvirtual": 5838,
      "ĠBak": 5839,
      "ĠBudd": 5840,
      "rie": 5841,
      "Ġcomment": 5842,
      "ĠPart": 5843,
      "Ġheat": 5844,
      "orest": 5845,
      "ĠNorthern": 5846,
      "ĠFocus": 5847,
      "ĠLog": 5848,
      "ĠLater": 5849,
      "Ġsecurity": 5850,
      "illing": 5851,
      "ĠOR": 5852,
      "ĠOb": 5853,
      "Ġcontents": 5854,
      "ĠUTC": 5855,
      "asters": 5856,
      "astype": 5857,
      "ĠAnimals": 5858,
      "ologists": 5859,
      "arer": 5860,
      "ĠStart": 5861,
      "Ġprep": 5862,
      "ocket": 5863,
      "Ġcreation": 5864,
      "wei": 5865,
      "ĠArr": 5866,
      "Ġvalu": 5867,
      "Ġregister": 5868,
      "Ġsyll": 5869,
      "Ġsoon": 5870,
      "Ġ32": 5871,
      "rene": 5872,
      "Ġrock": 5873,
      "Ġcoord": 5874,
      "scape": 5875,
      "Ġcalls": 5876,
      "Ġrepresents": 5877,
      "Ġpersonnel": 5878,
      "Ġrain": 5879,
      "engine": 5880,
      "Ġskill": 5881,
      "vironments": 5882,
      "Ġorganized": 5883,
      "Ġclassical": 5884,
      "Ġadvoc": 5885,
      "Ġrevolution": 5886,
      "Ġdirected": 5887,
      "Ġleader": 5888,
      "Ġproductivity": 5889,
      "Ġ1990": 5890,
      "Ġ60": 5891,
      "Ġfinding": 5892,
      "Ġstatement": 5893,
      "Ġpossibly": 5894,
      "Ġfamous": 5895,
      "\"])": 5896,
      "Ġtemplate": 5897,
      "Ġserious": 5898,
      "Ġzoom": 5899,
      "Ġcoral": 5900,
      "Ġdetect": 5901,
      "Ġdetails": 5902,
      "Ġcurrents": 5903,
      "Ġ178": 5904,
      "Ġmultimed": 5905,
      "Ġbehind": 5906,
      "Ġeveryone": 5907,
      "idden": 5908,
      "Ġinvesting": 5909,
      "Ġconnected": 5910,
      "Ġequipment": 5911,
      "EDED": 5912,
      "Ġdomain": 5913,
      "Ġanarchist": 5914,
      "unda": 5915,
      "Ġinsights": 5916,
      "Ġcompetition": 5917,
      "Ġcombination": 5918,
      "Ġ2021": 5919,
      "Ġ{})": 5920,
      "ĠKhan": 5921,
      "while": 5922,
      "Ġachieve": 5923,
      "Ġconcerns": 5924,
      "ĠModest": 5925,
      "ammad": 5926,
      "UND": 5927,
      "offset": 5928,
      "Ġdigital": 5929,
      "transform": 5930,
      "Ġveget": 5931,
      "csv": 5932,
      "RequestHandler": 5933,
      "Ġseems": 5934,
      "Ġsymbol": 5935,
      "å¤±": 5936,
      "Ġcollaboration": 5937,
      "Ġpackages": 5938,
      "Ġdomesticated": 5939,
      "Ġsummary": 5940,
      "ĠProposal": 5941,
      "Ġceremony": 5942,
      "Ġphilosophical": 5943,
      "ĠURL": 5944,
      "Ġresearchers": 5945,
      "EXCEEDED": 5946,
      "Ġmultimedia": 5947,
      "$_": 5948,
      "Europe": 5949,
      "Form": 5950,
      "FUN": 5951,
      "Mod": 5952,
      "User": 5953,
      "WAR": 5954,
      "bar": 5955,
      "bow": 5956,
      "cel": 5957,
      "cfg": 5958,
      "fav": 5959,
      "first": 5960,
      "frame": 5961,
      "haps": 5962,
      "ja": 5963,
      "ni": 5964,
      "oose": 5965,
      "vement": 5966,
      "when": 5967,
      "zip": 5968,
      "¬¦": 5969,
      "çĶ": 5970,
      "ç¬¦": 5971,
      "Ġign": 5972,
      "Ġesc": 5973,
      "Įĥ": 5974,
      "inv": 5975,
      "hent": 5976,
      "err": 5977,
      "atav": 5978,
      "Ġsodium": 5979,
      "Ġcandid": 5980,
      "Ġfast": 5981,
      "Ġfresh": 5982,
      "Ġps": 5983,
      "Ġpage": 5984,
      "Ġperm": 5985,
      "ĠinAR": 5986,
      "Ġmag": 5987,
      "Ġmiddle": 5988,
      "Ġdates": 5989,
      "Ġtoward": 5990,
      "lements": 5991,
      "entane": 5992,
      "stub": 5993,
      "ĠAv": 5994,
      "imilar": 5995,
      "Ġecos": 5996,
      "otton": 5997,
      "utils": 5998,
      "Ġgames": 5999,
      "ows": 6000,
      "raight": 6001,
      "ĊĠĠĠĠĠĠĠĠĠ": 6002,
      "Ġ\"\\": 6003,
      "Ġorg": 6004,
      "ĠBoth": 6005,
      "osy": 6006,
      "ĠPark": 6007,
      "ĠHave": 6008,
      "oret": 6009,
      "Ġ''": 6010,
      "akh": 6011,
      "ĠEarly": 6012,
      "anges": 6013,
      "ĠFe": 6014,
      "ĠFilm": 6015,
      "ĠFollowing": 6016,
      "plicate": 6017,
      "ĠDagny": 6018,
      "asses": 6019,
      "ĠGen": 6020,
      "ĠGreen": 6021,
      "Ġsecret": 6022,
      "allow": 6023,
      "Ġnotable": 6024,
      "Ġnotice": 6025,
      "uez": 6026,
      "Ġ22": 6027,
      "Ġenumer": 6028,
      "cons": 6029,
      "Ġkilled": 6030,
      "obile": 6031,
      "ellig": 6032,
      "effect": 6033,
      "Ġadjust": 6034,
      "Ġclick": 6035,
      "Ġsciences": 6036,
      "fered": 6037,
      "Inter": 6038,
      "eeds": 6039,
      "('%": 6040,
      "__)": 6041,
      "Ġ\"\"\")": 6042,
      "Ġevolution": 6043,
      "ribe": 6044,
      "Ġconson": 6045,
      "Ġsubscription": 6046,
      "Ġpron": 6047,
      "Ġnews": 6048,
      "ĠUnder": 6049,
      "rency": 6050,
      "Ġ188": 6051,
      "Ġ[\"": 6052,
      "grid": 6053,
      "ĠHebre": 6054,
      "rows": 6055,
      "Ġraw": 6056,
      "Ġtermites": 6057,
      "Ġmanage": 6058,
      "Ġgetting": 6059,
      "Ġstartup": 6060,
      "alty": 6061,
      "insert": 6062,
      "ifying": 6063,
      "Ġcontinent": 6064,
      "Ġdirector": 6065,
      "Ġbelong": 6066,
      "ĠProto": 6067,
      "century": 6068,
      "Ġlanding": 6069,
      "Ġ1961": 6070,
      "Ġplayed": 6071,
      "Ġmonth": 6072,
      "Ġkept": 6073,
      "Ġhandler": 6074,
      "Ġstatistics": 6075,
      "Ġreduced": 6076,
      "Ġsolid": 6077,
      "Ġspeech": 6078,
      "Ġlimiter": 6079,
      "Ġsignificantly": 6080,
      "Ġalgorith": 6081,
      "Ġgrowing": 6082,
      "Ġparall": 6083,
      "liament": 6084,
      "Ġchoice": 6085,
      "ĠBrÃ¸nsted": 6086,
      "Ġrestaur": 6087,
      "Ġsensu": 6088,
      "ĠPortugal": 6089,
      "One": 6090,
      "Ġselected": 6091,
      "which": 6092,
      "ĠCountry": 6093,
      "Ġreceive": 6094,
      "Ġrespectively": 6095,
      "Ġarrived": 6096,
      "Ġvariable": 6097,
      "going": 6098,
      "Ġtwice": 6099,
      "Ġappearance": 6100,
      "Ġdiscussion": 6101,
      "Ġhistorical": 6102,
      "Ġborder": 6103,
      "ĠJapanese": 6104,
      "Ġemerged": 6105,
      "Ġphrase": 6106,
      "ĠRenderTree": 6107,
      "Ġestimated": 6108,
      "ĠDespite": 6109,
      "ĠDavid": 6110,
      "ĠStandards": 6111,
      "Ġarticles": 6112,
      "Ġbirth": 6113,
      "Ġlatest": 6114,
      "Ġmathematics": 6115,
      "Ġáº": 6116,
      "While": 6117,
      "è§Ħè": 6118,
      "æŃ£": 6119,
      "LimitExceeded": 6120,
      "Ġcitizens": 6121,
      "ĠLuanda": 6122,
      "Ġdeposits": 6123,
      "Ġfamilies": 6124,
      "Ġreefs": 6125,
      "opteryg": 6126,
      "åŃĺ": 6127,
      "è´¥": 6128,
      "LIMITEXCEEDED": 6129,
      "å¤±è´¥": 6130,
      "FUNCTION": 6131,
      "ĠinARow": 6132,
      "Ġecosystem": 6133,
      "Ġenumerate": 6134,
      "ĠHebrew": 6135,
      "ĠRenderTreeNode": 6136,
      "è§ĦèĮĥ": 6137,
      "48": 6138,
      "76": 6139,
      "AB": 6140,
      "Ge": 6141,
      "IC": 6142,
      "Key": 6143,
      "Log": 6144,
      "PS": 6145,
      "With": 6146,
      "ZE": 6147,
      "]:": 6148,
      "awei": 6149,
      "born": 6150,
      "cis": 6151,
      "cule": 6152,
      "dist": 6153,
      "house": 6154,
      "lers": 6155,
      "men": 6156,
      "mak": 6157,
      "mosp": 6158,
      "nam": 6159,
      "nost": 6160,
      "oz": 6161,
      "such": 6162,
      "Ġaim": 6163,
      "inem": 6164,
      "eral": 6165,
      "aters": 6166,
      "Ġcos": 6167,
      "order": 6168,
      "itable": 6169,
      "Ġfont": 6170,
      "Ġfederal": 6171,
      "Ġpaper": 6172,
      "Ġintern": 6173,
      "Ġinfo": 6174,
      "Ġbord": 6175,
      "Ġoffered": 6176,
      "Ġmart": 6177,
      "Ġmap": 6178,
      "roids": 6179,
      "entially": 6180,
      "ethe": 6181,
      "Ġnm": 6182,
      "aming": 6183,
      "olith": 6184,
      "chat": 6185,
      "othes": 6186,
      "lywood": 6187,
      "Ġste": 6188,
      "Ġconqu": 6189,
      "Ġconclusion": 6190,
      "Ġorb": 6191,
      "ĠMiss": 6192,
      "Ġexhib": 6193,
      "ouncer": 6194,
      "ĠHen": 6195,
      "ĠHam": 6196,
      "aint": 6197,
      "ĠRen": 6198,
      "ĠNot": 6199,
      "ĠLou": 6200,
      "ĠOff": 6201,
      "phone": 6202,
      "Ġchain": 6203,
      "Ġshift": 6204,
      "acts": 6205,
      "ipy": 6206,
      "Ġkind": 6207,
      "Ġaband": 6208,
      "Ġabund": 6209,
      "Ġotherwise": 6210,
      "epy": 6211,
      "ĠThus": 6212,
      "Ġmeat": 6213,
      "ethyl": 6214,
      "Ġsettings": 6215,
      "issions": 6216,
      "Ġsocieties": 6217,
      "Ġdevelopments": 6218,
      "Ġtrain": 6219,
      "Ġefficient": 6220,
      "flag": 6221,
      "Ġfunc": 6222,
      "Ġpopulations": 6223,
      "Ġexped": 6224,
      "Ġproport": 6225,
      "ĠSecond": 6226,
      "Ġclassification": 6227,
      "Ġdiscover": 6228,
      "Ġ2014": 6229,
      "Ġcontinental": 6230,
      "Ġ2001": 6231,
      "Ġ2003": 6232,
      "Ġincreases": 6233,
      "Ġoccasion": 6234,
      "Ġimproving": 6235,
      "Ġ1999": 6236,
      "Status": 6237,
      "Ġcapable": 6238,
      "Ġcriminal": 6239,
      "annel": 6240,
      "ĠWhite": 6241,
      "\"].": 6242,
      "azing": 6243,
      "Ġelectrons": 6244,
      "ĠIslands": 6245,
      "Ġpromoting": 6246,
      "Ġstudying": 6247,
      "ĠExamples": 6248,
      "Ġpotassium": 6249,
      "ashington": 6250,
      "Ġrepresenting": 6251,
      "Ġrepresentation": 6252,
      "Ġexplore": 6253,
      "Ġcharacteristics": 6254,
      "roduction": 6255,
      "ĠHuawei": 6256,
      "Ġencod": 6257,
      "Ġinterested": 6258,
      "Ġlearned": 6259,
      "Ġdepends": 6260,
      "penalties": 6261,
      "runpytest": 6262,
      "GetDepartment": 6263,
      "Ġaxis": 6264,
      "ĠANOVA": 6265,
      "{}*": 6266,
      "SIZE": 6267,
      "fixture": 6268,
      "Ġ2022": 6269,
      "Ġemployees": 6270,
      "Ġannounced": 6271,
      "Ġspecialized": 6272,
      "Ġsafe": 6273,
      "Ġconsumers": 6274,
      "iscale": 6275,
      "Ġpreviously": 6276,
      "Ġdetermine": 6277,
      "Ġconducted": 6278,
      "Ġpytest": 6279,
      "Ġvowels": 6280,
      "Ġborrow": 6281,
      "ä¸įç¬¦": 6282,
      "roleum": 6283,
      "Ġsymbols": 6284,
      "ĠRenderContext": 6285,
      "Ġentirely": 6286,
      "Ġcaptured": 6287,
      "Ġangle": 6288,
      "ibrary": 6289,
      "Ġcubes": 6290,
      "Ġforests": 6291,
      "Ġpatterns": 6292,
      "ĠAlexander": 6293,
      "Ġdegree": 6294,
      "Ġresistance": 6295,
      "Ġmoment": 6296,
      "Ġattrs": 6297,
      "payload": 6298,
      "Ġaffordable": 6299,
      "ĠAmazon": 6300,
      "Ġdedicated": 6301,
      "ipeline": 6302,
      "quetÃŃ": 6303,
      "ĠCushitic": 6304,
      "$_{": 6305,
      "24": 6306,
      "Ac": 6307,
      "Capacity": 6308,
      "John": 6309,
      "Names": 6310,
      "Session": 6311,
      "Trans": 6312,
      "Version": 6313,
      "ael": 6314,
      "cm": 6315,
      "cast": 6316,
      "dep": 6317,
      "hre": 6318,
      "hic": 6319,
      "hist": 6320,
      "ls": 6321,
      "mu": 6322,
      "ns": 6323,
      "oo": 6324,
      "pir": 6325,
      "ruct": 6326,
      "try": 6327,
      "upp": 6328,
      "vars": 6329,
      "xiety": 6330,
      "zone": 6331,
      "Ã«": 6332,
      "çļ": 6333,
      "è¶": 6334,
      "è¿": 6335,
      "Ġtdata": 6336,
      "Ġaid": 6337,
      "onely": 6338,
      "atively": 6339,
      "Ġswe": 6340,
      "Ġoxy": 6341,
      "ancing": 6342,
      "Ġcounter": 6343,
      "eda": 6344,
      "arv": 6345,
      "Ġwood": 6346,
      "Ġfixed": 6347,
      "Ġinstr": 6348,
      "ica": 6349,
      "ico": 6350,
      "Ġbattle": 6351,
      "Ġms": 6352,
      "ouch": 6353,
      "Ġdu": 6354,
      "roph": 6355,
      "Ġliv": 6356,
      "Ġluck": 6357,
      "omers": 6358,
      "Ġeco": 6359,
      "idwell": 6360,
      "usion": 6361,
      "urch": 6362,
      "Ġgiving": 6363,
      "Ġstraight": 6364,
      "rack": 6365,
      "Ġyield": 6366,
      "ummy": 6367,
      "oples": 6368,
      "ĠMc": 6369,
      "Ġvill": 6370,
      "Ġexclus": 6371,
      "Ġsup": 6372,
      "ĠBar": 6373,
      "ĠPost": 6374,
      "ĠRef": 6375,
      "antly": 6376,
      "ĠNations": 6377,
      "ĠFound": 6378,
      "ĠDec": 6379,
      "ĠLy": 6380,
      "ĠLate": 6381,
      "cles": 6382,
      "ĠWashington": 6383,
      "pha": 6384,
      "Ġrespond": 6385,
      "Ġ28": 6386,
      "Ġchief": 6387,
      "ĠInt": 6388,
      "Ġcontact": 6389,
      "Ġcontaining": 6390,
      "Ġcompounds": 6391,
      "Ġintention": 6392,
      "derr": 6393,
      "argv": 6394,
      "Ġclock": 6395,
      "Ġclothes": 6396,
      "uple": 6397,
      "cluding": 6398,
      "Ġreturns": 6399,
      "Ġ:,": 6400,
      "Ġindigenous": 6401,
      "Ġweights": 6402,
      "Ġperce": 6403,
      "ugin": 6404,
      "Ġoffering": 6405,
      "grad": 6406,
      "grille": 6407,
      "fully": 6408,
      "Ġaccomp": 6409,
      "Ġwilling": 6410,
      "commit": 6411,
      "Ġinterface": 6412,
      "aws": 6413,
      "Ġexperien": 6414,
      "Ġpropag": 6415,
      "Ġremember": 6416,
      "Ġappears": 6417,
      "Ġquiet": 6418,
      "insula": 6419,
      "Ġorganisms": 6420,
      "Ġenter": 6421,
      "Ġimmedi": 6422,
      "Ġended": 6423,
      "autiful": 6424,
      "Ġ2002": 6425,
      "conomic": 6426,
      "Ġstatuet": 6427,
      "Ġengaged": 6428,
      "Ġindustrial": 6429,
      "Ġpreserve": 6430,
      "Ġcurrently": 6431,
      "parse": 6432,
      "EST": 6433,
      "Ġphilosopher": 6434,
      "headers": 6435,
      "ĠSciences": 6436,
      "ĠMaria": 6437,
      "TestC": 6438,
      "ByRow": 6439,
      "Ġneighb": 6440,
      "Ġprofessionals": 6441,
      "Ġgods": 6442,
      "reshape": 6443,
      "Ġsuccessfully": 6444,
      "Ġ1940": 6445,
      "Ġrelevant": 6446,
      "Ġgeomet": 6447,
      "Ġaccepted": 6448,
      "strip": 6449,
      "Ġfigure": 6450,
      "nonrefs": 6451,
      "Ġofficially": 6452,
      "Ġtemperatures": 6453,
      "NotFound": 6454,
      "Ġassumptions": 6455,
      "Ġbelieve": 6456,
      "speech": 6457,
      "ĠArmen": 6458,
      "Ġmolecular": 6459,
      "Ġhappy": 6460,
      "Ġjournal": 6461,
      "ĠDavis": 6462,
      "ĠHttpRequest": 6463,
      "ĠHttpResponse": 6464,
      "ĠSatell": 6465,
      "Ġcategory": 6466,
      "Ġcrops": 6467,
      "Ġsubsequent": 6468,
      "Ġfostering": 6469,
      "Ġaspects": 6470,
      "Ġdistinguish": 6471,
      "Ġthousands": 6472,
      "opping": 6473,
      "Ġbricks": 6474,
      "Ġspiritual": 6475,
      "Manager": 6476,
      "Ġpollution": 6477,
      "Ġalternative": 6478,
      "Ġsucceeded": 6479,
      "Ġbehaviors": 6480,
      "Ġbraille": 6481,
      "small": 6482,
      "Ġwebsite": 6483,
      "Ġmanufacturers": 6484,
      "Ġbrief": 6485,
      "Ġsubstance": 6486,
      "Angola": 6487,
      "IndexByColumn": 6488,
      "ĠInstead": 6489,
      "Khmer": 6490,
      "Ġextremely": 6491,
      "Ġlibert": 6492,
      "makepy": 6493,
      "olithic": 6494,
      "makepyfile": 6495,
      "28": 6496,
      "30": 6497,
      "CR": 6498,
      "Com": 6499,
      "SM": 6500,
      "TT": 6501,
      "VER": 6502,
      "[-": 6503,
      "aire": 6504,
      "coh": 6505,
      "capturing": 6506,
      "eks": 6507,
      "fall": 6508,
      "faces": 6509,
      "gener": 6510,
      "hing": 6511,
      "knot": 6512,
      "low": 6513,
      "mult": 6514,
      "mys": 6515,
      "master": 6516,
      "ooth": 6517,
      "rum": 6518,
      "rical": 6519,
      "tis": 6520,
      "task": 6521,
      "van": 6522,
      "water": 6523,
      "ĊĊĉĉĉ": 6524,
      "Ġir": 6525,
      "Ġawards": 6526,
      "oned": 6527,
      "rehens": 6528,
      "Ġsus": 6529,
      "Ġsites": 6530,
      "essee": 6531,
      "anth": 6532,
      "Ġanxiety": 6533,
      "Ġfif": 6534,
      "Ġfrog": 6535,
      "Ġpure": 6536,
      "Ġpick": 6537,
      "Ġing": 6538,
      "Ġandroid": 6539,
      "Ġmist": 6540,
      "Ġmicro": 6541,
      "Ġrein": 6542,
      "Ġrecon": 6543,
      "stderr": 6544,
      "ĠAk": 6545,
      "ĠAle": 6546,
      "Ġnu": 6547,
      "iles": 6548,
      "Ġeat": 6549,
      "ĠTri": 6550,
      "otion": 6551,
      "ĠSoutheast": 6552,
      "igation": 6553,
      "ifer": 6554,
      "ifier": 6555,
      "Ġstop": 6556,
      "Ġstars": 6557,
      "Ġstories": 6558,
      "Ġ(,": 6559,
      "ĠCE": 6560,
      "ĠCas": 6561,
      "race": 6562,
      "ithium": 6563,
      "ago": 6564,
      "Ġpromin": 6565,
      "ĠMore": 6566,
      "ĠMilitary": 6567,
      "thon": 6568,
      "ocation": 6569,
      "ector": 6570,
      "ĠRock": 6571,
      "ĠFer": 6572,
      "ude": 6573,
      "platform": 6574,
      "ĠDict": 6575,
      "ĠDirect": 6576,
      "ĠDwan": 6577,
      "ĠLM": 6578,
      "ĠLov": 6579,
      "ĠLicense": 6580,
      "Ġatmosp": 6581,
      "assic": 6582,
      "Ġsegmentation": 6583,
      "ĠWil": 6584,
      "Ġlex": 6585,
      "Ġcontest": 6586,
      "formation": 6587,
      "ĠJose": 6588,
      "Ġdise": 6589,
      "('/": 6590,
      "ifications": 6591,
      "check": 6592,
      "Ġamazing": 6593,
      "ampras": 6594,
      "Ġanything": 6595,
      "ĠChoose": 6596,
      "Ġmedium": 6597,
      "Ġmeditations": 6598,
      "traditional": 6599,
      "ranean": 6600,
      "Ġattached": 6601,
      "Ġflu": 6602,
      "ĠShake": 6603,
      "Ġwriter": 6604,
      "Ġextended": 6605,
      "Ġargues": 6606,
      "Ġdirectors": 6607,
      "Ġ2005": 6608,
      "Ġ2009": 6609,
      "ATE": 6610,
      "Ġhands": 6611,
      "Ġguided": 6612,
      "ĠGreeks": 6613,
      "Alien": 6614,
      "Ġtraditions": 6615,
      "Ġperiodic": 6616,
      "Ġrepresented": 6617,
      "Ġpatient": 6618,
      "Ġexplo": 6619,
      "currency": 6620,
      "åıĸ": 6621,
      "Ġ<=": 6622,
      "ĠTherefore": 6623,
      "2016": 6624,
      "Ġcommander": 6625,
      "Ġtransformers": 6626,
      "Ġobservations": 6627,
      "Ġoccurs": 6628,
      "Ġexperimental": 6629,
      "Ġsubjects": 6630,
      "reprene": 6631,
      "Ġrecommended": 6632,
      "Ġradio": 6633,
      "Ġradiation": 6634,
      "Ġexcell": 6635,
      "Ġepit": 6636,
      "Ġportray": 6637,
      "Ġstreaming": 6638,
      "Ċĉĉĉĉĉ": 6639,
      "capsys": 6640,
      "Ġjudge": 6641,
      "Ġjudgment": 6642,
      "Ġexpression": 6643,
      "msgc": 6644,
      "Ġinterpretation": 6645,
      "Islamic": 6646,
      "Ġaltruistic": 6647,
      "ĠPatro": 6648,
      "ĠSuper": 6649,
      "Ġuniversal": 6650,
      "Ġtrees": 6651,
      "ĠCaquetÃŃ": 6652,
      "ĠCollabor": 6653,
      "ĠRemember": 6654,
      "ĠCharles": 6655,
      "Ġmissing": 6656,
      "Ġcaesium": 6657,
      "Ġteaching": 6658,
      "Ġmelting": 6659,
      "Ġtitles": 6660,
      "ĠDisney": 6661,
      "Subscription": 6662,
      "ĠHollywood": 6663,
      "rgell": 6664,
      "ĠStatsViewSwagger": 6665,
      "Ġdamage": 6666,
      "ĠDemocratic": 6667,
      "ĠAppeals": 6668,
      "Ġcontrolled": 6669,
      "ĠOttoman": 6670,
      "ĠKeep": 6671,
      "ĠExperimentRequestHandler": 6672,
      "Ġvaluable": 6673,
      "Ġparallel": 6674,
      "è¶ħ": 6675,
      "Ġimmediately": 6676,
      "TestCase": 6677,
      "knots": 6678,
      ")\"": 6679,
      ";\\": 6680,
      "AA": 6681,
      "Am": 6682,
      "BU": 6683,
      "Event": 6684,
      "FA": 6685,
      "HO": 6686,
      "Ham": 6687,
      "LT": 6688,
      "Reg": 6689,
      "SA": 6690,
      "]),": 6691,
      "avery": 6692,
      "bound": 6693,
      "css": 6694,
      "dog": 6695,
      "echo": 6696,
      "iology": 6697,
      "jug": 6698,
      "pread": 6699,
      "parent": 6700,
      "random": 6701,
      "tod": 6702,
      "top": 6703,
      "tics": 6704,
      "token": 6705,
      "xarray": 6706,
      "Å«": 6707,
      "åĢ": 6708,
      "Ġiron": 6709,
      "Ġ])": 6710,
      "Ġtaught": 6711,
      "help": 6712,
      "onomy": 6713,
      "Ġsessions": 6714,
      "anks": 6715,
      "env": 6716,
      "environ": 6717,
      "aler": 6718,
      "also": 6719,
      "orado": 6720,
      "Ġwind": 6721,
      "Ġfle": 6722,
      "eli": 6723,
      "Ġdark": 6724,
      "Ġdress": 6725,
      "stood": 6726,
      "ĠAge": 6727,
      "ĠAstron": 6728,
      "etry": 6729,
      "Ġhot": 6730,
      "ami": 6731,
      "olation": 6732,
      "ĠTw": 6733,
      "ĠTry": 6734,
      "ivar": 6735,
      "ĠSlam": 6736,
      "ĠSampras": 6737,
      "ulate": 6738,
      "ulner": 6739,
      "unariesalt": 6740,
      "ĠIli": 6741,
      "ĠCath": 6742,
      "raham": 6743,
      "Ġ\"-": 6744,
      "emin": 6745,
      "email": 6746,
      "Ġalone": 6747,
      "Ġdeity": 6748,
      "Ġproced": 6749,
      "abase": 6750,
      "ĠMS": 6751,
      "ĠMex": 6752,
      "Ġvote": 6753,
      "Ġexternal": 6754,
      "Ġsudo": 6755,
      "ĠBase": 6756,
      "Ġcompl": 6757,
      "ĠHar": 6758,
      "ĠHomer": 6759,
      "ĠRom": 6760,
      "ĠNavy": 6761,
      "ĠDi": 6762,
      "Ġnothing": 6763,
      "Ġcontemporary": 6764,
      "active": 6765,
      "Ġencomp": 6766,
      "output": 6767,
      "elling": 6768,
      "Ġplastic": 6769,
      "Ġclou": 6770,
      "ologist": 6771,
      "Ġapprec": 6772,
      "Ġscipy": 6773,
      "ĠStar": 6774,
      "ĠItal": 6775,
      "Ġ:]": 6776,
      "Ġhelping": 6777,
      "chemy": 6778,
      "Ġconsists": 6779,
      "Ġwealth": 6780,
      "Ġsubt": 6781,
      "teen": 6782,
      "ĠArthur": 6783,
      "Ġperfect": 6784,
      "Ġsyn": 6785,
      "everal": 6786,
      "ĠChadic": 6787,
      "Ġproducer": 6788,
      "ugged": 6789,
      "ERROR": 6790,
      "Ġpeoples": 6791,
      "Ġ189": 6792,
      "Ġmedical": 6793,
      "ropical": 6794,
      "Ġapart": 6795,
      "Ġexpans": 6796,
      "controll": 6797,
      "Ġdiscovery": 6798,
      "Ġideal": 6799,
      "Ġargued": 6800,
      "ĠIndo": 6801,
      "Ġchem": 6802,
      "Ġbackground": 6803,
      "ĠOrwell": 6804,
      "python": 6805,
      "ĠConstitution": 6806,
      "Ġsupporting": 6807,
      "Ġ2006": 6808,
      "ATA": 6809,
      "Ġblood": 6810,
      "Ġengage": 6811,
      "Ġxml": 6812,
      "Ġelectric": 6813,
      "Ġspeaking": 6814,
      "Ġdetailed": 6815,
      "Ġalpha": 6816,
      "Ġtradition": 6817,
      "Ġtraditionally": 6818,
      "Ġfourth": 6819,
      "ĠQue": 6820,
      "Ġmuscle": 6821,
      "Ġincome": 6822,
      "ĠPlato": 6823,
      "Ġrising": 6824,
      "startup": 6825,
      "Ġswim": 6826,
      "Ġiniti": 6827,
      "Ġinitially": 6828,
      "Ġconfiguration": 6829,
      "Ġappellant": 6830,
      "Ġnearly": 6831,
      "Ġsongs": 6832,
      "Ġprinciple": 6833,
      "Ġrecognition": 6834,
      "Ġrecognized": 6835,
      "Ġmeasures": 6836,
      "Ġfitness": 6837,
      "Ġreactions": 6838,
      "Ġdocuments": 6839,
      "Ġsentence": 6840,
      "aughter": 6841,
      "Ġhistorically": 6842,
      "Ġjsonpickle": 6843,
      "Ġdeclared": 6844,
      "secutive": 6845,
      "Ġearthqu": 6846,
      "fnmatch": 6847,
      "Ġextensive": 6848,
      "ĠRevolution": 6849,
      "Ġdistractions": 6850,
      "ĠCheck": 6851,
      "Ġdisrupted": 6852,
      "åıĤæķ°ä¼łåħ¥éĶĻè¯¯": 6853,
      "Ġguidance": 6854,
      "gbouncer": 6855,
      "Ġpowers": 6856,
      "Ġadvantage": 6857,
      "Ġequivalent": 6858,
      "Ġmitigate": 6859,
      "Ġmoisture": 6860,
      "ĠPhoenician": 6861,
      "Ġdilemmas": 6862,
      "åŃĺåľ¨": 6863,
      "Namespace": 6864,
      "çļĦ": 6865,
      "ĠPatroclus": 6866,
      "åĢ¼": 6867,
      "(-": 6868,
      "21": 6869,
      "23": 6870,
      "35": 6871,
      "74": 6872,
      "></": 6873,
      "Certain": 6874,
      "Desc": 6875,
      "GS": 6876,
      "GER": 6877,
      "LAR": 6878,
      "Layer": 6879,
      "Mem": 6880,
      "May": 6881,
      "NT": 6882,
      "Use": 6883,
      "Walk": 6884,
      "aph": 6885,
      "bark": 6886,
      "cation": 6887,
      "cut": 6888,
      "ei": 6889,
      "female": 6890,
      "iph": 6891,
      "iens": 6892,
      "live": 6893,
      "lock": 6894,
      "miss": 6895,
      "ny": 6896,
      "oes": 6897,
      "price": 6898,
      "rr": 6899,
      "tab": 6900,
      "total": 6901,
      "uge": 6902,
      "wicking": 6903,
      "xide": 6904,
      "}{": 6905,
      "¶æ": 6906,
      "äº": 6907,
      "å·": 6908,
      "åį": 6909,
      "Ġ|": 6910,
      "Ġå": 6911,
      "Ġtim": 6912,
      "Ġtens": 6913,
      "inity": 6914,
      "rees": 6915,
      "restrial": 6916,
      "Ġsql": 6917,
      "environment": 6918,
      "encode": 6919,
      "Ġcinem": 6920,
      "itivity": 6921,
      "Ġwides": 6922,
      "Ġfix": 6923,
      "Ġfasc": 6924,
      "Ġfemale": 6925,
      "Ġpric": 6926,
      "Ġpark": 6927,
      "Ġpaid": 6928,
      "Ġpush": 6929,
      "Ġprice": 6930,
      "icism": 6931,
      "icien": 6932,
      "Ġbad": 6933,
      "Ġbud": 6934,
      "Ġbillion": 6935,
      "Ġdating": 6936,
      "Ġrely": 6937,
      "ctx": 6938,
      "Ġhus": 6939,
      "Ġhttp": 6940,
      "Ġhund": 6941,
      "Ġegg": 6942,
      "Ġthing": 6943,
      "urd": 6944,
      "urt": 6945,
      "otonic": 6946,
      "Ġisomers": 6947,
      "ĠSnow": 6948,
      "Ġbeach": 6949,
      "Ġstre": 6950,
      "odrig": 6951,
      "raignment": 6952,
      "Ġconstruct": 6953,
      "Ġ102": 6954,
      "ags": 6955,
      "ĠMes": 6956,
      "ĠBattle": 6957,
      "erer": 6958,
      "rix": 6959,
      "ĠHigh": 6960,
      "ĠHimal": 6961,
      "ĠHector": 6962,
      "Ġrub": 6963,
      "Ġrural": 6964,
      "ĠNep": 6965,
      "ĠFind": 6966,
      "ĠFurther": 6967,
      "ĠGulf": 6968,
      "Ġsec": 6969,
      "ighter": 6970,
      "Ġund": 6971,
      "ĠWork": 6972,
      "ĠOper": 6973,
      "Ġchamp": 6974,
      "Ġarm": 6975,
      "iances": 6976,
      "constraints": 6977,
      "Ġcomposition": 6978,
      "aven": 6979,
      "aved": 6980,
      "ĠAnother": 6981,
      "ĠAlg": 6982,
      "ĠJoh": 6983,
      "athan": 6984,
      "ĠKey": 6985,
      "ikh": 6986,
      "Ġprec": 6987,
      "Ġpreference": 6988,
      "ressed": 6989,
      "ĊĠĠĠĠĠĠĠĠĠĠĠĠĠĠĠĠĠĠĠĠ": 6990,
      "Ġrelation": 6991,
      "Ġdiffer": 6992,
      "Ġconsc": 6993,
      "Ġweather": 6994,
      "Ġweeks": 6995,
      "Ġsubstant": 6996,
      "Ġovercome": 6997,
      "Ġ300": 6998,
      "creen": 6999,
      "Ġdespite": 7000,
      "Ġcoal": 7001,
      "ftime": 7002,
      "Ġattribute": 7003,
      "Ġcolors": 7004,
      "ahar": 7005,
      "Ġartists": 7006,
      "henius": 7007,
      "Ġpractical": 7008,
      "Ġtermin": 7009,
      "ĠAmericans": 7010,
      "Ġexperiments": 7011,
      "idential": 7012,
      "Ġtranslate": 7013,
      "Ġfollows": 7014,
      "Ġextend": 7015,
      "Ġentered": 7016,
      "ĊĠĠĠĠĠĠĠĠĠĠĠĠĠĠĠĠĠĠĠĠĠĠĠĠĠĠĠĠ": 7017,
      "Ġbackup": 7018,
      "Ġspacefl": 7019,
      "iterranean": 7020,
      "Ġ2007": 7021,
      "Ġ2008": 7022,
      "Ġmyst": 7023,
      "Ġmyth": 7024,
      "standing": 7025,
      "Ġgreatly": 7026,
      "ĠZe": 7027,
      "Ġslave": 7028,
      "logging": 7029,
      "space": 7030,
      "Albert": 7031,
      "bytes": 7032,
      "Ġrequests": 7033,
      "manager": 7034,
      "olume": 7035,
      "Ġpublication": 7036,
      "Ġauthorities": 7037,
      "åı¯": 7038,
      "Ġanarchists": 7039,
      "Ġ>>": 7040,
      "Ġidentified": 7041,
      "Ġparse": 7042,
      "startswith": 7043,
      "Ġpurch": 7044,
      "Ġfarmers": 7045,
      "Ġcausing": 7046,
      "running": 7047,
      "Ġobservation": 7048,
      "Ġlaws": 7049,
      "Ġconsiderations": 7050,
      "ĠBrig": 7051,
      "ĠBerg": 7052,
      "inned": 7053,
      "Ġdiam": 7054,
      "Ġeducational": 7055,
      "Ġconstitu": 7056,
      "Ġintroduction": 7057,
      "Ġwanted": 7058,
      "Ġexcited": 7059,
      "Ġrelease": 7060,
      "riedrich": 7061,
      "Ġconcerned": 7062,
      "Ġassistance": 7063,
      "datas": 7064,
      "Ġwinter": 7065,
      "Ġwinning": 7066,
      "Ġexpressions": 7067,
      "Ġfarms": 7068,
      "relation": 7069,
      "ĠCenter": 7070,
      "Ġopportunity": 7071,
      "Ġeye": 7072,
      "ĠColorado": 7073,
      "Ġclaims": 7074,
      "Ġbecomes": 7075,
      "Ġregardless": 7076,
      "ĠCanadian": 7077,
      "ĠReduce": 7078,
      "ĠMediterranean": 7079,
      "Ġarchae": 7080,
      "ĠCaucas": 7081,
      "Ġasked": 7082,
      "Ġillust": 7083,
      "Ġcollection": 7084,
      "warn": 7085,
      "Ġcategories": 7086,
      "Ġagreed": 7087,
      "Ġsubsequently": 7088,
      "Ġsoldiers": 7089,
      "Ġnetwork": 7090,
      "Ġevaluate": 7091,
      "Ġpetroleum": 7092,
      "Ġcomponents": 7093,
      "Ġsettled": 7094,
      "Ġversions": 7095,
      "Ġworkouts": 7096,
      "Ġsatisfact": 7097,
      "NOTFO": 7098,
      "Ġtissue": 7099,
      "Ġsettlement": 7100,
      "Ġadventure": 7101,
      "postgres": 7102,
      "Ġrecycled": 7103,
      "Remember": 7104,
      "Ġfossil": 7105,
      "ĠTennessee": 7106,
      "ä¿®": 7107,
      "eekday": 7108,
      "Ġfreedom": 7109,
      "Ġorgans": 7110,
      "ructure": 7111,
      "Ġoxygen": 7112,
      "mysql": 7113,
      "ĠCatholic": 7114,
      "Certainly": 7115,
      "Ġwidespread": 7116,
      "iciency": 7117,
      "ĠHimalay": 7118,
      "09": 7119,
      "54": 7120,
      "BLO": 7121,
      "DB": 7122,
      "Early": 7123,
      "IR": 7124,
      "List": 7125,
      "Off": 7126,
      "PIs": 7127,
      "PUB": 7128,
      "Red": 7129,
      "Rodrig": 7130,
      "UST": 7131,
      "box": 7132,
      "cn": 7133,
      "cod": 7134,
      "cache": 7135,
      "fail": 7136,
      "graph": 7137,
      "high": 7138,
      "iable": 7139,
      "kh": 7140,
      "lik": 7141,
      "mat": 7142,
      "motic": 7143,
      "pack": 7144,
      "rish": 7145,
      "sum": 7146,
      "tasks": 7147,
      "yre": 7148,
      "zval": 7149,
      "}\"": 7150,
      "},": 7151,
      "Ã³": 7152,
      "Î»": 7153,
      "ç½": 7154,
      "Ġrom": 7155,
      "Ġions": 7156,
      "Ġ).": 7157,
      "Ġtz": 7158,
      "inos": 7159,
      "ancur": 7160,
      "enue": 7161,
      "isual": 7162,
      "arl": 7163,
      "Ġfv": 7164,
      "Ġbank": 7165,
      "Ġdra": 7166,
      "Ġdaughter": 7167,
      "enter": 7168,
      "star": 7169,
      "Ġlung": 7170,
      "img": 7171,
      "Ġnarr": 7172,
      "ilty": 7173,
      "olar": 7174,
      "ĠType": 7175,
      "children": 7176,
      "ĠSometimes": 7177,
      "ĠSystem": 7178,
      "ada": 7179,
      "ifest": 7180,
      "unique": 7181,
      "Ġstated": 7182,
      "Ġstone": 7183,
      "ĠIl": 7184,
      "iration": 7185,
      "ĠCreate": 7186,
      "rait": 7187,
      "Ġonto": 7188,
      "Ġdeal": 7189,
      "abilities": 7190,
      "ategy": 7191,
      "ĠThetis": 7192,
      "ĠMich": 7193,
      "ĠMont": 7194,
      "ĠMicrosoft": 7195,
      "ĠMunda": 7196,
      "Ġvoice": 7197,
      "ĠBen": 7198,
      "riers": 7199,
      "Ġcoming": 7200,
      "ĠPy": 7201,
      "ĠPen": 7202,
      "ĠPal": 7203,
      "ĠHong": 7204,
      "ĠHindu": 7205,
      "acing": 7206,
      "Ġhear": 7207,
      "ograp": 7208,
      "pty": 7209,
      "ĠRich": 7210,
      "ĠRec": 7211,
      "ĠReturn": 7212,
      "ĠEach": 7213,
      "ĠNic": 7214,
      "expect": 7215,
      "ĠDue": 7216,
      "ĠDynamo": 7217,
      "ĠDepartment": 7218,
      "ĠDatav": 7219,
      "ĠLet": 7220,
      "ĠLook": 7221,
      "Ġunknown": 7222,
      "Ġresid": 7223,
      "Ġarms": 7224,
      "Ġarraignment": 7225,
      "Ġenable": 7226,
      "arguments": 7227,
      "Ġplays": 7228,
      "ibilities": 7229,
      "aren": 7230,
      "Ġhasattr": 7231,
      "Ġelim": 7232,
      "ĠKenn": 7233,
      "Ġforming": 7234,
      "Ġformula": 7235,
      "Ġapplications": 7236,
      "Ġstrategy": 7237,
      "ĠItaly": 7238,
      "Ġpredom": 7239,
      "Ġ:].": 7240,
      "Ġevol": 7241,
      "Ġrelax": 7242,
      "ensus": 7243,
      "Ġweap": 7244,
      "Ġassess": 7245,
      "teardown": 7246,
      "Ġ35": 7247,
      "Ġ[[": 7248,
      "oughly": 7249,
      "redients": 7250,
      "issipp": 7251,
      "Ġfloat": 7252,
      "Ġtrace": 7253,
      "icker": 7254,
      "Ġintermediate": 7255,
      "Ġrail": 7256,
      "Ġmanip": 7257,
      "Ġexports": 7258,
      "ebook": 7259,
      "Ġgranted": 7260,
      "Ġextreme": 7261,
      "Ġlongest": 7262,
      "event": 7263,
      "ĊĠĠĠĠĠĠĠĠĠĠĠĠĠĠĠĠĠĠĠĠĠĠĠĠĠĠĠĠĠĠ": 7264,
      "Ġ2016": 7265,
      "Ġprotons": 7266,
      "Ġminor": 7267,
      "Ġcarry": 7268,
      "Ġmetrics": 7269,
      "ĠProv": 7270,
      "ĠRead": 7271,
      "Ġ1994": 7272,
      "Ġ1995": 7273,
      "Ġ1998": 7274,
      "Ġbreed": 7275,
      "annes": 7276,
      "ruction": 7277,
      "Ġready": 7278,
      "Ġserve": 7279,
      "Ġspeaker": 7280,
      "Ġzero": 7281,
      "ondon": 7282,
      "Ġfactor": 7283,
      "Ġeveryday": 7284,
      "PARAM": 7285,
      "Ġtele": 7286,
      "ĠScott": 7287,
      "čĊčĊĉ": 7288,
      "ĠPlot": 7289,
      "ĠAtlas": 7290,
      "Ġpolitics": 7291,
      "Ġderives": 7292,
      "ä¸İ": 7293,
      "Ġterritories": 7294,
      "Ġstronger": 7295,
      "ĠBerlin": 7296,
      "Ġ1937": 7297,
      "Ġlightweight": 7298,
      "ictionary": 7299,
      "groups": 7300,
      "Ġemployee": 7301,
      "Ġattempted": 7302,
      "Ġcircum": 7303,
      "datetime": 7304,
      "Ġturned": 7305,
      "API": 7306,
      "Ġboundaries": 7307,
      "Ġvehic": 7308,
      "Ġoppon": 7309,
      "Ġcommittee": 7310,
      "Ġlaunched": 7311,
      "Ġutf": 7312,
      "Ġtransparent": 7313,
      "Ġnuclear": 7314,
      "Ġoccupied": 7315,
      "Ġdestro": 7316,
      "Ġvolunteer": 7317,
      "Ġvolunteering": 7318,
      "ĠConfederation": 7319,
      "Ġinspired": 7320,
      "Ġethnic": 7321,
      "Ġwalls": 7322,
      "Ġdistracted": 7323,
      "ĠIranian": 7324,
      "ĠBetancur": 7325,
      "Ġprair": 7326,
      "unittest": 7327,
      "Ġlifest": 7328,
      "Ġdefeated": 7329,
      "www": 7330,
      "Ġexpanded": 7331,
      "Ġcontinuous": 7332,
      "Ġwatching": 7333,
      "Ġjurisdiction": 7334,
      "ĠValley": 7335,
      "Ġflavor": 7336,
      "Ġleadership": 7337,
      "description": 7338,
      "Ġvictory": 7339,
      "ĠMaghre": 7340,
      "åĨįè¯ķ": 7341,
      "Ġvoxelsize": 7342,
      "RESOURCENOTFO": 7343,
      "Ġrejected": 7344,
      "sembly": 7345,
      "ĠAustralian": 7346,
      "uzz": 7347,
      "encies": 7348,
      "Ġflexible": 7349,
      "åĲİåĨįè¯ķ": 7350,
      "Ġthermal": 7351,
      "Ġcognitive": 7352,
      "Ġexpedition": 7353,
      "SessionId": 7354,
      "Ġexperienced": 7355,
      "ĠLovell": 7356,
      "ĠJoseph": 7357,
      "ĠCaquetÃŃo": 7358,
      "elihood": 7359,
      "ĠIliad": 7360,
      "Ġearthquake": 7361,
      "Rodriguez": 7362,
      "ĠMaghreb": 7363,
      "'\"": 7364,
      "(**": 7365,
      ".')": 7366,
      "27": 7367,
      "38": 7368,
      "78": 7369,
      "Author": 7370,
      "Comm": 7371,
      "GGER": 7372,
      "Hu": 7373,
      "HED": 7374,
      "IV": 7375,
      "Im": 7376,
      "Int": 7377,
      "Imp": 7378,
      "Weekday": 7379,
      "You": 7380,
      "after": 7381,
      "auth": 7382,
      "den": 7383,
      "down": 7384,
      "fra": 7385,
      "gian": 7386,
      "hm": 7387,
      "hand": 7388,
      "holders": 7389,
      "iop": 7390,
      "lists": 7391,
      "large": 7392,
      "mode": 7393,
      "nes": 7394,
      "nav": 7395,
      "pan": 7396,
      "pgbouncer": 7397,
      "ram": 7398,
      "rations": 7399,
      "rub": 7400,
      "tk": 7401,
      "tdata": 7402,
      "ville": 7403,
      "ya": 7404,
      "æ³": 7405,
      "Ġtar": 7406,
      "Ġtact": 7407,
      "Ġaz": 7408,
      "inations": 7409,
      "inces": 7410,
      "inating": 7411,
      "input": 7412,
      "onom": 7413,
      "era": 7414,
      "eros": 7415,
      "Ġsand": 7416,
      "enberg": 7417,
      "Ġcart": 7418,
      "Ġcmd": 7419,
      "Ġcotton": 7420,
      "alo": 7421,
      "alchemy": 7422,
      "oro": 7423,
      "itness": 7424,
      "aric": 7425,
      "Ġperman": 7426,
      "Ġpackage": 7427,
      "Ġinse": 7428,
      "Ġincent": 7429,
      "Ġinvalid": 7430,
      "icit": 7431,
      "Ġmut": 7432,
      "Ġmac": 7433,
      "Ġmask": 7434,
      "Ġmoral": 7435,
      "Ġdro": 7436,
      "asphalt": 7437,
      "stock": 7438,
      "ĠAR": 7439,
      "ĠAPI": 7440,
      "eta": 7441,
      "ether": 7442,
      "Ġliqu": 7443,
      "Ġhorn": 7444,
      "omb": 7445,
      "omatic": 7446,
      "Ġnob": 7447,
      "amental": 7448,
      "ĠTre": 7449,
      "uras": 7450,
      "ivist": 7451,
      "channel": 7452,
      "ĠSN": 7453,
      "ĠSan": 7454,
      "ĠSec": 7455,
      "Ġ().": 7456,
      "ĠCor": 7457,
      "rapper": 7458,
      "Ġ\"%": 7459,
      "seconds": 7460,
      "estival": 7461,
      "agraph": 7462,
      "ĠMind": 7463,
      "ĠMark": 7464,
      "Ġvulner": 7465,
      "Ġvolume": 7466,
      "resolution": 7467,
      "Ġiter": 7468,
      "ĠBo": 7469,
      "ĠBro": 7470,
      "ĠBay": 7471,
      "ĠBates": 7472,
      "ocations": 7473,
      "riage": 7474,
      "ĠPicture": 7475,
      "ĠHerm": 7476,
      "acr": 7477,
      "Ġ'/": 7478,
      "ĠEv": 7479,
      "ĠFunction": 7480,
      "ĠFAA": 7481,
      "ĠFriedrich": 7482,
      "ĠLake": 7483,
      "ĠLondon": 7484,
      "ĠGl": 7485,
      "ĠGre": 7486,
      "ĠGalaxy": 7487,
      "ĠOpt": 7488,
      "Ġ27": 7489,
      "Ġ1950": 7490,
      "Ġshall": 7491,
      "Ġsharing": 7492,
      "Ġtruly": 7493,
      "Ġcontract": 7494,
      "Ġcontributed": 7495,
      "ĠUrgell": 7496,
      "Ġcomprehens": 7497,
      "Ġabol": 7498,
      "Ġclocks": 7499,
      "()))": 7500,
      "ĠJul": 7501,
      "ĠJud": 7502,
      "Ġteeth": 7503,
      "('</": 7504,
      "Ġprem": 7505,
      "Ġphy": 7506,
      "Ġgoes": 7507,
      "axis": 7508,
      "Ġregist": 7509,
      "Ġtechnical": 7510,
      "Ġtheme": 7511,
      "Ġproducing": 7512,
      "true": 7513,
      "Ġdesert": 7514,
      "Ġempath": 7515,
      "Ġemissions": 7516,
      "Ġrot": 7517,
      "ĠHealth": 7518,
      "Ġunderstood": 7519,
      "scope": 7520,
      "']))": 7521,
      "Ġcallable": 7522,
      "Ġadding": 7523,
      "Asia": 7524,
      "Ġremaining": 7525,
      "ĠShort": 7526,
      "Ġtranslators": 7527,
      "prov": 7528,
      "Ġhighlight": 7529,
      "Ġorigins": 7530,
      "Ġbuff": 7531,
      "cycl": 7532,
      "Animals": 7533,
      "Ġ2015": 7534,
      "ĠForces": 7535,
      "option": 7536,
      "ĠOnly": 7537,
      "Ġoptim": 7538,
      "Ġ1967": 7539,
      "model": 7540,
      "Ġ..": 7541,
      "LET": 7542,
      "Stat": 7543,
      "iveness": 7544,
      "Ġslight": 7545,
      "Ġslavery": 7546,
      "Ġstatistical": 7547,
      "ĠIslam": 7548,
      "ĠGreece": 7549,
      "Ġ1974": 7550,
      "Ġ1975": 7551,
      "epending": 7552,
      "Exception": 7553,
      "Ġinfluential": 7554,
      "Ġprotecting": 7555,
      "Ġalkane": 7556,
      "monaut": 7557,
      "Ġsimpl": 7558,
      "Ġconven": 7559,
      "Ġtopic": 7560,
      "Ġtransformer": 7561,
      "Ġchoices": 7562,
      "Ġcompetitive": 7563,
      "display": 7564,
      "Ġalongside": 7565,
      "ĠCommand": 7566,
      "ĠAbel": 7567,
      "Ġsummer": 7568,
      "Ġdipl": 7569,
      "opyright": 7570,
      "Provision": 7571,
      "United": 7572,
      "Ġachievements": 7573,
      "Ġdatabase": 7574,
      "Ġambiguous": 7575,
      "Ġbreaks": 7576,
      "Ġrespective": 7577,
      "Ġopinion": 7578,
      "Ġadoption": 7579,
      "Ġclearly": 7580,
      "Ġdeeply": 7581,
      "Ġamphibian": 7582,
      "Ġemotional": 7583,
      "ĠPrinc": 7584,
      "Ġfacilit": 7585,
      "cosmology": 7586,
      "Ġregarded": 7587,
      "Ġimplemented": 7588,
      "ĠAssociation": 7589,
      "ĠSupport": 7590,
      "Ġincreasingly": 7591,
      "Ġjourney": 7592,
      "Ġdestruction": 7593,
      "ĠMuslims": 7594,
      "thenReturn": 7595,
      "Ġsquare": 7596,
      "Ġranked": 7597,
      "Ġvertebr": 7598,
      "Ġmathematical": 7599,
      "è¯·ä¿®": 7600,
      "Ġ-------------------------------------------------------------------------": 7601,
      "Ġ--------------------------------------------------------------------------": 7602,
      "Ġawarded": 7603,
      "Ġcomponent": 7604,
      "continental": 7605,
      "Ġinhabit": 7606,
      "ResourceNotFound": 7607,
      "Ġmillions": 7608,
      "ĠSantos": 7609,
      "Ġtsun": 7610,
      "Ġaws": 7611,
      "Ġholds": 7612,
      "Ġinstalled": 7613,
      "property": 7614,
      "Apollo": 7615,
      "Ġsexual": 7616,
      "Ġrapidly": 7617,
      "({'": 7618,
      "ĠIdent": 7619,
      "Ġscheduled": 7620,
      "Ġdiscipline": 7621,
      "ĠDevelopment": 7622,
      "Ġmotivated": 7623,
      "ĠTHE": 7624,
      "ĠArrhenius": 7625,
      "European": 7626,
      "Ġcandidate": 7627,
      "oretical": 7628,
      "Ġecosystems": 7629,
      "ĠMississipp": 7630,
      "Ġabandoned": 7631,
      "Ġingredients": 7632,
      "Ġcontestants": 7633,
      "Ġexcellent": 7634,
      "Ġexpansion": 7635,
      "Ġspaceflight": 7636,
      "ĠKennedy": 7637,
      "RESOURCENOTFOUND": 7638,
      "è¯·ä¿®æŃ£": 7639,
      "\"{": 7640,
      ")),": 7641,
      "34": 7642,
      "60": 7643,
      "Be": 7644,
      "Done": 7645,
      "Def": 7646,
      "Ed": 7647,
      "Further": 7648,
      "MA": 7649,
      "MO": 7650,
      "New": 7651,
      "Number": 7652,
      "Str": 7653,
      "When": 7654,
      "]).": 7655,
      "binary": 7656,
      "cnt": 7657,
      "cript": 7658,
      "equ": 7659,
      "fol": 7660,
      "finned": 7661,
      "lang": 7662,
      "long": 7663,
      "larg": 7664,
      "lap": 7665,
      "male": 7666,
      "ned": 7667,
      "next": 7668,
      "note": 7669,
      "rugged": 7670,
      "sign": 7671,
      "vention": 7672,
      "wave": 7673,
      "wear": 7674,
      "wanted": 7675,
      "zant": 7676,
      "}\\": 7677,
      "Ġtal": 7678,
      "Ġtet": 7679,
      "Ġast": 7680,
      "Ġaqu": 7681,
      "herent": 7682,
      "repr": 7683,
      "atically": 7684,
      "Ġci": 7685,
      "Ġcou": 7686,
      "alm": 7687,
      "aled": 7688,
      "arter": 7689,
      "aria": 7690,
      "Ġfly": 7691,
      "Ġfair": 7692,
      "Ġpap": 7693,
      "Ġpict": 7694,
      "Ġbases": 7695,
      "Ġbox": 7696,
      "Ġbonds": 7697,
      "elt": 7698,
      "eless": 7699,
      "leys": 7700,
      "Ġrear": 7701,
      "Ġreve": 7702,
      "Ġreign": 7703,
      "Ġreferences": 7704,
      "ĠAre": 7705,
      "Ġlayer": 7706,
      "Ġlambda": 7707,
      "Ġlithium": 7708,
      "olit": 7709,
      "olute": 7710,
      "Ġthr": 7711,
      "idium": 7712,
      "urger": 7713,
      "chron": 7714,
      "lyph": 7715,
      "Ġforward": 7716,
      "ĠSk": 7717,
      "ĠSeveral": 7718,
      "igger": 7719,
      "igration": 7720,
      "iring": 7721,
      "irus": 7722,
      "irming": 7723,
      "ĠCel": 7724,
      "ĠCab": 7725,
      "ĠCatal": 7726,
      "raise": 7727,
      "raises": 7728,
      "section": 7729,
      "secret": 7730,
      "Ġconsecutive": 7731,
      "agu": 7732,
      "peaks": 7733,
      "Ġproceed": 7734,
      "umps": 7735,
      "ĠMart": 7736,
      "Ġvoc": 7737,
      "osure": 7738,
      "ĠPeter": 7739,
      "ĠPRO": 7740,
      "acon": 7741,
      "accept": 7742,
      "Ġ'<": 7743,
      "ĠEve": 7744,
      "ĠEven": 7745,
      "ĠNad": 7746,
      "ĠNear": 7747,
      "ĠFre": 7748,
      "ĠLove": 7749,
      "claim": 7750,
      "Ġnotably": 7751,
      "Ġunsu": 7752,
      "ĠWimb": 7753,
      "ĠOmotic": 7754,
      "phin": 7755,
      "Ġ26": 7756,
      "Ġchart": 7757,
      "Ġarmed": 7758,
      "Ġintellig": 7759,
      "perform": 7760,
      "Ġplates": 7761,
      "strftime": 7762,
      "Ġcls": 7763,
      "ĠAlm": 7764,
      "Ġretrie": 7765,
      "ĠKing": 7766,
      "ĠKPIs": 7767,
      "ĠThat": 7768,
      "ferent": 7769,
      "Ġdispl": 7770,
      "Ġdisput": 7771,
      "reek": 7772,
      "ermany": 7773,
      "Ġassignment": 7774,
      "Ġassigned": 7775,
      "ĠArctic": 7776,
      "eck": 7777,
      "ecil": 7778,
      "Ġobser": 7779,
      "Ġsovere": 7780,
      "Ġanyone": 7781,
      "Ġtechnological": 7782,
      "Ġfilter": 7783,
      "tencent": 7784,
      "Ġacts": 7785,
      "Ġmedic": 7786,
      "auss": 7787,
      "Ġresulted": 7788,
      "1914": 7789,
      "Ġaccused": 7790,
      "coming": 7791,
      "Ġrefs": 7792,
      "Ġflow": 7793,
      "float": 7794,
      "Ġreport": 7795,
      "egin": 7796,
      "await": 7797,
      "Ġedition": 7798,
      "Ġproposition": 7799,
      "ĠShrugged": 7800,
      "Ġwritings": 7801,
      "Ġfounding": 7802,
      "Ġfollowers": 7803,
      "figure": 7804,
      "Ġskys": 7805,
      "Ġmovies": 7806,
      "ledon": 7807,
      "Ġentreprene": 7808,
      "MENT": 7809,
      "Ġrevenue": 7810,
      "ĊĠĠĠĠĠĠĠĠĠĠĠĠĠĠĠĠĠĠĠĠĠĠĠĠĠĠĠĠĠĠĠ": 7811,
      "Ġdepth": 7812,
      "Ġmarked": 7813,
      "Ġcarried": 7814,
      "writer": 7815,
      "username": 7816,
      "Ġlegend": 7817,
      "Ġ1966": 7818,
      "Store": 7819,
      "Ġgreatest": 7820,
      "Ġslice": 7821,
      "Ġcapacity": 7822,
      "ĠAges": 7823,
      "Ġenvironmentally": 7824,
      "Ġreader": 7825,
      "Ġelection": 7826,
      "login": 7827,
      "Ġguilty": 7828,
      "ĠJohnson": 7829,
      "ĠiPh": 7830,
      "Ġcontrovers": 7831,
      "Ġsimilarities": 7832,
      "Ġdeliv": 7833,
      "Ġdeleg": 7834,
      "Ġsignificance": 7835,
      "Ġ80": 7836,
      "Ġviews": 7837,
      "Ġlimbs": 7838,
      "Ġ1986": 7839,
      "Ġbiology": 7840,
      "Ġvisit": 7841,
      "mean": 7842,
      "Ġmindset": 7843,
      "åıĳ": 7844,
      "Ġmeaningful": 7845,
      "Ġwidth": 7846,
      "Ġinteresting": 7847,
      "Ġoriginated": 7848,
      "Ġrecords": 7849,
      "ucket": 7850,
      "Connect": 7851,
      "Ġcrewed": 7852,
      "Ġtopics": 7853,
      "rapod": 7854,
      "Ġcompetitors": 7855,
      "Ġoccurred": 7856,
      "phibia": 7857,
      "fsm": 7858,
      "Äģh": 7859,
      "Ġreflects": 7860,
      "Ġfishing": 7861,
      "Ġruled": 7862,
      "Ġdivisions": 7863,
      "called": 7864,
      "Ġrelatives": 7865,
      "Ġachieved": 7866,
      "Ġgrew": 7867,
      "cules": 7868,
      "ĠModern": 7869,
      "capacity": 7870,
      "Ġrenew": 7871,
      "datav": 7872,
      "Ġannual": 7873,
      "ĠSocial": 7874,
      "Ġcelest": 7875,
      "FIG": 7876,
      "ORY": 7877,
      "Ġcollected": 7878,
      "Ġtwent": 7879,
      "Ġnorms": 7880,
      "Ġconsisting": 7881,
      "Ġconsumption": 7882,
      "finished": 7883,
      "txt": 7884,
      "uela": 7885,
      "Ġsuffix": 7886,
      "Ġplatforms": 7887,
      "lasting": 7888,
      "Ġincorporate": 7889,
      "Ġincorporating": 7890,
      "Ġextension": 7891,
      "Ġpleas": 7892,
      "ĠConfederate": 7893,
      "Ġorders": 7894,
      "Ġdominated": 7895,
      "queous": 7896,
      "ĠUserSubscription": 7897,
      "Ġrebell": 7898,
      "Ġratio": 7899,
      "Ġminimum": 7900,
      "UBEL": 7901,
      "ĠContin": 7902,
      "Ġcorresponding": 7903,
      "========": 7904,
      "Ġuncertain": 7905,
      "Ġheavily": 7906,
      "Ġcontributions": 7907,
      "Ġtoken": 7908,
      "Ġtokens": 7909,
      "avelength": 7910,
      "CONFIG": 7911,
      "Ġinstructors": 7912,
      "Ġmaximum": 7913,
      "ĠVietnam": 7914,
      "Ġpigs": 7915,
      "Ġmargin": 7916,
      "Ġchloride": 7917,
      "Ġfertil": 7918,
      "Ġregulatory": 7919,
      "ĠTerrit": 7920,
      "omorpha": 7921,
      "Ġlectures": 7922,
      "Ġprincipal": 7923,
      "Ġbottom": 7924,
      "Ġstretch": 7925,
      "orestation": 7926,
      "Ġpsfs": 7927,
      "osynt": 7928,
      "è§ĦèĮĥä¸įç¬¦": 7929,
      "Ġmartial": 7930,
      "Ġconquered": 7931,
      "Ġabundant": 7932,
      "Ġoccasionally": 7933,
      "Ġborrowed": 7934,
      "ĠRocky": 7935,
      "åıĸåĢ¼": 7936,
      "todo": 7937,
      "LARGE": 7938,
      "Ġbudget": 7939,
      "ĠSnowball": 7940,
      "ĠJohann": 7941,
      "datasets": 7942,
      "ç½®": 7943,
      "ä¸İè§ĦèĮĥä¸įç¬¦": 7944,
      "æ³ķ": 7945,
      "ĠWimbledon": 7946,
      "UBELL": 7947,
      "#!": 7948,
      "%.": 7949,
      ")',": 7950,
      "-%": 7951,
      ".'''": 7952,
      "05": 7953,
      "Capture": 7954,
      "Create": 7955,
      "Dict": 7956,
      "Many": 7957,
      "Ne": 7958,
      "Prep": 7959,
      "TS": 7960,
      "Table": 7961,
      "Tok": 7962,
      "Trig": 7963,
      "ULE": 7964,
      "aic": 7965,
      "authors": 7966,
      "but": 7967,
      "ca": 7968,
      "cached": 7969,
      "cwd": 7970,
      "di": 7971,
      "ding": 7972,
      "eph": 7973,
      "galaxy": 7974,
      "hu": 7975,
      "hy": 7976,
      "has": 7977,
      "horse": 7978,
      "iiformes": 7979,
      "ken": 7980,
      "krit": 7981,
      "lay": 7982,
      "lename": 7983,
      "layer": 7984,
      "lisher": 7985,
      "million": 7986,
      "messages": 7987,
      "ners": 7988,
      "needs": 7989,
      "rong": 7990,
      "rating": 7991,
      "rative": 7992,
      "rjust": 7993,
      "sol": 7994,
      "sure": 7995,
      "sleep": 7996,
      "uit": 7997,
      "uating": 7998,
      "uuid": 7999,
      "wrap": 8000,
      "yan": 8001,
      "zen": 8002,
      "zarray": 8003,
      "¡Į": 8004,
      "Ã£": 8005,
      "Ã¨": 8006,
      "Ãł": 8007,
      "Ä«": 8008,
      "Äĩ": 8009,
      "Î±": 8010,
      "çĬ": 8011,
      "è¡Į": 8012,
      "čĊĠĠĠĠĠĠĠĠĠĠĠ": 8013,
      "Ģģ": 8014,
      "Ġtone": 8015,
      "Ġtree": 8016,
      "ĠtheMock": 8017,
      "atim": 8018,
      "atural": 8019,
      "Ġcatch": 8020,
      "Ġcovers": 8021,
      "orrect": 8022,
      "ita": 8023,
      "arctic": 8024,
      "Ġwa": 8025,
      "Ġwaters": 8026,
      "Ġwavelength": 8027,
      "Ġfire": 8028,
      "Ġpatch": 8029,
      "Ġprize": 8030,
      "Ġbuns": 8031,
      "Ġmor": 8032,
      "eler": 8033,
      "elines": 8034,
      "elabel": 8035,
      "Ġduration": 8036,
      "Ġrestrict": 8037,
      "ĠAT": 8038,
      "ctor": 8039,
      "Ġlists": 8040,
      "Ġlaid": 8041,
      "Ġhier": 8042,
      "imated": 8043,
      "Ġnick": 8044,
      "amic": 8045,
      "ili": 8046,
      "Ġec": 8047,
      "Ġthir": 8048,
      "ĠTun": 8049,
      "ĠTik": 8050,
      "ĠTreat": 8051,
      "utf": 8052,
      "ĠSam": 8053,
      "ĠSuch": 8054,
      "ĠService": 8055,
      "ĠSimilar": 8056,
      "aded": 8057,
      "ifts": 8058,
      "ifferent": 8059,
      "unstub": 8060,
      "Ġstake": 8061,
      "owry": 8062,
      "ĠID": 8063,
      "ĠCross": 8064,
      "ĊĠĠĠĠĠĠĠĠĠĠĠĠĠ": 8065,
      "Ġongoing": 8066,
      "Ġconquest": 8067,
      "Ġalt": 8068,
      "istence": 8069,
      "ĠMass": 8070,
      "ĠMah": 8071,
      "quote": 8072,
      "Ġvon": 8073,
      "Ġvision": 8074,
      "that": 8075,
      "Ġsuite": 8076,
      "ĠBor": 8077,
      "ĠBas": 8078,
      "ocol": 8079,
      "verty": 8080,
      "ĠPil": 8081,
      "ĠPale": 8082,
      "ĠPrior": 8083,
      "acher": 8084,
      "ectonic": 8085,
      "pping": 8086,
      "ĠRavel": 8087,
      "Ġrivers": 8088,
      "anting": 8089,
      "ĠNon": 8090,
      "ĠNor": 8091,
      "ĠNFC": 8092,
      "ĠFl": 8093,
      "ĠFederal": 8094,
      "plt": 8095,
      "ĠDiv": 8096,
      "ĠLab": 8097,
      "ĠLand": 8098,
      "asso": 8099,
      "Ġunless": 8100,
      "oves": 8101,
      "Ġreson": 8102,
      "Ġreserved": 8103,
      "actions": 8104,
      "Ġkingdom": 8105,
      "Ġcompare": 8106,
      "Ġadj": 8107,
      "Ġaboard": 8108,
      "avid": 8109,
      "Ġclay": 8110,
      "ĠJust": 8111,
      "ĠJack": 8112,
      "ĠJones": 8113,
      "ignments": 8114,
      "ĠKen": 8115,
      "ĠKore": 8116,
      "ĠKong": 8117,
      "Ġapparent": 8118,
      "Ġdisag": 8119,
      "achines": 8120,
      "ooks": 8121,
      "Ġhelped": 8122,
      "Ġevolutionary": 8123,
      "(\"\\": 8124,
      "erves": 8125,
      "ĠArch": 8126,
      "Ġrecently": 8127,
      "Ġregional": 8128,
      "Ġpriv": 8129,
      "Ġoffice": 8130,
      "rend": 8131,
      "ixel": 8132,
      "puter": 8133,
      "Ġattribut": 8134,
      "scan": 8135,
      "scale": 8136,
      "Ġartistic": 8137,
      "Ġexposed": 8138,
      "ĠYear": 8139,
      "Ġgramm": 8140,
      "Ġtranslated": 8141,
      "Ġquite": 8142,
      "ypes": 8143,
      "Ġskelet": 8144,
      "ĊĉĊ": 8145,
      "contrib": 8146,
      "Ġsignal": 8147,
      "Ġrevol": 8148,
      "Ġimmediate": 8149,
      "Ġ2011": 8150,
      "ĠForce": 8151,
      "dirs": 8152,
      "Ġminimal": 8153,
      "Ġcommunic": 8154,
      "Ġ2004": 8155,
      "ĠProt": 8156,
      "Ġlands": 8157,
      "Ġ1992": 8158,
      "Ġplaying": 8159,
      "Ġpresentation": 8160,
      "Ġprocessing": 8161,
      "Ġtemp": 8162,
      "Ġburial": 8163,
      "Ġburied": 8164,
      "Ġtypical": 8165,
      "Ġ1977": 8166,
      "Ġ1979": 8167,
      "Ġmemory": 8168,
      "ESC": 8169,
      "Ġexploration": 8170,
      "Ġviewed": 8171,
      "Ġoperate": 8172,
      "Ġpoverty": 8173,
      "Ġetym": 8174,
      "ĠMarx": 8175,
      "Ġinvolve": 8176,
      "Ġdescribes": 8177,
      "Ġrealistic": 8178,
      "ossible": 8179,
      "Ġinside": 8180,
      "Ġstaying": 8181,
      "company": 8182,
      "Ġmembership": 8183,
      "GetWeekday": 8184,
      "Ġmassive": 8185,
      "Ġliterary": 8186,
      "Ġglobally": 8187,
      "ĠBrand": 8188,
      "Ġ1930": 8189,
      "Ġnovels": 8190,
      "Ġconstitute": 8191,
      "Ġintroduce": 8192,
      "Class": 8193,
      "Ġpostgres": 8194,
      "Ġruler": 8195,
      "Ġemployed": 8196,
      "Ġattempts": 8197,
      "ĠModel": 8198,
      "plotname": 8199,
      "Ġassistive": 8200,
      "ĠCompanies": 8201,
      "Ġcolonial": 8202,
      "ĠChristians": 8203,
      "ï¼ļ": 8204,
      "rastructure": 8205,
      "itudes": 8206,
      "Ġfacial": 8207,
      "Ġclaimed": 8208,
      "speaker": 8209,
      "Ġsections": 8210,
      "Ġapplies": 8211,
      "Ġmeetings": 8212,
      "Ġdetermined": 8213,
      "Ġutil": 8214,
      "remove": 8215,
      "Ġimplementation": 8216,
      "ĠAssert": 8217,
      "Ġmolecule": 8218,
      "Ġmolecules": 8219,
      "Ġbreathable": 8220,
      "slice": 8221,
      "Ġfrequency": 8222,
      "Ġincorporated": 8223,
      "ĠFrancis": 8224,
      "Ġengineering": 8225,
      "Ġfundamental": 8226,
      "Ġbarriers": 8227,
      "Ġdogs": 8228,
      "exceptions": 8229,
      "Ġarticle": 8230,
      "ĠSaturn": 8231,
      "Ġfabrics": 8232,
      "Ġdurability": 8233,
      "Ġsalam": 8234,
      "RIGGER": 8235,
      "Ġthousand": 8236,
      "Ġcampaigns": 8237,
      "Ġfavorite": 8238,
      "ĠImport": 8239,
      "Ġreciproc": 8240,
      "æĹ¶": 8241,
      "imension": 8242,
      "Ġspectrum": 8243,
      "idxs": 8244,
      "Ġfighting": 8245,
      "Ġinjury": 8246,
      "ĠTimur": 8247,
      "Ġrobots": 8248,
      "ĠOrganization": 8249,
      "ĠTranslation": 8250,
      "Ġphenomena": 8251,
      "Ġlistening": 8252,
      "Ġpiece": 8253,
      "favicons": 8254,
      "çĶ¨": 8255,
      "Ġborders": 8256,
      "Ġproportion": 8257,
      "ĠFoundation": 8258,
      "Ġprominent": 8259,
      "boundary": 8260,
      "jugate": 8261,
      "controller": 8262,
      "¶æĢģ": 8263,
      "Ġsqlalchemy": 8264,
      "Ġprices": 8265,
      "Ġhusband": 8266,
      "Ġeggs": 8267,
      "Ġconscious": 8268,
      "Ġ>>>": 8269,
      "Ġsatisfaction": 8270,
      "Ġpredomin": 8271,
      "Ġprairie": 8272,
      "Ġazure": 8273,
      "Ġdropped": 8274,
      "è¯·ä¿®æŃ£åĲİåĨįè¯ķ": 8275,
      "DoneEvent": 8276,
      "folio": 8277,
      "åıĸåĢ¼ä¸İè§ĦèĮĥä¸įç¬¦": 8278,
      "Trigger": 8279,
      "çĬ¶æĢģ": 8280,
      "ĠTikTok": 8281,
      "\"):": 8282,
      "42": 8283,
      "77": 8284,
      "De": 8285,
      "Des": 8286,
      "Dis": 8287,
      "Dist": 8288,
      "JUST": 8289,
      "Most": 8290,
      "OH": 8291,
      "Rand": 8292,
      "RJUST": 8293,
      "Se": 8294,
      "Sh": 8295,
      "Set": 8296,
      "TH": 8297,
      "Te": 8298,
      "US": 8299,
      "Write": 8300,
      "]],": 8301,
      "bsc": 8302,
      "ded": 8303,
      "draw": 8304,
      "final": 8305,
      "gz": 8306,
      "iant": 8307,
      "iÄĩ": 8308,
      "know": 8309,
      "la": 8310,
      "lies": 8311,
      "mask": 8312,
      "nce": 8313,
      "named": 8314,
      "page": 8315,
      "sed": 8316,
      "save": 8317,
      "since": 8318,
      "sql": 8319,
      "tear": 8320,
      "train": 8321,
      "vote": 8322,
      "voxels": 8323,
      "zil": 8324,
      "æı": 8325,
      "Ġtons": 8326,
      "inder": 8327,
      "heastern": 8328,
      "Ġtheories": 8329,
      "Ġtheoretical": 8330,
      "ati": 8331,
      "anj": 8332,
      "eness": 8333,
      "Ġcry": 8334,
      "Ġcraft": 8335,
      "alin": 8336,
      "organ": 8337,
      "itative": 8338,
      "itled": 8339,
      "edia": 8340,
      "arity": 8341,
      "Ġwire": 8342,
      "Ġfellow": 8343,
      "ĠpH": 8344,
      "icens": 8345,
      "Ġandroids": 8346,
      "Ġmixed": 8347,
      "outer": 8348,
      "Ġdynam": 8349,
      "Ġdraft": 8350,
      "Ġtopp": 8351,
      "Ġrept": 8352,
      "Ġrend": 8353,
      "ĠAik": 8354,
      "ĠAikido": 8355,
      "Ġlicense": 8356,
      "omain": 8357,
      "imation": 8358,
      "Ġnort": 8359,
      "aml": 8360,
      "amin": 8361,
      "olves": 8362,
      "Ġthick": 8363,
      "ĠTO": 8364,
      "ĠTable": 8365,
      "ĠTwo": 8366,
      "usic": 8367,
      "ivault": 8368,
      "util": 8369,
      "lymp": 8370,
      "ĠSidwell": 8371,
      "ignt": 8372,
      "Ġbead": 8373,
      "ulpt": 8374,
      "Ġgrab": 8375,
      "ersed": 8376,
      "Ġstable": 8377,
      "Ġstages": 8378,
      "irg": 8379,
      "irs": 8380,
      "ĠCarth": 8381,
      "rag": 8382,
      "Ġ\"\\\\": 8383,
      "seed": 8384,
      "search": 8385,
      "Ġconvey": 8386,
      "Ġdeploy": 8387,
      "abc": 8388,
      "abil": 8389,
      "ĠMir": 8390,
      "ĠMaced": 8391,
      "ĠMachine": 8392,
      "ĠBeng": 8393,
      "ĠBefore": 8394,
      "riest": 8395,
      "ĠPrize": 8396,
      "ĠPaul": 8397,
      "ĠHot": 8398,
      "ĠHTML": 8399,
      "acrit": 8400,
      "oga": 8401,
      "oger": 8402,
      "ogen": 8403,
      "ects": 8404,
      "Ġ'*": 8405,
      "ĠRosen": 8406,
      "ĠROS": 8407,
      "ĠRoyal": 8408,
      "ĠEr": 8409,
      "ĠEag": 8410,
      "ĠEuras": 8411,
      "anged": 8412,
      "anging": 8413,
      "ialize": 8414,
      "Ġru": 8415,
      "ĠFatim": 8416,
      "exception": 8417,
      "ĠDu": 8418,
      "ĠDar": 8419,
      "ĠLife": 8420,
      "ĠLambda": 8421,
      "anskrit": 8422,
      "Ġsevere": 8423,
      "eward": 8424,
      "izz": 8425,
      "Ġunreal": 8426,
      "ĠOf": 8427,
      "ĠOlymp": 8428,
      "phab": 8429,
      "Ġ23": 8430,
      "Ġshopping": 8431,
      "ĠInit": 8432,
      "Ġcontained": 8433,
      "ĠUp": 8434,
      "acteria": 8435,
      "ipality": 8436,
      "Ġcompos": 8437,
      "Ġdeforestation": 8438,
      "ellular": 8439,
      "Ġabj": 8440,
      "Ġabug": 8441,
      "indent": 8442,
      "Ġplus": 8443,
      "Ġplanned": 8444,
      "Ġclosed": 8445,
      "ĠAnarch": 8446,
      "ĠAliens": 8447,
      "ĠJo": 8448,
      "ĠJim": 8449,
      "ĠKabul": 8450,
      "ikes": 8451,
      "ishop": 8452,
      "Ġpreced": 8453,
      "orship": 8454,
      "ords": 8455,
      "Ġamni": 8456,
      "ensive": 8457,
      "Ġsubs": 8458,
      "Ġvalleys": 8459,
      "Ġsym": 8460,
      "Ġthemes": 8461,
      "Ġ33": 8462,
      "ĠVar": 8463,
      "Ġactin": 8464,
      "ĠsetUp": 8465,
      "lices": 8466,
      "comes": 8467,
      "ĠAsian": 8468,
      "Ġshowed": 8469,
      "Ġdecade": 8470,
      "scopic": 8471,
      "othing": 8472,
      "Ġcold": 8473,
      "Ġ48": 8474,
      "Ġlogin": 8475,
      "Ġstarts": 8476,
      "Ġremoved": 8477,
      "novation": 8478,
      "Ġextent": 8479,
      "Ġextending": 8480,
      "project": 8481,
      "theless": 8482,
      "even": 8483,
      "Ġsocialist": 8484,
      "Ġparticles": 8485,
      "Ġcheating": 8486,
      "Ġcontinues": 8487,
      "ĠOrig": 8488,
      "aean": 8489,
      "Ġmining": 8490,
      "Ġsurfaces": 8491,
      "Ġmetadata": 8492,
      "ĠProf": 8493,
      "ĠProgram": 8494,
      "Ġ1962": 8495,
      "Ġseeing": 8496,
      "Ġ1997": 8497,
      "Ġelected": 8498,
      "Ġelections": 8499,
      "Ġfunctional": 8500,
      "Ġapproaches": 8501,
      "Ġshell": 8502,
      "Ġ1976": 8503,
      "Ġdelay": 8504,
      "Ġtrading": 8505,
      "ĠExp": 8506,
      "Ġclimbing": 8507,
      "Ġmultipl": 8508,
      "Ġperiods": 8509,
      "amaic": 8510,
      "Ġexplain": 8511,
      "Ġ1989": 8512,
      "Ġoperation": 8513,
      "ĠScot": 8514,
      "Ġreferring": 8515,
      "Ġfrust": 8516,
      "ĠClass": 8517,
      "ĠAlbanians": 8518,
      "ederation": 8519,
      "Ġparticipate": 8520,
      "Ġconvers": 8521,
      "2018": 8522,
      "Ġcertainly": 8523,
      "Ġinsert": 8524,
      "ircraft": 8525,
      "Ġmasses": 8526,
      "Ġoccurring": 8527,
      "ĠAbraham": 8528,
      "ourage": 8529,
      "Ġdiacrit": 8530,
      "Ġsupplements": 8531,
      "Client": 8532,
      "ĠMusic": 8533,
      "Ġmeasured": 8534,
      "ributeError": 8535,
      "Ġexciting": 8536,
      "Ġruling": 8537,
      "Ġseparated": 8538,
      "Ġ1920": 8539,
      "Ġvariables": 8540,
      "Ġmaintained": 8541,
      "Ġscholar": 8542,
      "connection": 8543,
      "ĠGeorg": 8544,
      "Ġcollective": 8545,
      "Ġencourages": 8546,
      "ascii": 8547,
      "Ġdiscussed": 8548,
      "Operations": 8549,
      "Ġpracticed": 8550,
      "Ġmeeting": 8551,
      "Ġ1861": 8552,
      "break": 8553,
      "Ġroute": 8554,
      "ä¸įåŃĺåľ¨": 8555,
      "Ġamounts": 8556,
      "Ġattacks": 8557,
      "ĠTrojan": 8558,
      "Ġestimates": 8559,
      "helm": 8560,
      "Ġpairs": 8561,
      "ĠFrank": 8562,
      "ĠSmartph": 8563,
      "Ġbroadcast": 8564,
      "Ġinfrastructure": 8565,
      "ĠCollins": 8566,
      "Ġranking": 8567,
      "Ġmechanics": 8568,
      "Ġagreement": 8569,
      "command": 8570,
      "Ġcriticism": 8571,
      "Ġqualities": 8572,
      "Ġmissions": 8573,
      "ĠEthn": 8574,
      "zeros": 8575,
      "Ġslowly": 8576,
      "olidays": 8577,
      "Ġharmful": 8578,
      "Ġbrick": 8579,
      "Ġwarming": 8580,
      "ĠAttributeError": 8581,
      "Ġjurisdictions": 8582,
      "Ġindicates": 8583,
      "Ġcalculated": 8584,
      "ĠSpecial": 8585,
      "Ġguidelines": 8586,
      "Ġnuclei": 8587,
      "Ġcleanup": 8588,
      "Ġcooking": 8589,
      "Ġsatisf": 8590,
      "Ġcycle": 8591,
      "Ġexactly": 8592,
      "ĠPersian": 8593,
      "éĩįè¯ķ": 8594,
      "Ġpsychological": 8595,
      "PROV": 8596,
      "segparams": 8597,
      "Ġstruggle": 8598,
      "Ġseeking": 8599,
      "Ġlegislature": 8600,
      "Ġcopies": 8601,
      "Ġhabitats": 8602,
      "ĠImpro": 8603,
      "Ġintellectual": 8604,
      "Ġupdated": 8605,
      "ĠCriminal": 8606,
      "ĠObject": 8607,
      "Ġescape": 8608,
      "ĠHenry": 8609,
      "depth": 8610,
      "Ġexclusive": 8611,
      "Ġperceived": 8612,
      "Ġgeometry": 8613,
      "ĠSatellites": 8614,
      "Ġlibertarian": 8615,
      "Ġfifth": 8616,
      "BUG": 8617,
      "Ġencompass": 8618,
      "Ġsubstantial": 8619,
      "ĠHimalayas": 8620,
      "inosaur": 8621,
      "Ġlifestyle": 8622,
      "Huxley": 8623,
      "Ġcomprehensive": 8624,
      "Ġslightly": 8625,
      "ĠMississippi": 8626,
      "Ġretrieve": 8627,
      "ecilians": 8628,
      "#!/": 8629,
      "Preparer": 8630,
      "æıĲ": 8631,
      "ignty": 8632,
      "39": 8633,
      "47": 8634,
      "72": 8635,
      "95": 8636,
      "AFC": 8637,
      "CD": 8638,
      "CF": 8639,
      "Cost": 8640,
      "Code": 8641,
      "Dr": 8642,
      "Domain": 8643,
      "ECT": 8644,
      "Epub": 8645,
      "IO": 8646,
      "KE": 8647,
      "Lowry": 8648,
      "OF": 8649,
      "Ob": 8650,
      "Pre": 8651,
      "Parse": 8652,
      "PolicyAssignment": 8653,
      "QU": 8654,
      "Qu": 8655,
      "Roman": 8656,
      "Service": 8657,
      "TY": 8658,
      "Total": 8659,
      "USER": 8660,
      "Wuff": 8661,
      "Zone": 8662,
      "`,": 8663,
      "bn": 8664,
      "bus": 8665,
      "bind": 8666,
      "body": 8667,
      "bknots": 8668,
      "cow": 8669,
      "cher": 8670,
      "cub": 8671,
      "df": 8672,
      "dev": 8673,
      "diff": 8674,
      "find": 8675,
      "fred": 8676,
      "fcn": 8677,
      "gl": 8678,
      "hit": 8679,
      "hold": 8680,
      "hash": 8681,
      "hours": 8682,
      "iro": 8683,
      "later": 8684,
      "lower": 8685,
      "link": 8686,
      "nm": 8687,
      "oic": 8688,
      "pa": 8689,
      "policy": 8690,
      "person": 8691,
      "policyAssignment": 8692,
      "rb": 8693,
      "rary": 8694,
      "sv": 8695,
      "tight": 8696,
      "ux": 8697,
      "uation": 8698,
      "wa": 8699,
      "yer": 8700,
      "}/": 8701,
      "ä»": 8702,
      "ä½": 8703,
      "æĮ": 8704,
      "Ģå¤": 8705,
      "īį": 8706,
      "Ġtape": 8707,
      "Ġtalk": 8708,
      "Ġtourn": 8709,
      "Ġtouch": 8710,
      "Ġaircraft": 8711,
      "include": 8712,
      "heet": 8713,
      "onia": 8714,
      "atu": 8715,
      "atoms": 8716,
      "Ġsales": 8717,
      "Ġsulf": 8718,
      "ena": 8719,
      "Ġcrow": 8720,
      "orized": 8721,
      "itarian": 8722,
      "arab": 8723,
      "Ġfa": 8724,
      "Ġpest": 8725,
      "Ġpip": 8726,
      "Ġpdb": 8727,
      "Ġinject": 8728,
      "Ġbot": 8729,
      "Ġbul": 8730,
      "Ġbinary": 8731,
      "Ġbony": 8732,
      "Ġmere": 8733,
      "Ġmapp": 8734,
      "oul": 8735,
      "oured": 8736,
      "elch": 8737,
      "eley": 8738,
      "Ġdictionary": 8739,
      "Ġtom": 8740,
      "lege": 8741,
      "leek": 8742,
      "stop": 8743,
      "stall": 8744,
      "stalk": 8745,
      "style": 8746,
      "Ġlibrary": 8747,
      "Ġhor": 8748,
      "Ġhab": 8749,
      "Ġhair": 8750,
      "ims": 8751,
      "Ġnor": 8752,
      "Ġnodes": 8753,
      "amis": 8754,
      "ampl": 8755,
      "ilob": 8756,
      "idget": 8757,
      "idae": 8758,
      "ĠTel": 8759,
      "ĠTom": 8760,
      "using": 8761,
      "urb": 8762,
      "urity": 8763,
      "chain": 8764,
      "ota": 8765,
      "unic": 8766,
      "Ġstere": 8767,
      "Ġstability": 8768,
      "Ġstaff": 8769,
      "irl": 8770,
      "irical": 8771,
      "ĠCrit": 8772,
      "raction": 8773,
      "separ": 8774,
      "Ġconsole": 8775,
      "estock": 8776,
      "Ġalter": 8777,
      "Ġalign": 8778,
      "isted": 8779,
      "Ġyarray": 8780,
      "ophers": 8781,
      "ĠMi": 8782,
      "ĠMo": 8783,
      "ĠMr": 8784,
      "anders": 8785,
      "Ġvital": 8786,
      "thy": 8787,
      "ĠBow": 8788,
      "ĠBab": 8789,
      "ĠBox": 8790,
      "ĠBuild": 8791,
      "occo": 8792,
      "osis": 8793,
      "ospond": 8794,
      "Ġbyte": 8795,
      "ĠHa": 8796,
      "ĠHel": 8797,
      "ogue": 8798,
      "ogether": 8799,
      "oreign": 8800,
      "Ġ',": 8801,
      "Ġ'-": 8802,
      "Ġ'--": 8803,
      "imple": 8804,
      "Ġrates": 8805,
      "ĠNag": 8806,
      "ĠNav": 8807,
      "ĠFort": 8808,
      "ĠFinally": 8809,
      "endar": 8810,
      "ĠDan": 8811,
      "ĠDepending": 8812,
      "ĠLeg": 8813,
      "ĠGh": 8814,
      "ĠGer": 8815,
      "ĠGermany": 8816,
      "Ġseaw": 8817,
      "illa": 8818,
      "Ġuniversity": 8819,
      "Ġunariesalt": 8820,
      "duction": 8821,
      "ĠWild": 8822,
      "ĠWeb": 8823,
      "ardvark": 8824,
      "ĠOF": 8825,
      "ĠOx": 8826,
      "ĠOut": 8827,
      "phy": 8828,
      "oval": 8829,
      "Ġleaving": 8830,
      "Ġchance": 8831,
      "Ġshap": 8832,
      "inea": 8833,
      "acter": 8834,
      "actic": 8835,
      "Ġenvironments": 8836,
      "Ġadult": 8837,
      "ava": 8838,
      "Ġplans": 8839,
      "earing": 8840,
      "apse": 8841,
      "appe": 8842,
      "ibl": 8843,
      "ibet": 8844,
      "ibbean": 8845,
      "intensity": 8846,
      "ĠAlso": 8847,
      "ĠJew": 8848,
      "ĠJean": 8849,
      "rick": 8850,
      "itionTo": 8851,
      "Ġscen": 8852,
      "cluded": 8853,
      "ethy": 8854,
      "ĠStalin": 8855,
      "ysical": 8856,
      "getebook": 8857,
      "Ġphase": 8858,
      "Ġdiff": 8859,
      "Ġweek": 8860,
      "ĠAramaic": 8861,
      "Ġacknow": 8862,
      "Ġprime": 8863,
      "Ġproduces": 8864,
      "Ġ37": 8865,
      "rence": 8866,
      "Ġpersu": 8867,
      "Ġroof": 8868,
      "ranc": 8869,
      "ftware": 8870,
      "ĠĊĠĊ": 8871,
      "Ġtexture": 8872,
      "Ġvariation": 8873,
      "Ġinterior": 8874,
      "Ġ%(": 8875,
      "Ġadditivity": 8876,
      "Ġrare": 8877,
      "Ġdistribut": 8878,
      "Ġskull": 8879,
      "Ġbuy": 8880,
      "Ġrevolutionary": 8881,
      "ĠEnc": 8882,
      "assertIs": 8883,
      "Ġargue": 8884,
      "Ġ2018": 8885,
      "ophone": 8886,
      "ĠAngolans": 8887,
      "Ġmineral": 8888,
      "deploy": 8889,
      "Ġfinds": 8890,
      "ĠZir": 8891,
      "Ġmonotonic": 8892,
      "Ġengaging": 8893,
      "anner": 8894,
      "ruit": 8895,
      "Ġexceptional": 8896,
      "Ġpossess": 8897,
      "Ġpersonalized": 8898,
      "Ġserver": 8899,
      "Ġsolve": 8900,
      "Ġburrows": 8901,
      "Ġprofits": 8902,
      "Ġpreserved": 8903,
      "Ġprobability": 8904,
      "Ġsimilarity": 8905,
      "Ġdelete": 8906,
      "templates": 8907,
      "Ġpotentially": 8908,
      "Ġmultiscale": 8909,
      "address": 8910,
      "ĠPhilos": 8911,
      "ĠPhysics": 8912,
      "Ġrepresentative": 8913,
      "ĠByzant": 8914,
      "Ġ1982": 8915,
      "Ġgoods": 8916,
      "ĠEngine": 8917,
      "Ġ70": 8918,
      "Ġvisiting": 8919,
      "ASC": 8920,
      "Ġconnectivity": 8921,
      "Ġfinished": 8922,
      "Ġ90": 8923,
      "ĠQur": 8924,
      "domain": 8925,
      "Ġidentity": 8926,
      "ennis": 8927,
      "Ġcollapse": 8928,
      "Ġbeginners": 8929,
      "Ġinteraction": 8930,
      "Ġexistence": 8931,
      "Ġterritorial": 8932,
      "Ġcameras": 8933,
      "ĠCongo": 8934,
      "Ġcombined": 8935,
      "Ġconfidential": 8936,
      "Ġessay": 8937,
      "Ġplanning": 8938,
      "keys": 8939,
      "Ġtotally": 8940,
      "Ġsuperior": 8941,
      "marker": 8942,
      "plotlib": 8943,
      "Ġ1929": 8944,
      "suit": 8945,
      "Ġcircle": 8946,
      "attrs": 8947,
      "Ġvariations": 8948,
      "Arg": 8949,
      "ĠOthers": 8950,
      "SCHED": 8951,
      "ruption": 8952,
      "ĠAndorran": 8953,
      "ANSI": 8954,
      "Ġdebug": 8955,
      "boto": 8956,
      "Ġassumed": 8957,
      "Ġassumption": 8958,
      "Ġopposed": 8959,
      "versions": 8960,
      "Ġfacing": 8961,
      "Ġrandomization": 8962,
      "Ġactivewear": 8963,
      "finals": 8964,
      "Ġ1838": 8965,
      "Ġutils": 8966,
      "Ġhappen": 8967,
      "ĠTroy": 8968,
      "Ġangles": 8969,
      "ospital": 8970,
      "ĠSmall": 8971,
      "ĠDesign": 8972,
      "Ġtreated": 8973,
      "Ġmindfulness": 8974,
      "Ġpackaging": 8975,
      "Ġstarred": 8976,
      "Ġsynthesis": 8977,
      "Ġsurvived": 8978,
      "Ġelectronic": 8979,
      "Ġquantum": 8980,
      "oliday": 8981,
      "Ġabsorbed": 8982,
      "Ġindicator": 8983,
      "Ġanalyze": 8984,
      "Ġ1859": 8985,
      "Ġlinguistic": 8986,
      "ĠMalays": 8987,
      "Ġexperts": 8988,
      "Ġtissues": 8989,
      "Ġlinked": 8990,
      "Ġfootprint": 8991,
      "Ġndarray": 8992,
      "ĠUsing": 8993,
      "ĠTechnology": 8994,
      "\"))[": 8995,
      "Runner": 8996,
      "Ġwildlife": 8997,
      "ĠBrazil": 8998,
      "Ġarrangement": 8999,
      "****************": 9000,
      "Ġobtained": 9001,
      "beanstalk": 9002,
      "width": 9003,
      "Ġsurrounding": 9004,
      "Ġtutorial": 9005,
      "Ġmixture": 9006,
      "Ġphonem": 9007,
      "ĠAgriculture": 9008,
      "Ġneutral": 9009,
      "BlobPreparer": 9010,
      "ĠSeries": 9011,
      "ĠMoscow": 9012,
      "Ġrestaurant": 9013,
      "ABLE": 9014,
      "GetDepartmentIndexByColumn": 9015,
      "Ġstatuettes": 9016,
      "VERS": 9017,
      "Ġsusp": 9018,
      "Ġfrogs": 9019,
      "ĠAleut": 9020,
      "Ġatmosphere": 9021,
      "Ġdisease": 9022,
      "ĠMSocial": 9023,
      "Memory": 9024,
      "Ġ1024": 9025,
      "ĠFurthermore": 9026,
      "Ġchampion": 9027,
      "Alberta": 9028,
      "ĠPeninsula": 9029,
      "ĠRichard": 9030,
      "Ġrailroad": 9031,
      "Ġcircumst": 9032,
      "Ġdestroy": 9033,
      "hmad": 9034,
      "Ġinsect": 9035,
      "Ġmutual": 9036,
      "ĠMindful": 9037,
      "Ġvulnerable": 9038,
      "ĠOptional": 9039,
      "Ġconvenient": 9040,
      "Ġinhabitants": 9041,
      "Ġaquatic": 9042,
      "tencentcs": 9043,
      "Ġcelestial": 9044,
      "layout": 9045,
      "Ġattributes": 9046,
      "Ġpredominantly": 9047,
      "Ġtoppings": 9048,
      "irgin": 9049,
      "Ġunrealistic": 9050,
      "Costume": 9051,
      "ospondyl": 9052,
      "itionToCostume": 9053,
      "SCHEDULE": 9054,
      ")).": 9055,
      ".\")": 9056,
      "/%": 9057,
      "07": 9058,
      "1000": 9059,
      ":</": 9060,
      "AG": 9061,
      "Ab": 9062,
      "Arab": 9063,
      "Back": 9064,
      "CChar": 9065,
      "DATA": 9066,
      "Einstein": 9067,
      "Feed": 9068,
      "God": 9069,
      "Greek": 9070,
      "Ids": 9071,
      "JECT": 9072,
      "Life": 9073,
      "Of": 9074,
      "Per": 9075,
      "Pos": 9076,
      "QL": 9077,
      "Ra": 9078,
      "SH": 9079,
      "SR": 9080,
      "Since": 9081,
      "Schedule": 9082,
      "Semitic": 9083,
      "Tube": 9084,
      "TRIGGER": 9085,
      "UP": 9086,
      "Widget": 9087,
      "\\.": 9088,
      "]\")": 9089,
      "bos": 9090,
      "bered": 9091,
      "copy": 9092,
      "dt": 9093,
      "des": 9094,
      "det": 9095,
      "django": 9096,
      "fe": 9097,
      "human": 9098,
      "jo": 9099,
      "lied": 9100,
      "lins": 9101,
      "mud": 9102,
      "norm": 9103,
      "ools": 9104,
      "rid": 9105,
      "sn": 9106,
      "taking": 9107,
      "target": 9108,
      "wing": 9109,
      "window": 9110,
      "xlabel": 9111,
      "yles": 9112,
      "yctr": 9113,
      "za": 9114,
      "zi": 9115,
      "®ļ": 9116,
      "å¼": 9117,
      "åīį": 9118,
      "æĸ": 9119,
      "īĪ": 9120,
      "ĵį": 9121,
      "inates": 9122,
      "rey": 9123,
      "reference": 9124,
      "atra": 9125,
      "Ġsands": 9126,
      "Ġod": 9127,
      "alism": 9128,
      "alpha": 9129,
      "orator": 9130,
      "itter": 9131,
      "ison": 9132,
      "isenberg": 9133,
      "Ġwoman": 9134,
      "Ġwrap": 9135,
      "Ġwindow": 9136,
      "Ġwitness": 9137,
      "Ġfat": 9138,
      "Ġfine": 9139,
      "Ġfname": 9140,
      "Ġfins": 9141,
      "Ġpan": 9142,
      "Ġpupp": 9143,
      "Ġinher": 9144,
      "Ġinline": 9145,
      "Ġincomp": 9146,
      "icks": 9147,
      "Ġband": 9148,
      "Ġbone": 9149,
      "Ġboard": 9150,
      "Ġbrain": 9151,
      "Ġmud": 9152,
      "elve": 9153,
      "Ġdy": 9154,
      "Ġdut": 9155,
      "Ġdos": 9156,
      "Ġdated": 9157,
      "Ġdens": 9158,
      "Ġdrop": 9159,
      "Ġdiver": 9160,
      "rotic": 9161,
      "lead": 9162,
      "ĠAut": 9163,
      "ĠAth": 9164,
      "ĠAcc": 9165,
      "Ġlosing": 9166,
      "Ġhar": 9167,
      "Ġhous": 9168,
      "Ġhtml": 9169,
      "Ġhaven": 9170,
      "omical": 9171,
      "Ġnc": 9172,
      "Ġnations": 9173,
      "amily": 9174,
      "ilder": 9175,
      "Ġthin": 9176,
      "idas": 9177,
      "iders": 9178,
      "ĠTal": 9179,
      "ĠTra": 9180,
      "ĠTem": 9181,
      "usr": 9182,
      "users": 9183,
      "ivor": 9184,
      "ivals": 9185,
      "utch": 9186,
      "Ġforg": 9187,
      "ĠSur": 9188,
      "ĠSong": 9189,
      "ĠSav": 9190,
      "ifice": 9191,
      "Ġbeings": 9192,
      "Ġgut": 9193,
      "Ġgri": 9194,
      "unk": 9195,
      "Ġstem": 9196,
      "Ġstick": 9197,
      "ĠISO": 9198,
      "ĠIrish": 9199,
      "ĠCur": 9200,
      "ĠCoral": 9201,
      "ĠCura": 9202,
      "Ġ\")": 9203,
      "Ġ\"~": 9204,
      "Ġconjugate": 9205,
      "Ġalle": 9206,
      "isters": 9207,
      "istant": 9208,
      "abited": 9209,
      "veys": 9210,
      "opf": 9211,
      "ĠMasters": 9212,
      "ĠMobile": 9213,
      "Ġvs": 9214,
      "ĠBering": 9215,
      "ounce": 9216,
      "oche": 9217,
      "ocal": 9218,
      "osa": 9219,
      "verify": 9220,
      "ĠPan": 9221,
      "Ġbytes": 9222,
      "ĠHou": 9223,
      "ĠHist": 9224,
      "ĠHay": 9225,
      "ĠHank": 9226,
      "ĠHouse": 9227,
      "Ġhel": 9228,
      "ĠEst": 9229,
      "ĠEmb": 9230,
      "Ġrh": 9231,
      "ĠNever": 9232,
      "ĠNFL": 9233,
      "ĠNathan": 9234,
      "ĠFood": 9235,
      "ĠFlor": 9236,
      "ulture": 9237,
      "ĠDev": 9238,
      "ĠLes": 9239,
      "ĠLike": 9240,
      "ĠLiter": 9241,
      "ĠLittle": 9242,
      "ĠGet": 9243,
      "ĠGold": 9244,
      "illation": 9245,
      "Ġuneth": 9246,
      "Ġunicode": 9247,
      "ĠOj": 9248,
      "ĠOcc": 9249,
      "Ġleague": 9250,
      "Ġchose": 9251,
      "Ġtroub": 9252,
      "Ġworn": 9253,
      "Ġworsh": 9254,
      "conf": 9255,
      "console": 9256,
      "Ġking": 9257,
      "urnal": 9258,
      "Ġcompr": 9259,
      "usters": 9260,
      "uble": 9261,
      "eff": 9262,
      "berjack": 9263,
      "inda": 9264,
      "Ġclients": 9265,
      "Ġclothing": 9266,
      "()]": 9267,
      "ĠAnn": 9268,
      "ĠAnthrop": 9269,
      "ĠKant": 9270,
      ").__": 9271,
      "rying": 9272,
      "Ġpartner": 9273,
      "ĠSte": 9274,
      "ĠStay": 9275,
      "ĠStrait": 9276,
      "lparse": 9277,
[...]
