{
  "version": "1.0",
  "truncation": null,
  "padding": null,
  "added_tokens": [
    {
      "id": 0,
      "content": "<pad>",
      "single_word": false,
      "lstrip": false,
      "rstrip": false,
      "normalized": false,
      "special": true
    },
    {
      "id": 1,
      "content": "<eot_human>",
      "single_word": false,
      "lstrip": false,
      "rstrip": false,
      "normalized": false,
      "special": true
    },
    {
      "id": 2,
      "content": "<eot_model>",
      "single_word": false,
      "lstrip": false,
      "rstrip": false,
      "normalized": false,
      "special": true
    }
  ],
  "normalizer": null,
  "pre_tokenizer": {
    "type": "ByteLevel",
    "add_prefix_space": false,
    "trim_offsets": true,
    "use_regex": true
  },
  "post_processor": {
    "type": "ByteLevel",
    "add_prefix_space": true,
    "trim_offsets": false,
    "use_regex": true
  },
  "decoder": {
    "type": "ByteLevel",
    "add_prefix_space": true,
    "trim_offsets": true,
    "use_regex": true
  },
  "model": {
    "type": "BPE",
    "dropout": null,
    "unk_token": null,
    "continuing_subword_prefix": null,
    "end_of_word_suffix": null,
    "fuse_unk": false,
    "byte_fallback": false,
    "ignore_merges": false,
    "vocab": {
      "<pad>": 0,
      "<eot_human>": 1,
      "<eot_model>": 2,
      "!": 3,
      "\"": 4,
      "#": 5,
      "$": 6,
      "%": 7,
      "&": 8,
      "'": 9,
      "(": 10,
      ")": 11,
      "*": 12,
      "+": 13,
      ",": 14,
      "-": 15,
      ".": 16,
      "/": 17,
      "0": 18,
      "1": 19,
      "2": 20,
      "3": 21,
      "4": 22,
      "5": 23,
      "6": 24,
      "7": 25,
      "8": 26,
      "9": 27,
      ":": 28,
      ";": 29,
      "<": 30,
      "=": 31,
      ">": 32,
      "?": 33,
      "@": 34,
      "A": 35,
      "B": 36,
      "C": 37,
      "D": 38,
      "E": 39,
      "F": 40,
      "G": 41,
      "H": 42,
      "I": 43,
      "J": 44,
      "K": 45,
      "L": 46,
      "M": 47,
      "N": 48,
      "O": 49,
      "P": 50,
      "Q": 51,
      "R": 52,
      "S": 53,
      "T": 54,
      "U": 55,
      "V": 56,
      "W": 57,
      "X": 58,
      "Y": 59,
      "Z": 60,
      "[": 61,
      "\\": 62,
      "]": 63,
      "^": 64,
      "_": 65,
      "`": 66,
      "a": 67,
      "b": 68,
      "c": 69,
      "d": 70,
      "e": 71,
      "f": 72,
      "g": 73,
      "h": 74,
      "i": 75,
      "j": 76,
      "k": 77,
      "l": 78,
      "m": 79,
      "n": 80,
      "o": 81,
      "p": 82,
      "q": 83,
      "r": 84,
      "s": 85,
      "t": 86,
      "u": 87,
      "v": 88,
      "w": 89,
      "x": 90,
      "y": 91,
      "z": 92,
      "{": 93,
      "|": 94,
      "}": 95,
      "~": 96,
      "¡": 97,
      "¢": 98,
      "£": 99,
      "¤": 100,
      "¥": 101,
      "¦": 102,
      "§": 103,
      "¨": 104,
      "©": 105,
      "ª": 106,
      "«": 107,
      "¬": 108,
      "®": 109,
      "¯": 110,
      "°": 111,
      "±": 112,
      "²": 113,
      "³": 114,
      "´": 115,
      "µ": 116,
      "¶": 117,
      "·": 118,
      "¸": 119,
      "¹": 120,
      "º": 121,
      "»": 122,
      "¼": 123,
      "½": 124,
      "¾": 125,
      "¿": 126,
      "À": 127,
      "Á": 128,
      "Â": 129,
      "Ã": 130,
      "Ä": 131,
      "Å": 132,
      "Æ": 133,
      "Ç": 134,
      "È": 135,
      "É": 136,
      "Ê": 137,
      "Ë": 138,
      "Ì": 139,
      "Í": 140,
      "Î": 141,
      "Ï": 142,
      "Ð": 143,
      "Ñ": 144,
      "Ò": 145,
      "Ó": 146,
      "Ô": 147,
      "Õ": 148,
      "Ö": 149,
      "×": 150,
      "Ø": 151,
      "Ù": 152,
      "Ú": 153,
      "Û": 154,
      "Ü": 155,
      "Ý": 156,
      "Þ": 157,
      "ß": 158,
      "à": 159,
      "á": 160,
      "â": 161,
      "ã": 162,
      "ä": 163,
      "å": 164,
      "æ": 165,
      "ç": 166,
      "è": 167,
      "é": 168,
      "ê": 169,
      "ë": 170,
      "ì": 171,
      "í": 172,
      "î": 173,
      "ï": 174,
      "ð": 175,
      "ñ": 176,
      "ò": 177,
      "ó": 178,
      "ô": 179,
      "õ": 180,
      "ö": 181,
      "÷": 182,
      "ø": 183,
      "ù": 184,
      "ú": 185,
      "û": 186,
      "ü": 187,
      "ý": 188,
      "þ": 189,
      "ÿ": 190,
      "Ā": 191,
      "ā": 192,
      "Ă": 193,
      "ă": 194,
      "Ą": 195,
      "ą": 196,
      "Ć": 197,
      "ć": 198,
      "Ĉ": 199,
      "ĉ": 200,
      "Ċ": 201,
      "ċ": 202,
      "Č": 203,
      "č": 204,
      "Ď": 205,
      "ď": 206,
      "Đ": 207,
      "đ": 208,
      "Ē": 209,
      "ē": 210,
      "Ĕ": 211,
      "ĕ": 212,
      "Ė": 213,
      "ė": 214,
      "Ę": 215,
      "ę": 216,
      "Ě": 217,
      "ě": 218,
      "Ĝ": 219,
      "ĝ": 220,
      "Ğ": 221,
      "ğ": 222,
      "Ġ": 223,
      "ġ": 224,
      "Ģ": 225,
      "ģ": 226,
      "Ĥ": 227,
      "ĥ": 228,
      "Ħ": 229,
      "ħ": 230,
      "Ĩ": 231,
      "ĩ": 232,
      "Ī": 233,
      "ī": 234,
      "Ĭ": 235,
      "ĭ": 236,
      "Į": 237,
      "į": 238,
      "İ": 239,
      "ı": 240,
      "Ĳ": 241,
      "ĳ": 242,
      "Ĵ": 243,
      "ĵ": 244,
      "Ķ": 245,
      "ķ": 246,
      "ĸ": 247,
      "Ĺ": 248,
      "ĺ": 249,
      "Ļ": 250,
      "ļ": 251,
      "Ľ": 252,
      "ľ": 253,
      "Ŀ": 254,
      "ŀ": 255,
      "Ł": 256,
      "ł": 257,
      "Ń": 258,
      "Ġa": 259,
      "Ġt": 260,
      "in": 261,
      "re": 262,
      "he": 263,
      "on": 264,
      "Ġc": 265,
      "at": 266,
      "Ġs": 267,
      "nd": 268,
      "er": 269,
      "or": 270,
      "es": 271,
      "ing": 272,
      "en": 273,
      "it": 274,
      "ou": 275,
      "Ġthe": 276,
      "an": 277,
      "Ġp": 278,
      "Ġand": 279,
      "al": 280,
      "Ġm": 281,
      "Ġto": 282,
      "Ġf": 283,
      "Ġw": 284,
      "Ġo": 285,
      "Ġb": 286,
      "ion": 287,
      "Ġin": 288,
      "is": 289,
      "ic": 290,
      "Ġd": 291,
      "le": 292,
      "om": 293,
      "ed": 294,
      "ar": 295,
      "Ġof": 296,
      "Ġe": 297,
      "ve": 298,
      "ent": 299,
      "Ġy": 300,
      "Ġyou": 301,
      "Ġre": 302,
      "ct": 303,
      "Ġth": 304,
      "Ġh": 305,
      "ro": 306,
      "st": 307,
      "Ġl": 308,
      "Ġg": 309,
      "ation": 310,
      "Ġcan": 311,
      "im": 312,
      "el": 313,
      "il": 314,
      "ra": 315,
      "id": 316,
      "Ġn": 317,
      "Ġbe": 318,
      "se": 319,
      "Ġthat": 320,
      "ol": 321,
      "ch": 322,
      "ce": 323,
      "ot": 324,
      "Ġfor": 325,
      "Ġor": 326,
      "ĠI": 327,
      "ers": 328,
      "ow": 329,
      "ul": 330,
      "ay": 331,
      "et": 332,
      "as": 333,
      "Ġu": 334,
      "Ġst": 335,
      "ir": 336,
      "Ġpro": 337,
      "Ġon": 338,
      "if": 339,
      "Ġyour": 340,
      "ess": 341,
      "Ġis": 342,
      "ly": 343,
      "Ġhe": 344,
      "ig": 345,
      "Ġare": 346,
      "Ġsu": 347,
      "ĠT": 348,
      "Ġcon": 349,
      "Ġan": 350,
      "ith": 351,
      "ge": 352,
      "Ġwith": 353,
      "Ġex": 354,
      "Ġha": 355,
      "ver": 356,
      "ment": 357,
      "ies": 358,
      "Ġmo": 359,
      "Ġit": 360,
      "ak": 361,
      "Ġcom": 362,
      "ut": 363,
      "iv": 364,
      "am": 365,
      "ort": 366,
      "ive": 367,
      "Ġas": 368,
      "ity": 369,
      "ĠA": 370,
      "ate": 371,
      "ur": 372,
      "ab": 373,
      "pe": 374,
      "'s": 375,
      "res": 376,
      "Ġal": 377,
      "ial": 378,
      "Ġim": 379,
      "ere": 380,
      "oc": 381,
      "Ġde": 382,
      "her": 383,
      "Ġwh": 384,
      "Ġhave": 385,
      "ions": 386,
      "ome": 387,
      "Ġen": 388,
      "op": 389,
      "Ġv": 390,
      "out": 391,
      "pp": 392,
      "us": 393,
      "Ġimp": 394,
      "ĠS": 395,
      "Ġtheir": 396,
      "nt": 397,
      "ant": 398,
      "Ġne": 399,
      "est": 400,
      "Ġhel": 401,
      "Ġch": 402,
      "age": 403,
      "qu": 404,
      "Ġhelp": 405,
      "em": 406,
      "ad": 407,
      "ist": 408,
      "ure": 409,
      "Ġint": 410,
      "ĠC": 411,
      "th": 412,
      "ect": 413,
      "ations": 414,
      "Ġle": 415,
      "ain": 416,
      "un": 417,
      "Ġr": 418,
      "ip": 419,
      "oo": 420,
      "are": 421,
      "Ġexp": 422,
      "ust": 423,
      "ac": 424,
      "iz": 425,
      "Ġwor": 426,
      "ĠH": 427,
      "ill": 428,
      "Ġfe": 429,
      "ide": 430,
      "ie": 431,
      "ther": 432,
      "art": 433,
      "rom": 434,
      "igh": 435,
      "ake": 436,
      "os": 437,
      "Ġsh": 438,
      "og": 439,
      "ud": 440,
      "Ġse": 441,
      "ind": 442,
      "reat": 443,
      "Ġsome": 444,
      "our": 445,
      "able": 446,
      "ĠThe": 447,
      "ld": 448,
      "Ġad": 449,
      "ces": 450,
      "Ġmore": 451,
      "ult": 452,
      "Ġte": 453,
      "Ġinc": 454,
      "ke": 455,
      "ang": 456,
      "and": 457,
      "ical": 458,
      "act": 459,
      "ff": 460,
      "Ġpl": 461,
      "du": 462,
      "ance": 463,
      "all": 464,
      "Ġab": 465,
      "Ġother": 466,
      "ĠP": 467,
      "orm": 468,
      "ĠB": 469,
      "Ġres": 470,
      "ual": 471,
      "Ġpers": 472,
      "Ġcomp": 473,
      "Ġnot": 474,
      "ib": 475,
      "pt": 476,
      "Ġmay": 477,
      "cess": 478,
      "ress": 479,
      "ien": 480,
      "ĠD": 481,
      "Ġcomm": 482,
      "Ġem": 483,
      "Ġwork": 484,
      "vel": 485,
      "ful": 486,
      "ĠM": 487,
      "Ġus": 488,
      "Ġtr": 489,
      "form": 490,
      "Ġac": 491,
      "rou": 492,
      "ter": 493,
      "ĠTh": 494,
      "ight": 495,
      "pl": 496,
      "Ġj": 497,
      "Ġany": 498,
      "fere": 499,
      "ities": 500,
      "um": 501,
      "Ġtra": 502,
      "Ġsuch": 503,
      "ine": 504,
      "ĠR": 505,
      "ould": 506,
      "ional": 507,
      "Ġcont": 508,
      "Ġdif": 509,
      "Ġperson": 510,
      "Ġprov": 511,
      "Ġman": 512,
      "Ġfrom": 513,
      "Ġind": 514,
      "ĠE": 515,
      "ign": 516,
      "ract": 517,
      "ard": 518,
      "ĠThis": 519,
      "Ġby": 520,
      "ore": 521,
      "Ġdo": 522,
      "ice": 523,
      "ĠW": 524,
      "Ġthem": 525,
      "ific": 526,
      "Ġexper": 527,
      "ag": 528,
      "ime": 529,
      "angu": 530,
      "ĠIt": 531,
      "chn": 532,
      "Ġat": 533,
      "Ġlangu": 534,
      "Ġmod": 535,
      "so": 536,
      "Ġthey": 537,
      "ep": 538,
      "ous": 539,
      "gh": 540,
      "Ġli": 541,
      "Ġwhe": 542,
      "Ġpe": 543,
      "ĠF": 544,
      "Ġpre": 545,
      "ĠAI": 546,
      "Ġlanguage": 547,
      "Ġabout": 548,
      "Ġalso": 549,
      "Ġimport": 550,
      "dit": 551,
      "Ġme": 552,
      "Ġrel": 553,
      "nder": 554,
      "alth": 555,
      "Ġact": 556,
      "ach": 557,
      "Ġtechn": 558,
      "pport": 559,
      "Ġev": 560,
      "Ġbut": 561,
      "ell": 562,
      "Ġspe": 563,
      "Ġar": 564,
      "'t": 565,
      "Ġway": 566,
      "Ġall": 567,
      "ile": 568,
      "olog": 569,
      "ack": 570,
      "Ġapp": 571,
      "Ġdiffere": 572,
      "Ġwe": 573,
      "Ġexperien": 574,
      "Ġtime": 575,
      "ich": 576,
      "Ġpersonal": 577,
      "Ġcommun": 578,
      "ople": 579,
      "one": 580,
      "Ġhow": 581,
      "ood": 582,
      "ments": 583,
      "Ġsoc": 584,
      "Ġthere": 585,
      "Ġdis": 586,
      "Ġgo": 587,
      "Ġimportant": 588,
      "Ġhealth": 589,
      "Ġmed": 590,
      "ely": 591,
      "Ġcons": 592,
      "Ġincl": 593,
      "Ġeff": 594,
      "Ġrec": 595,
      "Ġcl": 596,
      "ness": 597,
      "Ġmodel": 598,
      "ild": 599,
      "ans": 600,
      "ong": 601,
      "ility": 602,
      "Ġpeople": 603,
      "elf": 604,
      "ink": 605,
      "ors": 606,
      "ast": 607,
      "ru": 608,
      "ĠL": 609,
      "Ġun": 610,
      "ue": 611,
      "od": 612,
      "Ġlike": 613,
      "ace": 614,
      "Ġout": 615,
      "Ġnew": 616,
      "Ġgam": 617,
      "As": 618,
      "Ġhas": 619,
      "ĠG": 620,
      "Ġpart": 621,
      "ips": 622,
      "aking": 623,
      "Ġthese": 624,
      "Ġmake": 625,
      "Ġwhich": 626,
      "ĠU": 627,
      "Ġoff": 628,
      "ings": 629,
      "ated": 630,
      "Ġdifferent": 631,
      "velop": 632,
      "Ġover": 633,
      "pect": 634,
      "Ġfeel": 635,
      "ry": 636,
      "ular": 637,
      "Ġpol": 638,
      "ks": 639,
      "oy": 640,
      "ential": 641,
      "Ġunder": 642,
      "Ġwill": 643,
      "Ġpos": 644,
      "Ġneed": 645,
      "av": 646,
      "Ġinv": 647,
      "Ġinclud": 648,
      "ices": 649,
      "ever": 650,
      "arn": 651,
      "ount": 652,
      "ating": 653,
      "erv": 654,
      "Ġuse": 655,
      "Ġcre": 656,
      "ire": 657,
      "Ġdevelop": 658,
      "ivid": 659,
      "Ġpract": 660,
      "ents": 661,
      "Ġso": 662,
      "Ġwho": 663,
      "Ġprovide": 664,
      "ividual": 665,
      "Ġk": 666,
      "Ġsp": 667,
      "ĠHow": 668,
      "Ġart": 669,
      "Ġsc": 670,
      "ert": 671,
      "Ġpr": 672,
      "nds": 673,
      "Ġcult": 674,
      "Ġindividual": 675,
      "Ġtechnolog": 676,
      "ber": 677,
      "Ġup": 678,
      "cial": 679,
      "end": 680,
      "iet": 681,
      "ms": 682,
      "ize": 683,
      "Ġop": 684,
      "stand": 685,
      "king": 686,
      "Ġqu": 687,
      "ia": 688,
      "ons": 689,
      "Ġper": 690,
      "Ġthink": 691,
      "Ġsupport": 692,
      "oll": 693,
      "ural": 694,
      "Ġsocial": 695,
      "Ġsk": 696,
      "ues": 697,
      "ary": 698,
      "Ġif": 699,
      "ail": 700,
      "Ġmany": 701,
      "hy": 702,
      "ious": 703,
      "ens": 704,
      "Ġexam": 705,
      "duct": 706,
      "Ġmind": 707,
      "now": 708,
      "als": 709,
      "ost": 710,
      "lic": 711,
      "ass": 712,
      "Ġmy": 713,
      "Ġlearn": 714,
      "Ġcreat": 715,
      "ater": 716,
      "ange": 717,
      "erest": 718,
      "Ġreg": 719,
      "cis": 720,
      "Ġwhen": 721,
      "ts": 722,
      "Ġprog": 723,
      "ures": 724,
      "ĠIn": 725,
      "ative": 726,
      "Ġadv": 727,
      "Ġimpro": 728,
      "ĠHowever": 729,
      "Ġunderstand": 730,
      "its": 731,
      "Ġro": 732,
      "Ġimpact": 733,
      "Ġsee": 734,
      "Ġacc": 735,
      "Ġbet": 736,
      "ocus": 737,
      "Ġdon": 738,
      "ible": 739,
      "Ġfind": 740,
      "ĠO": 741,
      "Ġinterest": 742,
      "omm": 743,
      "Ġreal": 744,
      "Ġinform": 745,
      "Ġlead": 746,
      "Ġke": 747,
      "Ġca": 748,
      "ĠDo": 749,
      "les": 750,
      "hat": 751,
      "iqu": 752,
      "Ġredu": 753,
      "ck": 754,
      "ditional": 755,
      "ose": 756,
      "ern": 757,
      "Ġ-": 758,
      "ob": 759,
      "Ġgreat": 760,
      "rough": 761,
      "lect": 762,
      "ased": 763,
      "gg": 764,
      "Ġwhat": 765,
      "get": 766,
      "itive": 767,
      "ics": 768,
      "ef": 769,
      "Ġspec": 770,
      "ting": 771,
      "very": 772,
      "Ġdes": 773,
      "Ġtechnology": 774,
      "uring": 775,
      "Ġwhile": 776,
      "Ġcreate": 777,
      "row": 778,
      "Ġatt": 779,
      "Ġstr": 780,
      "Ġtips": 781,
      "Ġsm": 782,
      "Ġjust": 783,
      "ider": 784,
      "Ġeng": 785,
      "Ġsign": 786,
      "hing": 787,
      "erg": 788,
      "Ġeffect": 789,
      "ence": 790,
      "iness": 791,
      "Ġens": 792,
      "Ġval": 793,
      "Ġshould": 794,
      "ates": 795,
      "Ġused": 796,
      "Ġbel": 797,
      "ub": 798,
      "Ġproduct": 799,
      "ory": 800,
      "Ġone": 801,
      "The": 802,
      "ĠSt": 803,
      "ĠN": 804,
      "rap": 805,
      "Ġgen": 806,
      "rit": 807,
      "allen": 808,
      "Ġsa": 809,
      "Ġbu": 810,
      "Ġfocus": 811,
      "ember": 812,
      "Ġsy": 813,
      "Ġav": 814,
      "Ġtake": 815,
      "ife": 816,
      "iron": 817,
      "Ġbec": 818,
      "ources": 819,
      "ving": 820,
      "ren": 821,
      "ple": 822,
      "Ġcould": 823,
      "ark": 824,
      "Ġprom": 825,
      "ree": 826,
      "gan": 827,
      "ough": 828,
      "Ġtry": 829,
      "Ġknow": 830,
      "Ġplay": 831,
      "Ġmus": 832,
      "ior": 833,
      "line": 834,
      "Ġchallen": 835,
      "Yes": 836,
      "viron": 837,
      "cy": 838,
      "ient": 839,
      "ase": 840,
      "Ġthrough": 841,
      "iew": 842,
      "Ġexperience": 843,
      "Ġcompan": 844,
      "It": 845,
      "Ġwell": 846,
      "Ġinto": 847,
      "Ġam": 848,
      "we": 849,
      "self": 850,
      "Ġindividuals": 851,
      "Ġbelie": 852,
      "fore": 853,
      "Ġmedia": 854,
      "Ġenviron": 855,
      "Ġide": 856,
      "Ġpot": 857,
      "Ġris": 858,
      "stem": 859,
      "Ġincre": 860,
      "ten": 861,
      "Ġthis": 862,
      "Ġimprove": 863,
      "Ġfew": 864,
      "Ġadd": 865,
      "Ġprocess": 866,
      "iety": 867,
      "Ġag": 868,
      "Ġactiv": 869,
      "Ġgu": 870,
      "Ġemot": 871,
      "Ġinformation": 872,
      "Ġrelations": 873,
      "con": 874,
      "Ġprot": 875,
      "ives": 876,
      "Ġresp": 877,
      "ll": 878,
      "ĠHere": 879,
      "Ġspecific": 880,
      "Ġget": 881,
      "Ġrelationsh": 882,
      "Ġinf": 883,
      "Ġensure": 884,
      "Ġdisc": 885,
      "Ġbus": 886,
      "ward": 887,
      "Ġrequ": 888,
      "way": 889,
      "Ġcommunic": 890,
      "Ġpromot": 891,
      "Ġgood": 892,
      "ploy": 893,
      "Ġprogra": 894,
      "Ġorgan": 895,
      "Ġrem": 896,
      "Ġenvironment": 897,
      "ne": 898,
      "Ġothers": 899,
      "ĠY": 900,
      "round": 901,
      "cing": 902,
      "arch": 903,
      "ower": 904,
      "Ġpotential": 905,
      "Ġoffer": 906,
      "Ġiss": 907,
      "Ġsignific": 908,
      "Ġfr": 909,
      "Ġco": 910,
      "Ġins": 911,
      "Ġexperiences": 912,
      "Ġopt": 913,
      "led": 914,
      "ident": 915,
      "Ġloc": 916,
      "wn": 917,
      "Ġprovid": 918,
      "enef": 919,
      "Ġoften": 920,
      "Ġprof": 921,
      "Ġnat": 922,
      "Ġbusiness": 923,
      "ap": 924,
      "ware": 925,
      "Ġcol": 926,
      "ational": 927,
      "ced": 928,
      "ook": 929,
      "Ġty": 930,
      "Ġbenef": 931,
      "Ġ\"": 932,
      "Ġcare": 933,
      "ertain": 934,
      "Ġhigh": 935,
      "ĠĊ": 936,
      "nect": 937,
      "Ġincluding": 938,
      "Ġyourself": 939,
      "Ġstay": 940,
      "Ġpositive": 941,
      "Ġusing": 942,
      "Ġrecomm": 943,
      "Ġchalleng": 944,
      "ject": 945,
      "ĠV": 946,
      "Ġbeen": 947,
      "Ġsignificant": 948,
      "Ġrecommend": 949,
      "ord": 950,
      "Ġmost": 951,
      "Ġbeing": 952,
      "Ġself": 953,
      "Ġpop": 954,
      "Ġaccess": 955,
      "Ġment": 956,
      "Ġfin": 957,
      "oth": 958,
      "Ġappro": 959,
      "Ġmindful": 960,
      "Ġlong": 961,
      "ists": 962,
      "Ġgoals": 963,
      "Ġits": 964,
      "Ġgame": 965,
      "Ġinst": 966,
      "Ġinvest": 967,
      "Ġreduce": 968,
      "Ġserv": 969,
      "Ġown": 970,
      "ound": 971,
      "oura": 972,
      "uc": 973,
      "Ġways": 974,
      "ily": 975,
      "Ġvar": 976,
      "Ġkeep": 977,
      "use": 978,
      "ples": 979,
      "ite": 980,
      "Ġduring": 981,
      "Ġstart": 982,
      "Ġass": 983,
      "ining": 984,
      "Ġinter": 985,
      "Ġgrow": 986,
      "old": 987,
      "ner": 988,
      "ify": 989,
      "Ġskill": 990,
      "Ġresources": 991,
      "Ġdesign": 992,
      "oid": 993,
      "Ġemploy": 994,
      "Ġpat": 995,
      "Ġwas": 996,
      "Ġallow": 997,
      "ves": 998,
      "Ġbuild": 999,
      "Ġinvol": 1000,
      "Ġtrans": 1001,
      "ique": 1002,
      "Ġbefore": 1003,
      "Ġonline": 1004,
      "ized": 1005,
      "Ġcomple": 1006,
      "Ġbest": 1007,
      "Ġsaf": 1008,
      "Ġmaking": 1009,
      "Ġsystem": 1010,
      "Ġset": 1011,
      "ns": 1012,
      "ps": 1013,
      "Ġevery": 1014,
      "emember": 1015,
      "Ġeach": 1016,
      "ata": 1017,
      "Ġbre": 1018,
      "Ġconc": 1019,
      "Ġ2": 1020,
      "ĠAd": 1021,
      "Ġess": 1022,
      "Ġopin": 1023,
      "Ġbelief": 1024,
      "Ġour": 1025,
      "Ġworld": 1026,
      "Ġmusic": 1027,
      "ability": 1028,
      "Ġeven": 1029,
      "Ġlife": 1030,
      "ism": 1031,
      "Ġthan": 1032,
      "Ġwhere": 1033,
      "Ġprotect": 1034,
      "ccess": 1035,
      "ĠRe": 1036,
      "Ġfam": 1037,
      "Ġconnect": 1038,
      "ish": 1039,
      "'m": 1040,
      "coura": 1041,
      "ise": 1042,
      "Ġfl": 1043,
      "ved": 1044,
      "Ġident": 1045,
      "ars": 1046,
      "Ġmanage": 1047,
      "int": 1048,
      "cept": 1049,
      "ality": 1050,
      "vent": 1051,
      "Ġneg": 1052,
      "Ġessential": 1053,
      "Ġeffective": 1054,
      "Ġshow": 1055,
      "Ġexpl": 1056,
      "Ġed": 1057,
      "Ġcust": 1058,
      "Ġdata": 1059,
      "ollow": 1060,
      "ergy": 1061,
      "Ġhum": 1062,
      "ggest": 1063,
      "Ġexample": 1064,
      "Ġgener": 1065,
      "wor": 1066,
      "hys": 1067,
      "ience": 1068,
      "Ġsuggest": 1069,
      "ĠIf": 1070,
      "ri": 1071,
      "ict": 1072,
      "Ġpractice": 1073,
      "Ġcontin": 1074,
      "Ġlearning": 1075,
      "ense": 1076,
      "Ġpolic": 1077,
      "Ġorganiz": 1078,
      "hes": 1079,
      "Ġmot": 1080,
      "Ġconf": 1081,
      "Ġaff": 1082,
      "Ġfact": 1083,
      "Ġgrou": 1084,
      "ibility": 1085,
      "Ġperform": 1086,
      "ade": 1087,
      "Ġchange": 1088,
      "Ġsuccess": 1089,
      "Ġindust": 1090,
      "ately": 1091,
      "Ġneeds": 1092,
      "Ġchild": 1093,
      "atform": 1094,
      "Ġpopular": 1095,
      "olut": 1096,
      "Ġrep": 1097,
      "stain": 1098,
      "ĠEn": 1099,
      "Ġbeliefs": 1100,
      "nding": 1101,
      "Ġpartic": 1102,
      "omet": 1103,
      "Ġthose": 1104,
      "Ġtool": 1105,
      "Ġright": 1106,
      "Ġsustain": 1107,
      "Ġplan": 1108,
      "ercis": 1109,
      "Ġstud": 1110,
      "'re": 1111,
      "Ġvis": 1112,
      "akes": 1113,
      "ivers": 1114,
      "Ġ(": 1115,
      "ick": 1116,
      "ivity": 1117,
      "ond": 1118,
      "ways": 1119,
      "Ġfinan": 1120,
      "Ġeas": 1121,
      "Ġissues": 1122,
      "Ġbra": 1123,
      "essional": 1124,
      "Ġpolit": 1125,
      "Ġskills": 1126,
      "Ġcustom": 1127,
      "nces": 1128,
      "Ġcle": 1129,
      "Ġchang": 1130,
      "ries": 1131,
      "Ġposs": 1132,
      "Ġbetter": 1133,
      "Ġphys": 1134,
      "Ġlo": 1135,
      "Ġplatform": 1136,
      "Ġinclude": 1137,
      "arket": 1138,
      "Ġinfl": 1139,
      "Ġfut": 1140,
      "wards": 1141,
      "Ġsmall": 1142,
      "ĠBe": 1143,
      "Ġconsider": 1144,
      "cur": 1145,
      "Ġstill": 1146,
      "ĠThey": 1147,
      "Ġmem": 1148,
      "Ġenergy": 1149,
      "ruct": 1150,
      "Ġactivities": 1151,
      "Ġcommunication": 1152,
      "Ġexamples": 1153,
      "Ġeduc": 1154,
      "Ġfuture": 1155,
      "Ġche": 1156,
      "Ġrespons": 1157,
      "care": 1158,
      "ally": 1159,
      "pportun": 1160,
      "ween": 1161,
      "arent": 1162,
      "ĠUse": 1163,
      "Ġbetween": 1164,
      "Ġstress": 1165,
      "ody": 1166,
      "Ġprofessional": 1167,
      "ĠCh": 1168,
      "orts": 1169,
      "Ġopportun": 1170,
      "Ġcount": 1171,
      "Ġexercis": 1172,
      "conom": 1173,
      "ĠYou": 1174,
      "vers": 1175,
      "In": 1176,
      "Ġrese": 1177,
      "Ġdevelopment": 1178,
      "ĠThese": 1179,
      "Ġfollow": 1180,
      "Ġunique": 1181,
      "Ġcultural": 1182,
      "Ġbr": 1183,
      "arm": 1184,
      "Ġmain": 1185,
      "ĠSome": 1186,
      "hen": 1187,
      "ically": 1188,
      "Ġnatural": 1189,
      "How": 1190,
      "ateg": 1191,
      "ss": 1192,
      "ble": 1193,
      "ines": 1194,
      "rib": 1195,
      "ĠK": 1196,
      "Ġlevel": 1197,
      "Ġtyp": 1198,
      "tain": 1199,
      "ĠJ": 1200,
      "Ġmarket": 1201,
      "joy": 1202,
      "Ġcommunity": 1203,
      "'ll": 1204,
      "ather": 1205,
      "iss": 1206,
      "Ġprevent": 1207,
      "bs": 1208,
      "Ġbeh": 1209,
      "Ġbenefits": 1210,
      "aging": 1211,
      "Ġbl": 1212,
      "Ġopinions": 1213,
      "Ġemp": 1214,
      "Ġcompanies": 1215,
      "ublic": 1216,
      "back": 1217,
      "ĠBy": 1218,
      "ĠFor": 1219,
      "Ġdiff": 1220,
      "isten": 1221,
      "red": 1222,
      "Ġsit": 1223,
      "vern": 1224,
      "ition": 1225,
      "Ġnegative": 1226,
      "Ġdef": 1227,
      "ax": 1228,
      "per": 1229,
      "Ġday": 1230,
      "Ġwithout": 1231,
      "fort": 1232,
      "Ġsure": 1233,
      "Ġrequire": 1234,
      "Ġexc": 1235,
      "Ġhere": 1236,
      "resent": 1237,
      "Ġalways": 1238,
      "Ġ3": 1239,
      "Ġunderstanding": 1240,
      "Ġshare": 1241,
      "Ġpractices": 1242,
      "Ġstrateg": 1243,
      "Ġdet": 1244,
      "Ġdecis": 1245,
      "Ġboth": 1246,
      "Ġaccount": 1247,
      "Ġemploye": 1248,
      "por": 1249,
      "Ġtowards": 1250,
      "chie": 1251,
      "Ġsim": 1252,
      "verall": 1253,
      "Ġbecome": 1254,
      "Ġdepe": 1255,
      "Ġfeat": 1256,
      "Ġculture": 1257,
      "Ġguid": 1258,
      "Ġdem": 1259,
      "ages": 1260,
      "Ġresearch": 1261,
      "Ġprior": 1262,
      "Ġwater": 1263,
      "icult": 1264,
      "Ġteam": 1265,
      "Ġhealthy": 1266,
      "Ġachie": 1267,
      "Ġra": 1268,
      "Ġavoid": 1269,
      "xt": 1270,
      "Ġfun": 1271,
      "Ġref": 1272,
      "abor": 1273,
      "itation": 1274,
      "Ġcommunities": 1275,
      "Ġaddress": 1276,
      "Ġenjoy": 1277,
      "Ġfood": 1278,
      "Ġgaming": 1279,
      "Ġsever": 1280,
      "Ġprograms": 1281,
      "Ġgra": 1282,
      "Ġcommon": 1283,
      "Ġpo": 1284,
      "Ġevents": 1285,
      "Ġemotions": 1286,
      "ribut": 1287,
      "ditionally": 1288,
      "ning": 1289,
      "Ġwant": 1290,
      "ame": 1291,
      "Ġbal": 1292,
      "Ġlim": 1293,
      "Ġent": 1294,
      "Ġlocal": 1295,
      "erm": 1296,
      "Ġrisk": 1297,
      "Ġmin": 1298,
      "Ġdow": 1299,
      "Ġsur": 1300,
      "Ġpur": 1301,
      "imes": 1302,
      "Ġoptions": 1303,
      "Ġback": 1304,
      "Ġeconom": 1305,
      "Ġinflu": 1306,
      "ited": 1307,
      "Ġmade": 1308,
      "Ġpublic": 1309,
      "Ġgl": 1310,
      "Ġfinancial": 1311,
      "ials": 1312,
      "Ġrev": 1313,
      "Ġsense": 1314,
      "Ġgrowth": 1315,
      "ov": 1316,
      "ases": 1317,
      "Ġpossible": 1318,
      "Ġ1": 1319,
      "Ġrole": 1320,
      "Ġphysical": 1321,
      "Ġfeed": 1322,
      "Ġpromote": 1323,
      "Ġbased": 1324,
      "Ġmotiv": 1325,
      "Ġpower": 1326,
      "Ġprefere": 1327,
      "Ġskin": 1328,
      "not": 1329,
      "Ġaut": 1330,
      "Ġno": 1331,
      "Ġjob": 1332,
      "uch": 1333,
      "ogn": 1334,
      "Ġbreak": 1335,
      "Ġseveral": 1336,
      "Ġwould": 1337,
      "Ġtherap": 1338,
      "Ġwere": 1339,
      "Ġmindfulness": 1340,
      "Ġtaking": 1341,
      "ances": 1342,
      "Ġopen": 1343,
      "Ġideas": 1344,
      "ave": 1345,
      "aly": 1346,
      "Ġcertain": 1347,
      "Ġperspect": 1348,
      "Ġapproach": 1349,
      "Ġtraining": 1350,
      "Ġbehav": 1351,
      "Ġfrie": 1352,
      "What": 1353,
      "Ġcur": 1354,
      "Ġcoll": 1355,
      "courage": 1356,
      "oose": 1357,
      "ination": 1358,
      "Ġbody": 1359,
      "Ġthough": 1360,
      "Ġdr": 1361,
      "Ġstre": 1362,
      "Ġsomet": 1363,
      "Ġrelig": 1364,
      "Ġindustry": 1365,
      "Ġsomeone": 1366,
      "Ġfactors": 1367,
      "Ġmove": 1368,
      "Ġcreating": 1369,
      "Ġregular": 1370,
      "Ġdi": 1371,
      "Ġmental": 1372,
      "Ġstep": 1373,
      "Ġaware": 1374,
      "Ġrelationships": 1375,
      "aring": 1376,
      "Ġdist": 1377,
      "Ġrespect": 1378,
      "Ġtravel": 1379,
      "Ġtraditional": 1380,
      "imately": 1381,
      "ilities": 1382,
      "Ġsustainable": 1383,
      "Ġsitu": 1384,
      "Ġaud": 1385,
      "Ġtoo": 1386,
      "Ġform": 1387,
      "Ġincrease": 1388,
      "Ġrelationship": 1389,
      "Overall": 1390,
      "iving": 1391,
      "Ġproducts": 1392,
      "Ġdifficult": 1393,
      "Ġaf": 1394,
      "Ġservices": 1395,
      "hile": 1396,
      "Ġgovern": 1397,
      "Ġavail": 1398,
      "Ġorganizations": 1399,
      "com": 1400,
      "Ġmon": 1401,
      "Ġresult": 1402,
      "mm": 1403,
      "Ġaround": 1404,
      "Ġve": 1405,
      "Ġmight": 1406,
      "Ġexpress": 1407,
      "Ġmaintain": 1408,
      "ier": 1409,
      "Ġmult": 1410,
      "be": 1411,
      "ric": 1412,
      "Ġph": 1413,
      "Ġchanges": 1414,
      "Ġchar": 1415,
      "Ġconcern": 1416,
      "Ġmater": 1417,
      "Ġopportunities": 1418,
      "imate": 1419,
      "acy": 1420,
      "air": 1421,
      "ft": 1422,
      "orpor": 1423,
      "Ġvalues": 1424,
      "ian": 1425,
      "Ġfeedback": 1426,
      "Ġcar": 1427,
      "Ġgive": 1428,
      "Ġmuch": 1429,
      "Ġsub": 1430,
      "lement": 1431,
      "Ġgames": 1432,
      "Ġchallenges": 1433,
      "Ġpolitical": 1434,
      "Ġhuman": 1435,
      "Ġworks": 1436,
      "Ġbi": 1437,
      "Ġhand": 1438,
      "Ġidentify": 1439,
      "Ġview": 1440,
      "Ġfamily": 1441,
      "Ġparent": 1442,
      "Ġmet": 1443,
      "Ġcompany": 1444,
      "work": 1445,
      "iques": 1446,
      "Ġtreat": 1447,
      "ital": 1448,
      "Ġquest": 1449,
      "Ġcontro": 1450,
      "Ġrecommendations": 1451,
      "Ġgroups": 1452,
      "Ġoffers": 1453,
      "ĠPro": 1454,
      "ually": 1455,
      "oring": 1456,
      "Ġeducation": 1457,
      "Ġplatforms": 1458,
      "Ġcontribut": 1459,
      "Ġpriorit": 1460,
      "ditions": 1461,
      "Ġpreferences": 1462,
      "Ġreally": 1463,
      "Ġemotional": 1464,
      "Ġsty": 1465,
      "Ġproble": 1466,
      "ĠMan": 1467,
      "Ġtechniques": 1468,
      "Ġbusinesses": 1469,
      "Can": 1470,
      "ĠAs": 1471,
      "Ġcal": 1472,
      "Ġgr": 1473,
      "Ġvarious": 1474,
      "Ġhelps": 1475,
      "Ġsociety": 1476,
      "Ġdown": 1477,
      "ĠUn": 1478,
      "Ġengage": 1479,
      "Ġthings": 1480,
      "Ġcomfort": 1481,
      "ead": 1482,
      "Ġbreat": 1483,
      "Ġdoes": 1484,
      "Ġcontent": 1485,
      "Ġareas": 1486,
      "Ġdev": 1487,
      "Ġclass": 1488,
      "Ġtoget": 1489,
      "These": 1490,
      "ĠAdditionally": 1491,
      "Ġtogether": 1492,
      "ied": 1493,
      "ants": 1494,
      "Ġpolicies": 1495,
      "Ġdefin": 1496,
      "Ġcour": 1497,
      "Ġprogress": 1498,
      "Ġhist": 1499,
      "iven": 1500,
      "curity": 1501,
      "That": 1502,
      "Ġob": 1503,
      "Ġmeditation": 1504,
      "Ġavailable": 1505,
      "gin": 1506,
      "amp": 1507,
      "Ġfu": 1508,
      "Ġanaly": 1509,
      "oss": 1510,
      "Ġtools": 1511,
      "Ġemployees": 1512,
      "Ġnecess": 1513,
      "Ġregul": 1514,
      "Ġsou": 1515,
      "Ġtrust": 1516,
      "iversity": 1517,
      "Ġeth": 1518,
      "ling": 1519,
      "Ġla": 1520,
      "Ġdeep": 1521,
      "Ġ4": 1522,
      "Ġcrit": 1523,
      "Ġcost": 1524,
      "Ġartists": 1525,
      "Ġcontinue": 1526,
      "Ġfeatures": 1527,
      "Ġmat": 1528,
      "ention": 1529,
      "Ġ5": 1530,
      "Ġrest": 1531,
      "ering": 1532,
      "Ġful": 1533,
      "tern": 1534,
      "Ġmeet": 1535,
      "Ġfeelings": 1536,
      "Ġes": 1537,
      "Ġidea": 1538,
      "Ġtransp": 1539,
      "Ġhome": 1540,
      "Ġperformance": 1541,
      "Ġstrategies": 1542,
      "Ġread": 1543,
      "els": 1544,
      "ered": 1545,
      "ĠTake": 1546,
      "Ġtour": 1547,
      "ĠThere": 1548,
      "Remember": 1549,
      "Ġrange": 1550,
      "Ġhad": 1551,
      "Ġbalance": 1552,
      "Ġtas": 1553,
      "Ġtre": 1554,
      "Ġimm": 1555,
      "Ġkey": 1556,
      "ires": 1557,
      "itely": 1558,
      "Ġrout": 1559,
      "Ġafter": 1560,
      "Ġcannot": 1561,
      "ories": 1562,
      "ety": 1563,
      "Ġext": 1564,
      "reng": 1565,
      "Ġequ": 1566,
      "ger": 1567,
      "Ġinteract": 1568,
      "Ġcomplex": 1569,
      "Ġaffect": 1570,
      "bers": 1571,
      "read": 1572,
      "ledge": 1573,
      "eg": 1574,
      "Ġlisten": 1575,
      "ĠCons": 1576,
      "Ġrecogn": 1577,
      "ems": 1578,
      "Ġmean": 1579,
      "Ġcreative": 1580,
      "Ġbehavior": 1581,
      "ee": 1582,
      "âĢ": 1583,
      "Ġlik": 1584,
      "Ġinteresting": 1585,
      "iting": 1586,
      "Ġge": 1587,
      "avor": 1588,
      "Ġinn": 1589,
      "Ġdefinitely": 1590,
      "az": 1591,
      "ross": 1592,
      "Ġoverall": 1593,
      "Ġdec": 1594,
      "Ġchallenging": 1595,
      "Ġspace": 1596,
      "alk": 1597,
      "ash": 1598,
      "Ġimplement": 1599,
      "irt": 1600,
      "Ġplace": 1601,
      "Sure": 1602,
      "nce": 1603,
      "olution": 1604,
      "ven": 1605,
      "Ġstrong": 1606,
      "ĠRemember": 1607,
      "irst": 1608,
      "Ġquality": 1609,
      "Ġmanagement": 1610,
      "Ġconcerns": 1611,
      "Ġec": 1612,
      "Ġtypes": 1613,
      "Ġprioritize": 1614,
      "Ġclear": 1615,
      "Ġjour": 1616,
      "te": 1617,
      "Ġsl": 1618,
      "Ġrisks": 1619,
      "Ġrele": 1620,
      "asing": 1621,
      "Ġsafety": 1622,
      "over": 1623,
      "Ġagree": 1624,
      "Ġcome": 1625,
      "Ġcollabor": 1626,
      "iate": 1627,
      "Ġstreng": 1628,
      "Ġhelpful": 1629,
      "Ġeveryone": 1630,
      "ins": 1631,
      "Ġintern": 1632,
      "Ġinterests": 1633,
      "Ġparticular": 1634,
      "Ġfi": 1635,
      "ote": 1636,
      "place": 1637,
      "'ve": 1638,
      "Ġinnov": 1639,
      "ah": 1640,
      "eld": 1641,
      "lt": 1642,
      "Ġconst": 1643,
      "Ġproviding": 1644,
      "Ġstory": 1645,
      "ĠInd": 1646,
      "br": 1647,
      "ool": 1648,
      "hed": 1649,
      "Ġsystems": 1650,
      "Ġempat": 1651,
      "Ġworking": 1652,
      "Ġmaterials": 1653,
      "ĠAm": 1654,
      "Ġcountries": 1655,
      "Ġvide": 1656,
      "Ġproject": 1657,
      "ĠEx": 1658,
      "Ġonly": 1659,
      "Ġtest": 1660,
      "Ġye": 1661,
      "Ġsteps": 1662,
      "hip": 1663,
      "ĠCon": 1664,
      "Ġsuggestions": 1665,
      "Ġlove": 1666,
      "Ġelect": 1667,
      "Ġlar": 1668,
      "ights": 1669,
      "icing": 1670,
      "Ġconvers": 1671,
      "Ġmeas": 1672,
      "Ġable": 1673,
      "Ġactions": 1674,
      "Ġinclus": 1675,
      "Ġexercise": 1676,
      "Ġsomething": 1677,
      "ĠPract": 1678,
      "Ġhealthcare": 1679,
      "Ġconflic": 1680,
      "Ġfree": 1681,
      "Ġclimate": 1682,
      "Ġcontrol": 1683,
      "Ġend": 1684,
      "Ġret": 1685,
      "Ġincorpor": 1686,
      "Ġcor": 1687,
      "Ġmis": 1688,
      "Ġharm": 1689,
      "Ġfit": 1690,
      "Ġpartner": 1691,
      "Ġtherapy": 1692,
      "Ġreview": 1693,
      "day": 1694,
      "Ġpresent": 1695,
      "ĠMany": 1696,
      "Ġnecessary": 1697,
      "ients": 1698,
      "term": 1699,
      "Ġsens": 1700,
      "Ġexpect": 1701,
      "aily": 1702,
      "Ġprovides": 1703,
      "Ġmultip": 1704,
      "less": 1705,
      "Ġlikely": 1706,
      "Ġtop": 1707,
      "ram": 1708,
      "Ġcap": 1709,
      "Ġachieve": 1710,
      "pecial": 1711,
      "Ġleg": 1712,
      "Ġeconomic": 1713,
      "ltimately": 1714,
      "Ġinvolves": 1715,
      "being": 1716,
      "uss": 1717,
      "Ġreducing": 1718,
      "Ġmembers": 1719,
      "Ġchoose": 1720,
      "ustr": 1721,
      "Ġethical": 1722,
      "verse": 1723,
      "Ġstand": 1724,
      "izing": 1725,
      "Ġsecurity": 1726,
      "Ġmess": 1727,
      "Ġdaily": 1728,
      "Ġinsp": 1729,
      "Ġhard": 1730,
      "Ġconsum": 1731,
      "eep": 1732,
      "ĠPl": 1733,
      "Ġexplore": 1734,
      "ty": 1735,
      "urn": 1736,
      "ĠSet": 1737,
      "Ġroutine": 1738,
      "pecially": 1739,
      "Ġencourage": 1740,
      "Ġespecially": 1741,
      "alu": 1742,
      "ging": 1743,
      "Ġear": 1744,
      "lying": 1745,
      "orth": 1746,
      "aces": 1747,
      "Ġsafe": 1748,
      "Ġless": 1749,
      "Ġbuilding": 1750,
      "Ġbring": 1751,
      "Ġcru": 1752,
      "ĠSh": 1753,
      "Ġagain": 1754,
      "ĠWhat": 1755,
      "ology": 1756,
      "oney": 1757,
      "Ġrequires": 1758,
      "aling": 1759,
      "Ġability": 1760,
      "Ġpass": 1761,
      "Ġhold": 1762,
      "ĠWhen": 1763,
      "Ġadvice": 1764,
      "Ġaudience": 1765,
      "Ġthoughts": 1766,
      "Ġmil": 1767,
      "Ġser": 1768,
      "Ġreality": 1769,
      "Ġcheck": 1770,
      "ners": 1771,
      "Ġeffort": 1772,
      "Ġchildren": 1773,
      "Ġeffic": 1774,
      "Ġcharact": 1775,
      "Ġdel": 1776,
      "istic": 1777,
      "Ġusers": 1778,
      "Ġquestions": 1779,
      "ooking": 1780,
      "Ġclot": 1781,
      "life": 1782,
      "Ġfre": 1783,
      "based": 1784,
      "Ġefforts": 1785,
      "irtual": 1786,
      "ex": 1787,
      "rent": 1788,
      "Ġfriends": 1789,
      "ron": 1790,
      "Ġconditions": 1791,
      "Ġcomfortable": 1792,
      "iveness": 1793,
      "reen": 1794,
      "Ġhab": 1795,
      "Ġhair": 1796,
      "Ġcommit": 1797,
      "ĠWhile": 1798,
      "ograp": 1799,
      "Ġpriv": 1800,
      "rec": 1801,
      "up": 1802,
      "Ġcamp": 1803,
      "Ġnet": 1804,
      "Ġhapp": 1805,
      "ization": 1806,
      "Ġfield": 1807,
      "come": 1808,
      "Ġfac": 1809,
      "Ġrelax": 1810,
      "Ġfirst": 1811,
      "ching": 1812,
      "Ġcho": 1813,
      "for": 1814,
      "Ġmom": 1815,
      "Ġlook": 1816,
      "elves": 1817,
      "other": 1818,
      "ĠMake": 1819,
      "Ġpromoting": 1820,
      "Ġallows": 1821,
      "ock": 1822,
      "Ġvot": 1823,
      "Ġsuccessful": 1824,
      "rim": 1825,
      "ats": 1826,
      "Ġcomb": 1827,
      "Ġvalue": 1828,
      "Ġlaw": 1829,
      "Ġmust": 1830,
      "ands": 1831,
      "Ġcompet": 1832,
      "Ġvariety": 1833,
      "selves": 1834,
      "Ġcultures": 1835,
      "Ġpay": 1836,
      "irect": 1837,
      "Ġsch": 1838,
      "Ġnon": 1839,
      "Ġtechnologies": 1840,
      "Ġattention": 1841,
      "00": 1842,
      "ĠPractice": 1843,
      "ele": 1844,
      "ency": 1845,
      "itud": 1846,
      "lex": 1847,
      "pro": 1848,
      "Ġsame": 1849,
      "Ġshort": 1850,
      "Ġaction": 1851,
      "Ġcause": 1852,
      "Ġinterv": 1853,
      "ards": 1854,
      "Ġleading": 1855,
      "Ġreflect": 1856,
      "Ġcustomer": 1857,
      "hod": 1858,
      "Ġlevels": 1859,
      "Ġyears": 1860,
      "Ġsal": 1861,
      "ption": 1862,
      "Ġtrack": 1863,
      "Ġattract": 1864,
      "Ġsmart": 1865,
      "Ġdecisions": 1866,
      "aste": 1867,
      "Ġempathy": 1868,
      "Ġdecision": 1869,
      "Ġmultiple": 1870,
      "io": 1871,
      "Ġlow": 1872,
      "abl": 1873,
      "ĠCan": 1874,
      "Ġstudents": 1875,
      "Ġtasks": 1876,
      "eric": 1877,
      "Ġher": 1878,
      "Ġeasy": 1879,
      "Ġmotivated": 1880,
      "Ġhy": 1881,
      "ables": 1882,
      "Ġgetting": 1883,
      "set": 1884,
      "Ġarea": 1885,
      "Ġparticip": 1886,
      "aut": 1887,
      "Ġlot": 1888,
      "Ġlight": 1889,
      "Ġgain": 1890,
      "alking": 1891,
      "Ġstate": 1892,
      "Ġapps": 1893,
      "Ġenvironmental": 1894,
      "Ġawareness": 1895,
      "Ġap": 1896,
      "Ġpolicy": 1897,
      "anced": 1898,
      "urance": 1899,
      "Ġadvance": 1900,
      "Ġcrucial": 1901,
      "Ġenh": 1902,
      "Ġanx": 1903,
      "Ġspecial": 1904,
      "Ġdiscuss": 1905,
      "Ġgeneral": 1906,
      "Ġactive": 1907,
      "Ġinfluen": 1908,
      "Ye": 1909,
      "ration": 1910,
      "Ġair": 1911,
      "Ġdam": 1912,
      "Ġprep": 1913,
      "Yeah": 1914,
      "apt": 1915,
      "ĠRes": 1916,
      "rugg": 1917,
      "Ġdeterm": 1918,
      "Ġcy": 1919,
      "urther": 1920,
      "Ġsituation": 1921,
      "ĠLe": 1922,
      "Ġvalu": 1923,
      "Ġamong": 1924,
      "Ġest": 1925,
      "Ġsources": 1926,
      "idence": 1927,
      "Ġbegin": 1928,
      "Ġapprec": 1929,
      "cies": 1930,
      "Ġcou": 1931,
      "dition": 1932,
      "Ġgovernment": 1933,
      "tle": 1934,
      "Ġnature": 1935,
      "Ġbrands": 1936,
      "Ġmakes": 1937,
      "Ġknown": 1938,
      "Ġmethod": 1939,
      "Ġhistory": 1940,
      "elebr": 1941,
      "just": 1942,
      "Ġmar": 1943,
      "aries": 1944,
      "Ġperspectives": 1945,
      "ove": 1946,
      "ray": 1947,
      "Ġstrugg": 1948,
      "Ġamount": 1949,
      "Ġeffectively": 1950,
      "Ġsupp": 1951,
      "ĠKeep": 1952,
      "Ġcreativity": 1953,
      "Ġdevices": 1954,
      "Ġsw": 1955,
      "Ġones": 1956,
      "play": 1957,
      "Ġtrying": 1958,
      "Ġinvestment": 1959,
      "Ġfollowing": 1960,
      "Ġnut": 1961,
      "ĠDon": 1962,
      "Ġrun": 1963,
      "oga": 1964,
      "Ġagainst": 1965,
      "ted": 1966,
      "ression": 1967,
      "Ġevalu": 1968,
      "Ġtype": 1969,
      "ope": 1970,
      "Ġfound": 1971,
      "istent": 1972,
      "Ġmoney": 1973,
      "âĢĻ": 1974,
      "gment": 1975,
      "hers": 1976,
      "ĠDe": 1977,
      "Ġnews": 1978,
      "Ġknowledge": 1979,
      "Ġpain": 1980,
      "Ġreach": 1981,
      "ides": 1982,
      "Ġengaging": 1983,
      "Ġexercises": 1984,
      "Ġwrit": 1985,
      "ones": 1986,
      "itual": 1987,
      "oci": 1988,
      "Ġfinding": 1989,
      "Ġinj": 1990,
      "Ġdiversity": 1991,
      "Ġclean": 1992,
      "ĠTry": 1993,
      "ensive": 1994,
      "ause": 1995,
      "Ġcr": 1996,
      "Ġdig": 1997,
      "ĠAn": 1998,
      "Ġrates": 1999,
      "Ġsol": 2000,
      "Ġboo": 2001,
      "Ġemerg": 2002,
      "Ġeasier": 2003,
      "Ġstrength": 2004,
      "Ġrather": 2005,
      "ĠConsider": 2006,
      "Ġmeaning": 2007,
      "Ġdirect": 2008,
      "ĠInt": 2009,
      "resh": 2010,
      "Ġremember": 2011,
      "Ġgroup": 2012,
      "Ġparents": 2013,
      "Ġsay": 2014,
      "ilar": 2015,
      "ĠAl": 2016,
      "Ġactivity": 2017,
      "Ġreligious": 2018,
      "Ġthen": 2019,
      "Ġface": 2020,
      "Ġanim": 2021,
      "Ġevent": 2022,
      "Ġdepending": 2023,
      "ystem": 2024,
      "Ġacross": 2025,
      "ming": 2026,
      "ĠAmeric": 2027,
      "Ġvirtual": 2028,
      "ndly": 2029,
      "Ġpast": 2030,
      "Ġfavor": 2031,
      "ĠWith": 2032,
      "Ġbrand": 2033,
      "Ġbo": 2034,
      "Ġel": 2035,
      "Wow": 2036,
      "Ġobject": 2037,
      "Ġanxiety": 2038,
      "pri": 2039,
      "ying": 2040,
      "Ġloss": 2041,
      "Ġcent": 2042,
      "Ġenough": 2043,
      "Ġprogram": 2044,
      "Ġflex": 2045,
      "sequ": 2046,
      "Ġfeeling": 2047,
      "iol": 2048,
      "Ġter": 2049,
      "Ġdep": 2050,
      "Ġwhether": 2051,
      "Ġpred": 2052,
      "Ġcaus": 2053,
      "light": 2054,
      "ouse": 2055,
      "Ġproper": 2056,
      "Ġcredit": 2057,
      "Ġassist": 2058,
      "Ġveget": 2059,
      "Ġdue": 2060,
      "Ġask": 2061,
      "ph": 2062,
      "Ġworth": 2063,
      "Ġnum": 2064,
      "Ġaspect": 2065,
      "aged": 2066,
      "Ġfrustr": 2067,
      "Ġperspective": 2068,
      "fact": 2069,
      "Ġfore": 2070,
      "Ġtrad": 2071,
      "Ġeffects": 2072,
      "Ġbecom": 2073,
      "ney": 2074,
      "Ġdesigned": 2075,
      "ĠEm": 2076,
      "Ġwebs": 2077,
      "Ġpatient": 2078,
      "Ġlimit": 2079,
      "assion": 2080,
      "Ġschool": 2081,
      "Ġtakes": 2082,
      "Ġhaving": 2083,
      "Ġspir": 2084,
      "ĠInst": 2085,
      "Ġinjur": 2086,
      "ences": 2087,
      "Ġoil": 2088,
      "leep": 2089,
      "Ġincreasing": 2090,
      "Ġadapt": 2091,
      "ĠAv": 2092,
      "elling": 2093,
      "Ġpres": 2094,
      "Ġsoft": 2095,
      "Ġquick": 2096,
      "Ġforms": 2097,
      "ĠBut": 2098,
      "Ġglob": 2099,
      "Ġdiverse": 2100,
      "Ġclothing": 2101,
      "vant": 2102,
      "Ġtw": 2103,
      "Ġhot": 2104,
      "Ġnote": 2105,
      "Ġimportance": 2106,
      "There": 2107,
      "Ġanother": 2108,
      "Ġadjust": 2109,
      "atives": 2110,
      "ising": 2111,
      "Ġcover": 2112,
      "Ġinvolved": 2113,
      "Ġpress": 2114,
      "ication": 2115,
      "thing": 2116,
      "ĠHave": 2117,
      "Ġoper": 2118,
      "ints": 2119,
      "Ġthemselves": 2120,
      "Ġkind": 2121,
      "Ġresponsibility": 2122,
      "Ġmonit": 2123,
      "ium": 2124,
      "Ġinit": 2125,
      "Ġlu": 2126,
      "Ġcritical": 2127,
      "imize": 2128,
      "ots": 2129,
      "Ġgoing": 2130,
      "Ġcontribute": 2131,
      "Ġmov": 2132,
      "ĠCom": 2133,
      "Ġfocused": 2134,
      "Do": 2135,
      "Ġsat": 2136,
      "Ġput": 2137,
      "Ġlives": 2138,
      "Ġproblem": 2139,
      "sequences": 2140,
      "ale": 2141,
      "Ġdiet": 2142,
      "Ġconcept": 2143,
      "Ġassoci": 2144,
      "Ġcustomers": 2145,
      "to": 2146,
      "Ġlif": 2147,
      "osystem": 2148,
      "Ġissue": 2149,
      "Ġbreath": 2150,
      "ators": 2151,
      "Ġbud": 2152,
      "Ġdeb": 2153,
      "Ġapplic": 2154,
      "Ġbecause": 2155,
      "Ġmeasures": 2156,
      "ĠWe": 2157,
      "Ġinfluence": 2158,
      "Ġtimes": 2159,
      "Ġbound": 2160,
      "ervation": 2161,
      "ired": 2162,
      "Ġmoment": 2163,
      "Ġvary": 2164,
      "ĠMind": 2165,
      "Ġaccept": 2166,
      "cle": 2167,
      "lus": 2168,
      "Ġviol": 2169,
      "Ġgreater": 2170,
      "Ġconversation": 2171,
      "Ġlower": 2172,
      "Ġscient": 2173,
      "Ġtypically": 2174,
      "ew": 2175,
      "rie": 2176,
      "uild": 2177,
      "Ġpurp": 2178,
      "Ġtreatment": 2179,
      "bon": 2180,
      "Ġlive": 2181,
      "Ġleaders": 2182,
      "ses": 2183,
      "Ġfil": 2184,
      "Ġwhy": 2185,
      "Ġcollect": 2186,
      "Ġecosystem": 2187,
      "Ġcand": 2188,
      "iment": 2189,
      "Ġcommunicate": 2190,
      "ape": 2191,
      "ians": 2192,
      "unt": 2193,
      "arget": 2194,
      "Ġconsequences": 2195,
      "Ġcurrent": 2196,
      "ashion": 2197,
      "Ġ20": 2198,
      "Ġafford": 2199,
      "ix": 2200,
      "atic": 2201,
      "Ġvol": 2202,
      "ĠInc": 2203,
      "Ġsetting": 2204,
      "Ġever": 2205,
      "Ġreas": 2206,
      "Ġma": 2207,
      "olving": 2208,
      "Ġmedical": 2209,
      "Ġpracticing": 2210,
      "Ġimproving": 2211,
      "ĠAvoid": 2212,
      "know": 2213,
      "ĠComm": 2214,
      "Ġchallenge": 2215,
      "Ġdone": 2216,
      "Ġlit": 2217,
      "ĠAr": 2218,
      "Ġthroughout": 2219,
      "Ġrights": 2220,
      "aign": 2221,
      "Ġhope": 2222,
      "chnology": 2223,
      "Ġlegal": 2224,
      "Ġestabl": 2225,
      "Ġprop": 2226,
      "Ġsumm": 2227,
      "utes": 2228,
      "Ġconsistent": 2229,
      "ĠStart": 2230,
      "Ġappropri": 2231,
      "side": 2232,
      "hel": 2233,
      "Ġsound": 2234,
      "Ġhig": 2235,
      "ĠRed": 2236,
      "Ġattend": 2237,
      "Ġproblems": 2238,
      "Ġsleep": 2239,
      "ĠTe": 2240,
      "terns": 2241,
      "Ġseek": 2242,
      "Ġinsurance": 2243,
      "olutions": 2244,
      "Ġreviews": 2245,
      "fer": 2246,
      "abilities": 2247,
      "Ġseems": 2248,
      "Ġpatterns": 2249,
      "Ġboundaries": 2250,
      "Ġyoga": 2251,
      "Ġservice": 2252,
      "Ġregularly": 2253,
      "Ġexist": 2254,
      "Ġdeveloping": 2255,
      "ructure": 2256,
      "Ġstyle": 2257,
      "ery": 2258,
      "Ġdest": 2259,
      "Ġwithin": 2260,
      "ĠCl": 2261,
      "Ġcareer": 2262,
      "Ġworkplace": 2263,
      "Ġglobal": 2264,
      "rast": 2265,
      "Ġlet": 2266,
      "Ġtext": 2267,
      "Ġrespond": 2268,
      "Ġsituations": 2269,
      "Ġsolutions": 2270,
      "Ġmiss": 2271,
      "Ġfresh": 2272,
      "atch": 2273,
      "ature": 2274,
      "Ġaltern": 2275,
      "Ġplayers": 2276,
      "Ġremain": 2277,
      "cking": 2278,
      "sing": 2279,
      "uro": 2280,
      "Ġpost": 2281,
      "asc": 2282,
      "ution": 2283,
      "pend": 2284,
      "Ġworkout": 2285,
      "Ġgoal": 2286,
      "However": 2287,
      "go": 2288,
      "ening": 2289,
      "Ġdress": 2290,
      "igate": 2291,
      "Ġmodern": 2292,
      "Ġrepresent": 2293,
      "Ġphot": 2294,
      "oot": 2295,
      "Ġtell": 2296,
      "Ġfost": 2297,
      "Ġrece": 2298,
      "Ġprodu": 2299,
      "Ġdoing": 2300,
      "hedu": 2301,
      "ites": 2302,
      "Ġey": 2303,
      "ĠSoc": 2304,
      "Ġinvolve": 2305,
      "Ġconnection": 2306,
      "Ġprepare": 2307,
      "Ġtarget": 2308,
      "Ġcomes": 2309,
      "Ġfunct": 2310,
      "Ġbudget": 2311,
      "ches": 2312,
      "Ġbig": 2313,
      "ĠLook": 2314,
      "Ġstream": 2315,
      "Ġhabit": 2316,
      "ges": 2317,
      "ush": 2318,
      "ource": 2319,
      "Ġtransport": 2320,
      "Ġcampaign": 2321,
      "der": 2322,
      "Ġcontain": 2323,
      "acks": 2324,
      "Ġsounds": 2325,
      "Ġcharacter": 2326,
      "Ġappe": 2327,
      "Ġmeans": 2328,
      "Ġtrends": 2329,
      "Ġdamage": 2330,
      "fect": 2331,
      "iod": 2332,
      "pr": 2333,
      "here": 2334,
      "arks": 2335,
      "Ġalign": 2336,
      "ĠUltimately": 2337,
      "Ġguidance": 2338,
      "hedule": 2339,
      "Ġtem": 2340,
      "Ġresponsible": 2341,
      "Ġspiritual": 2342,
      "frie": 2343,
      "oms": 2344,
      "Ġnorm": 2345,
      "ĠTra": 2346,
      "quality": 2347,
      "Ġcolor": 2348,
      "itude": 2349,
      "Ġbat": 2350,
      "Ġsym": 2351,
      "Ġpowerful": 2352,
      "Ġgender": 2353,
      "force": 2354,
      "Ġenhance": 2355,
      "ĠQ": 2356,
      "ĠAt": 2357,
      "Ġhigher": 2358,
      "oud": 2359,
      "Ġfashion": 2360,
      "Ġdra": 2361,
      "Ġconsid": 2362,
      "Ġinformed": 2363,
      "Ġlistening": 2364,
      "oor": 2365,
      "Ġnational": 2366,
      "Ġinterested": 2367,
      "Ġdiscrim": 2368,
      "Ġorganization": 2369,
      "Ġcourse": 2370,
      "Ġpack": 2371,
      "ests": 2372,
      "ĠCre": 2373,
      "Ġuser": 2374,
      "Ġfitness": 2375,
      "Ġprivacy": 2376,
      "ĠIm": 2377,
      "Ġadop": 2378,
      "Ġresults": 2379,
      "Ġnow": 2380,
      "Ġinteg": 2381,
      "Ġparties": 2382,
      "Ġincreased": 2383,
      "Ġindustries": 2384,
      "Ġparticularly": 2385,
      "Ġsoftware": 2386,
      "By": 2387,
      "ined": 2388,
      "akers": 2389,
      "Ġdepends": 2390,
      "Ġbreathing": 2391,
      "Ġjourney": 2392,
      "Ġdigital": 2393,
      "Ġassociated": 2394,
      "Ġhon": 2395,
      "Ġidentity": 2396,
      "Ġdetermine": 2397,
      "time": 2398,
      "ĠStay": 2399,
      "friendly": 2400,
      "ike": 2401,
      "aches": 2402,
      "Ġfavorite": 2403,
      "Ġpoll": 2404,
      "Ġinternational": 2405,
      "Ġsatis": 2406,
      "omen": 2407,
      "ĠFocus": 2408,
      "Ġregard": 2409,
      "Ġbelieve": 2410,
      "Ġvisual": 2411,
      "Ġpredict": 2412,
      "Ġconsidered": 2413,
      "ules": 2414,
      "Ġwilling": 2415,
      "Ġthinking": 2416,
      "let": 2417,
      "esty": 2418,
      "osp": 2419,
      "Ġsharing": 2420,
      "Ġseen": 2421,
      "Ġdrink": 2422,
      "Ġterms": 2423,
      "ura": 2424,
      "Ġcases": 2425,
      "Ġrecent": 2426,
      "Ġvisit": 2427,
      "Ġregulations": 2428,
      "ĠMindful": 2429,
      "arri": 2430,
      "Ġaccur": 2431,
      "Ġvideo": 2432,
      "erve": 2433,
      "Ġbas": 2434,
      "Ġaccessible": 2435,
      "iation": 2436,
      "jor": 2437,
      "Ġbro": 2438,
      "new": 2439,
      "Ġmovements": 2440,
      "Ġlarge": 2441,
      "Ġsn": 2442,
      "ĠHe": 2443,
      "Ġadditional": 2444,
      "Ġperiod": 2445,
      "Ġinsights": 2446,
      "Ġcarbon": 2447,
      "Ġrecognize": 2448,
      "hold": 2449,
      "Ġmach": 2450,
      "Ġwild": 2451,
      "Ġminutes": 2452,
      "Ġtwo": 2453,
      "str": 2454,
      "rupt": 2455,
      "Ġimpacts": 2456,
      "Ġpoint": 2457,
      "Ġmatter": 2458,
      "Ġcollaboration": 2459,
      "ift": 2460,
      "igen": 2461,
      "obb": 2462,
      "Ġoption": 2463,
      "Ġforg": 2464,
      "izes": 2465,
      "azing": 2466,
      "ĠCommun": 2467,
      "dr": 2468,
      "hor": 2469,
      "Ġdistract": 2470,
      "Ġvaluable": 2471,
      "ified": 2472,
      "Ġstyles": 2473,
      "Ġrelevant": 2474,
      "Ġadvoc": 2475,
      "Ġsubject": 2476,
      "Ġcalm": 2477,
      "Ġjourn": 2478,
      "Ġmethods": 2479,
      "ĠSc": 2480,
      "ĠChe": 2481,
      "Ġengine": 2482,
      "Ġmajor": 2483,
      "hic": 2484,
      "Ġencoura": 2485,
      "ĠSm": 2486,
      "Ġsmo": 2487,
      "Ġprojects": 2488,
      "ets": 2489,
      "Ġperfect": 2490,
      "ores": 2491,
      "ral": 2492,
      "Ġground": 2493,
      "ĠIs": 2494,
      "Ġovercome": 2495,
      "Ġplanning": 2496,
      "Ġsimilar": 2497,
      "ĠAmerican": 2498,
      "olve": 2499,
      "Ġaccountable": 2500,
      "Ġcyber": 2501,
      "ĠSocial": 2502,
      "Ġcelebr": 2503,
      "Ġland": 2504,
      "Ġant": 2505,
      "Ġdifference": 2506,
      "Ġallowing": 2507,
      "ĠEng": 2508,
      "Ġinterview": 2509,
      "gar": 2510,
      "Ġ6": 2511,
      "Ġpie": 2512,
      "Ġinde": 2513,
      "Ġconservation": 2514,
      "Ġamazing": 2515,
      "ĠEncourage": 2516,
      "Ġmovement": 2517,
      "Ġconflict": 2518,
      "Ġadvancements": 2519,
      "co": 2520,
      "Ġaid": 2521,
      "Ġwide": 2522,
      "icro": 2523,
      "Ġbeaut": 2524,
      "Ġclub": 2525,
      "Ġshows": 2526,
      "Ġanalyz": 2527,
      "Ġinnovation": 2528,
      "Ġappreciate": 2529,
      "Ġiniti": 2530,
      "10": 2531,
      "Ġult": 2532,
      "rep": 2533,
      "Ġshap": 2534,
      "Ġinstead": 2535,
      "Ġdemoc": 2536,
      "Ġcourses": 2537,
      "Ġefficient": 2538,
      "Certain": 2539,
      "ret": 2540,
      "Ġled": 2541,
      "Ġcountry": 2542,
      "Ġexciting": 2543,
      "Ġaffordable": 2544,
      "igenous": 2545,
      "Certainly": 2546,
      "Ġpurpose": 2547,
      "making": 2548,
      "itable": 2549,
      "ĠJo": 2550,
      "Ġinclusive": 2551,
      "Ġjud": 2552,
      "ification": 2553,
      "Ġarg": 2554,
      "Ġinstruct": 2555,
      "Ġopinion": 2556,
      "Ġfamil": 2557,
      "Ġhumans": 2558,
      "Ġopportunity": 2559,
      "Ġtransportation": 2560,
      "atory": 2561,
      "enture": 2562,
      "Ġlooking": 2563,
      "Ġsports": 2564,
      "Ġrespectful": 2565,
      "Ġrenew": 2566,
      "Ġlack": 2567,
      "Ġdifferences": 2568,
      "Ġer": 2569,
      "ank": 2570,
      "irc": 2571,
      "Ġschedule": 2572,
      "inating": 2573,
      "het": 2574,
      "Ġstories": 2575,
      "Ġheard": 2576,
      "ffic": 2577,
      "Ġrelated": 2578,
      "Ġwear": 2579,
      "Ġlimited": 2580,
      "Ġ19": 2581,
      "Ġmilk": 2582,
      "cers": 2583,
      "sis": 2584,
      "Ġing": 2585,
      "ĠSe": 2586,
      "Ġstret": 2587,
      "Ġju": 2588,
      "ĠOn": 2589,
      "Ġsimple": 2590,
      "Ġeconomy": 2591,
      "Ġautom": 2592,
      "ancing": 2593,
      "sw": 2594,
      "Ġfru": 2595,
      "vey": 2596,
      "Ġsearch": 2597,
      "Ġwee": 2598,
      "Ġconsult": 2599,
      "Ġcomplet": 2600,
      "Ġtesting": 2601,
      "Ġearly": 2602,
      "ĠSo": 2603,
      "ĠSee": 2604,
      "Ġincludes": 2605,
      "Ġupd": 2606,
      "Ġlaws": 2607,
      "Ġluck": 2608,
      "etic": 2609,
      "Ġunt": 2610,
      "Ġneeded": 2611,
      "ĠOr": 2612,
      "bo": 2613,
      "ds": 2614,
      "Ġoc": 2615,
      "ims": 2616,
      "emic": 2617,
      "Ġprefer": 2618,
      "ellig": 2619,
      "Ġproductivity": 2620,
      "Ġstaying": 2621,
      "While": 2622,
      "elines": 2623,
      "urt": 2624,
      "alls": 2625,
      "ums": 2626,
      "Ġlocation": 2627,
      "Ġcareful": 2628,
      "Ġansw": 2629,
      "ĠSu": 2630,
      "Ġproduction": 2631,
      "ording": 2632,
      "Ġstarting": 2633,
      "ĠProv": 2634,
      "Ġpressure": 2635,
      "erson": 2636,
      "Ġsec": 2637,
      "ready": 2638,
      "Ġcirc": 2639,
      "Ġfoot": 2640,
      "Ġhis": 2641,
      "ored": 2642,
      "ended": 2643,
      "Ġprote": 2644,
      "Ġbackg": 2645,
      "comes": 2646,
      "Ġconflicts": 2647,
      "ĠLearn": 2648,
      "Ġsess": 2649,
      "Ġfurther": 2650,
      "Ġele": 2651,
      "ulate": 2652,
      "Ġnever": 2653,
      "ĠGo": 2654,
      "Ġsustainability": 2655,
      "issions": 2656,
      "Ġcosts": 2657,
      "Ġvegetables": 2658,
      "Ġfrustrating": 2659,
      "ĠSp": 2660,
      "Ġexpos": 2661,
      "Ġoverw": 2662,
      "Ġadvis": 2663,
      "Ġcontinu": 2664,
      "Ġviews": 2665,
      "Ġdoesn": 2666,
      "Ġalready": 2667,
      "Ġscen": 2668,
      "redients": 2669,
      "Ġnetwork": 2670,
      "Ġdiscrimination": 2671,
      "Ġoverwhel": 2672,
      "Ġcra": 2673,
      "Ġtoday": 2674,
      "Ġdid": 2675,
      "Ġdiv": 2676,
      "Ġpurch": 2677,
      "Ġbreaks": 2678,
      "Ġcompletely": 2679,
      "Ġoutcomes": 2680,
      "Ġfeels": 2681,
      "Ġprin": 2682,
      "Ġprotection": 2683,
      "Ġfair": 2684,
      "Ġcompassion": 2685,
      "Ġdise": 2686,
      "Ġprogramm": 2687,
      "Ġexcell": 2688,
      "Ġfoods": 2689,
      "Ġsometimes": 2690,
      "Ġfully": 2691,
      "Ġincorporating": 2692,
      "ĠCreate": 2693,
      "Th": 2694,
      "cious": 2695,
      "irm": 2696,
      "Ġgradu": 2697,
      "Ġengagement": 2698,
      "ĠIndigenous": 2699,
      "Ġaspects": 2700,
      "Ġrenewable": 2701,
      "itut": 2702,
      "ished": 2703,
      "aken": 2704,
      "duc": 2705,
      "ĠFind": 2706,
      "Ġchanging": 2707,
      "ĠChoose": 2708,
      "Ġquickly": 2709,
      "ĠComp": 2710,
      "sp": 2711,
      "real": 2712,
      "hent": 2713,
      "Ġvo": 2714,
      "Ġdeveloped": 2715,
      "Ġbecoming": 2716,
      "Ġscientific": 2717,
      "Ġappropriate": 2718,
      "going": 2719,
      "Ġadopt": 2720,
      "has": 2721,
      "oral": 2722,
      "ops": 2723,
      "Ġdemand": 2724,
      "Ġinspir": 2725,
      "Ġalternative": 2726,
      "Ġport": 2727,
      "Ġemployee": 2728,
      "Ġhistor": 2729,
      "Ġanalysis": 2730,
      "Ġexpectations": 2731,
      "Ġinitiatives": 2732,
      "Ġultimately": 2733,
      "ged": 2734,
      "oes": 2735,
      "Ġage": 2736,
      "icate": 2737,
      "Ġmob": 2738,
      "Ġemphas": 2739,
      "Ġfriend": 2740,
      "Ġslow": 2741,
      "Ġvideos": 2742,
      "Ġstandards": 2743,
      "Ġalong": 2744,
      "Ġpartners": 2745,
      "Ġspread": 2746,
      "Ġflow": 2747,
      "ument": 2748,
      "ince": 2749,
      "rect": 2750,
      "Ġswe": 2751,
      "ivil": 2752,
      "Ġqual": 2753,
      "ĠNational": 2754,
      "Ġexcellent": 2755,
      "illing": 2756,
      "Ġtrue": 2757,
      "ĠOne": 2758,
      "ĠReg": 2759,
      "ipp": 2760,
      "Ġcop": 2761,
      "Ġrob": 2762,
      "Ġbenefit": 2763,
      "Ġthought": 2764,
      "Ġreligions": 2765,
      "ech": 2766,
      "ping": 2767,
      "ĠApp": 2768,
      "Ġcomput": 2769,
      "Ġguidelines": 2770,
      "Ġimmers": 2771,
      "Ġuntil": 2772,
      "ann": 2773,
      "Ġfast": 2774,
      "Ġfasc": 2775,
      "Ġded": 2776,
      "ulner": 2777,
      "iency": 2778,
      "Ġsociet": 2779,
      "Ġfocusing": 2780,
      "ĠRev": 2781,
      "Ġchoice": 2782,
      "Ġwildlife": 2783,
      "ĠCheck": 2784,
      "mon": 2785,
      "wit": 2786,
      "Ġwaste": 2787,
      "ifications": 2788,
      "Ġrecord": 2789,
      "Ġprofessionals": 2790,
      "Ġcandid": 2791,
      "Ġaccurate": 2792,
      "Ġgreen": 2793,
      "ĠSur": 2794,
      "Ġassess": 2795,
      "Ġshared": 2796,
      "uilding": 2797,
      "icial": 2798,
      "ibilities": 2799,
      "nsel": 2800,
      "Ġingredients": 2801,
      "elligence": 2802,
      "Ġitems": 2803,
      "Ġensuring": 2804,
      "Ġrelaxation": 2805,
      "sy": 2806,
      "ulation": 2807,
      "Ġusually": 2808,
      "Ġpeace": 2809,
      "Ġharmful": 2810,
      "Ġecosystems": 2811,
      "Ġcampaigns": 2812,
      "eration": 2813,
      "ott": 2814,
      "Ġhear": 2815,
      "Ġmaintaining": 2816,
      "Ġfoster": 2817,
      "ĠSeek": 2818,
      "BT": 2819,
      "Ġaway": 2820,
      "onstr": 2821,
      "Ġconduct": 2822,
      "ĠEduc": 2823,
      "asts": 2824,
      "Ġoutside": 2825,
      "Ġadvant": 2826,
      "Ġmeaningful": 2827,
      ",\"": 2828,
      "erous": 2829,
      "Ġmist": 2830,
      "Ġacknow": 2831,
      "Ġlonger": 2832,
      "Ġstarted": 2833,
      "Ġnumber": 2834,
      "Ġill": 2835,
      "ishing": 2836,
      "Ġnav": 2837,
      "Ġweather": 2838,
      "Ġwhole": 2839,
      "ĠOff": 2840,
      "Ġhighly": 2841,
      "ĠUnited": 2842,
      "Ġincorporate": 2843,
      "unte": 2844,
      "ork": 2845,
      "ĠTr": 2846,
      "Ġexperiment": 2847,
      "ological": 2848,
      "Ġprocesses": 2849,
      "Ġreport": 2850,
      "Ġgovernments": 2851,
      "Ġcommitment": 2852,
      "lusion": 2853,
      "Ġfamilies": 2854,
      "Ġprotein": 2855,
      "Ġfascinating": 2856,
      "af": 2857,
      "oration": 2858,
      "Ġtraditions": 2859,
      "Ġcool": 2860,
      "Ġauthent": 2861,
      "Ġdance": 2862,
      "Ġseeking": 2863,
      "Ġlifesty": 2864,
      "Ġvery": 2865,
      "Ġrules": 2866,
      "ours": 2867,
      "Ġdevelopers": 2868,
      "ĠVR": 2869,
      "Ġrequirements": 2870,
      "Ġinjury": 2871,
      "app": 2872,
      "ding": 2873,
      "Ġvulner": 2874,
      "Ġnext": 2875,
      "aving": 2876,
      "ails": 2877,
      "Ġauthor": 2878,
      "otechnology": 2879,
      "Ġmessage": 2880,
      "Ġath": 2881,
      "Ġfra": 2882,
      "estiv": 2883,
      "Ġmotivation": 2884,
      "Ġintegr": 2885,
      "Ġmachine": 2886,
      "):": 2887,
      "itate": 2888,
      "Ġwa": 2889,
      "aren": 2890,
      "Ġsex": 2891,
      "ĠPr": 2892,
      "Ġjo": 2893,
      "iction": 2894,
      "Ġdemonstr": 2895,
      "Ġquestion": 2896,
      "Ġfulf": 2897,
      "rame": 2898,
      "hips": 2899,
      "Ġwr": 2900,
      "Ġwond": 2901,
      "ird": 2902,
      "Ġpersonalized": 2903,
      "Ġrecommended": 2904,
      "Ġmarketing": 2905,
      "Ġbooks": 2906,
      "li": 2907,
      "Ġbook": 2908,
      "Ġoutd": 2909,
      "Ġsurround": 2910,
      "Ġcounsel": 2911,
      "arency": 2912,
      "inal": 2913,
      "ath": 2914,
      "itiz": 2915,
      "Ġdry": 2916,
      "Ġongoing": 2917,
      "ĠPe": 2918,
      "Ġreli": 2919,
      "Ġspeak": 2920,
      "Ġengaged": 2921,
      "Ad": 2922,
      "Ġtax": 2923,
      "Ġturn": 2924,
      "Ġpray": 2925,
      "Ġhost": 2926,
      "Ġliving": 2927,
      "Ġcolors": 2928,
      "Ġexpression": 2929,
      "Ġviolence": 2930,
      "Ultimately": 2931,
      "Ġnight": 2932,
      "Ġuses": 2933,
      "Ġprovider": 2934,
      "Ġthemes": 2935,
      "ĠGood": 2936,
      "Ġartist": 2937,
      "Ġtherapist": 2938,
      "Ġfunding": 2939,
      "Ġnetwor": 2940,
      "Ġparticipate": 2941,
      "sych": 2942,
      "gra": 2943,
      "arty": 2944,
      "ĠBl": 2945,
      "Ġtechnique": 2946,
      "gn": 2947,
      "me": 2948,
      "rehe": 2949,
      "vert": 2950,
      "Ġemissions": 2951,
      "ags": 2952,
      "Ġeasily": 2953,
      "ĠTherefore": 2954,
      "Ġconstruct": 2955,
      "Ġflexibility": 2956,
      "ĠInstead": 2957,
      "solving": 2958,
      "Ġtaken": 2959,
      "Ġgard": 2960,
      "istance": 2961,
      "Ġtrip": 2962,
      "Ġspeech": 2963,
      "Ġplayed": 2964,
      "Ġcolle": 2965,
      "Ġvoting": 2966,
      "Ġreasons": 2967,
      "Ġshe": 2968,
      "Ġsing": 2969,
      "Ġpark": 2970,
      "Ġmas": 2971,
      "Ġworkers": 2972,
      "Ġscience": 2973,
      "Ġpurs": 2974,
      "ĠAtt": 2975,
      "nam": 2976,
      "tings": 2977,
      "Ġmit": 2978,
      "Ġlist": 2979,
      "chan": 2980,
      "ĠAf": 2981,
      "Ġroad": 2982,
      "Ġmuscle": 2983,
      "Ġreput": 2984,
      "Ġhandle": 2985,
      "inked": 2986,
      "astic": 2987,
      "Ġunivers": 2988,
      "Ġexploring": 2989,
      "Ġgenerally": 2990,
      "Ġaccounts": 2991,
      "Ġtopics": 2992,
      "Ġimmersive": 2993,
      "mosp": 2994,
      "ring": 2995,
      "rics": 2996,
      "Ġmer": 2997,
      "Ġthreat": 2998,
      "Ġtrain": 2999,
      "Ġprev": 3000,
      "Ġmechan": 3001,
      "Ġchoices": 3002,
      "Ġwebsite": 3003,
      "Ġestablish": 3004,
      "Ġindepend": 3005,
      "cer": 3006,
      "Ġsource": 3007,
      "Ġwalking": 3008,
      "Ġyoun": 3009,
      "change": 3010,
      "ocol": 3011,
      "ills": 3012,
      "Ġplant": 3013,
      "Ġstrategy": 3014,
      "Ġentertain": 3015,
      "Ġconstant": 3016,
      "Ġcris": 3017,
      "Ġcoverage": 3018,
      "Ġdraw": 3019,
      "overy": 3020,
      "Ġwalk": 3021,
      "stances": 3022,
      "Ġcapt": 3023,
      "Ġdepend": 3024,
      "Ġfeature": 3025,
      "by": 3026,
      "rip": 3027,
      "ups": 3028,
      "Ġwomen": 3029,
      "Ġhead": 3030,
      "ialog": 3031,
      "ĠMon": 3032,
      "nderstand": 3033,
      "Ġprice": 3034,
      "Ġinvesting": 3035,
      "Ġinterp": 3036,
      "Ġtourism": 3037,
      "Ġinnovative": 3038,
      "Ġefficiency": 3039,
      "Ġfrequ": 3040,
      "faction": 3041,
      "Ġhonest": 3042,
      "yond": 3043,
      "encies": 3044,
      "Ġshape": 3045,
      "Ġactively": 3046,
      "equ": 3047,
      "med": 3048,
      "then": 3049,
      "onse": 3050,
      "Ġlast": 3051,
      "Ġsugar": 3052,
      "Ġselect": 3053,
      "Ġremind": 3054,
      "Ġconnections": 3055,
      "Ġstudy": 3056,
      "Ġmonitor": 3057,
      "Ġtou": 3058,
      "Ġsolution": 3059,
      "Ġfa": 3060,
      "Ġur": 3061,
      "Ġhelping": 3062,
      "Ġhelped": 3063,
      "Ġcompare": 3064,
      "Ġmanaging": 3065,
      "Ġatmosp": 3066,
      "Ġstreet": 3067,
      "Ġstruggle": 3068,
      ".\"": 3069,
      "iors": 3070,
      "uce": 3071,
      "ane": 3072,
      "icious": 3073,
      "illed": 3074,
      "Ġdeal": 3075,
      "Ġrate": 3076,
      "Ġaddition": 3077,
      "ommod": 3078,
      "Ġcase": 3079,
      "Ġfamous": 3080,
      "Ġapplications": 3081,
      "Ġsecure": 3082,
      "atitude": 3083,
      "Ġmut": 3084,
      "Ġobs": 3085,
      "Ġbarri": 3086,
      "Ġbeyond": 3087,
      "ĠId": 3088,
      "ĠAre": 3089,
      "ĠColl": 3090,
      "wear": 3091,
      "Ġblood": 3092,
      "Ġfull": 3093,
      "Ġcorrect": 3094,
      "ĠRese": 3095,
      "Ġboost": 3096,
      "Ġlifestyle": 3097,
      "ialogue": 3098,
      "GBT": 3099,
      "more": 3100,
      "Ġsong": 3101,
      "Ġpsych": 3102,
      "arily": 3103,
      "ently": 3104,
      "Ġseem": 3105,
      "Ġexpert": 3106,
      "Ġadvanced": 3107,
      "Ġinvestors": 3108,
      "coming": 3109,
      "ĠUnity": 3110,
      "Ġimplementing": 3111,
      "Ġsessions": 3112,
      "ator": 3113,
      "enses": 3114,
      "Ġaccording": 3115,
      "Ġaccommod": 3116,
      "ĠStates": 3117,
      "Ġbeneficial": 3118,
      "sc": 3119,
      "Ġble": 3120,
      "Ġhobb": 3121,
      "ĠSim": 3122,
      "ĠSomet": 3123,
      "Ġintelligence": 3124,
      "Ġplaces": 3125,
      "Ġemb": 3126,
      "Ġconscious": 3127,
      "Ġcloud": 3128,
      "Ġkeeping": 3129,
      "Ġdesigns": 3130,
      "Ġaddressing": 3131,
      "Ġmovie": 3132,
      "Ġpollution": 3133,
      "ugment": 3134,
      "Ġfab": 3135,
      "Ġhar": 3136,
      "Ġstat": 3137,
      "Ġcomprehe": 3138,
      "ĠLGBT": 3139,
      "Ġimplemented": 3140,
      "Ġsatisfaction": 3141,
      "land": 3142,
      "enue": 3143,
      "Ġorder": 3144,
      "Ġimag": 3145,
      "ressive": 3146,
      "Ġspending": 3147,
      "Ġcolon": 3148,
      "Ġconfidence": 3149,
      "Ġachieving": 3150,
      "ography": 3151,
      "Ġnorms": 3152,
      "Ġcivil": 3153,
      "Ġcitiz": 3154,
      "Ġdialogue": 3155,
      "Ġthing": 3156,
      "ayer": 3157,
      "ogs": 3158,
      "Ġtea": 3159,
      "ificial": 3160,
      "Ġlanguages": 3161,
      "Ġprim": 3162,
      "Ġspecies": 3163,
      "wareness": 3164,
      "Ġconclusion": 3165,
      "Ġaccountability": 3166,
      "Ġdeeper": 3167,
      "ĠCont": 3168,
      "Ġwriting": 3169,
      "Ġsummary": 3170,
      "gers": 3171,
      "Ġcert": 3172,
      "Ġstick": 3173,
      "Ġintro": 3174,
      "irement": 3175,
      "erts": 3176,
      "Ġextra": 3177,
      "ok": 3178,
      "ĠMed": 3179,
      "Ġanything": 3180,
      "Ġcreated": 3181,
      "Ġoccur": 3182,
      "Ġanswer": 3183,
      "Ġgradually": 3184,
      "Ġatmosphere": 3185,
      "Ġmix": 3186,
      "Ġalg": 3187,
      "Ġteach": 3188,
      "Ġevidence": 3189,
      "Ġcontinues": 3190,
      "Ġsmaller": 3191,
      "Ġguided": 3192,
      "Ġentire": 3193,
      "Ġtask": 3194,
      "Ġflexible": 3195,
      "Ġbroad": 3196,
      "ext": 3197,
      "face": 3198,
      "Ġcod": 3199,
      "Ġcry": 3200,
      "Ġlab": 3201,
      "Ġorig": 3202,
      "Ġexchange": 3203,
      "Ġexpand": 3204,
      "Ġabs": 3205,
      "Ġweight": 3206,
      "Ġaccom": 3207,
      "ĠNew": 3208,
      "Ġresponse": 3209,
      "Ġdiscover": 3210,
      "Ġaccessibility": 3211,
      "Ġfund": 3212,
      "Ġcapital": 3213,
      "Ġinfluenced": 3214,
      "Ġforgiveness": 3215,
      "oad": 3216,
      "Ġfestiv": 3217,
      "ilt": 3218,
      "ipment": 3219,
      "akehold": 3220,
      "Ġeverything": 3221,
      "Ġflavor": 3222,
      "Ġshown": 3223,
      "Ġlarger": 3224,
      "Ġwebsites": 3225,
      "ĠSometimes": 3226,
      "ugmented": 3227,
      "19": 3228,
      "Ġcard": 3229,
      "Ġmicro": 3230,
      "imming": 3231,
      "Ġcomprom": 3232,
      "Ġactually": 3233,
      "Ġsupporting": 3234,
      "Ġproviders": 3235,
      "Ġtransparency": 3236,
      "Ġeco": 3237,
      "Ġinternet": 3238,
      "ĠDevelop": 3239,
      "Ġdebt": 3240,
      "ĠArt": 3241,
      "rastructure": 3242,
      "hetic": 3243,
      "Ġexposure": 3244,
      "ĠResearch": 3245,
      "If": 3246,
      "Ġparks": 3247,
      "Ġheav": 3248,
      "ĠAct": 3249,
      "ĠWh": 3250,
      "ĠUS": 3251,
      "Ġconversations": 3252,
      "Ġserious": 3253,
      "urthermore": 3254,
      "Ġelse": 3255,
      "Ġmovies": 3256,
      "Ġreceive": 3257,
      "Ġvoice": 3258,
      "aw": 3259,
      "of": 3260,
      "Ġtur": 3261,
      "Ġsince": 3262,
      "ĠAR": 3263,
      "outh": 3264,
      "tery": 3265,
      "Ġcream": 3266,
      "Ġrealistic": 3267,
      "ronic": 3268,
      "Ġhydr": 3269,
      "Ġcircum": 3270,
      "ĠAttend": 3271,
      "ental": 3272,
      "ids": 3273,
      "ĠTwit": 3274,
      "Ġplans": 3275,
      "ĠPol": 3276,
      "Ġtrail": 3277,
      "oreover": 3278,
      "agn": 3279,
      "Ġparts": 3280,
      "Ġretirement": 3281,
      "Ġsympt": 3282,
      "For": 3283,
      "gle": 3284,
      "ĠâĢ": 3285,
      "Ġcity": 3286,
      "Ġcities": 3287,
      "ancy": 3288,
      "Ġwid": 3289,
      "iding": 3290,
      "ĠAc": 3291,
      "Ġsupportive": 3292,
      "Ġsave": 3293,
      "Ġinstitut": 3294,
      "Ġloved": 3295,
      "Ġexcited": 3296,
      "Ġphone": 3297,
      "Ġgratitude": 3298,
      "Ġelements": 3299,
      "bing": 3300,
      "kay": 3301,
      "isc": 3302,
      "Ġstability": 3303,
      "ivate": 3304,
      "Ġequipment": 3305,
      "Ġathlet": 3306,
      "fl": 3307,
      "hood": 3308,
      "ios": 3309,
      "Ġaim": 3310,
      "Ġtalk": 3311,
      "itary": 3312,
      "Ġdate": 3313,
      "arc": 3314,
      "Ġlat": 3315,
      "Ġcondition": 3316,
      "Ġcontext": 3317,
      "Ġpregn": 3318,
      "Ġdisabilities": 3319,
      "Ġgenetic": 3320,
      "ĠAsk": 3321,
      "Ġcharacters": 3322,
      "Ġsexual": 3323,
      "Ġwonder": 3324,
      "ĠPeople": 3325,
      "port": 3326,
      "Ġbor": 3327,
      "ipl": 3328,
      "Ġspeed": 3329,
      "Ġguide": 3330,
      "Ġfinancing": 3331,
      "ĠIncre": 3332,
      "Ġpropert": 3333,
      "Ġcircumstances": 3334,
      "lands": 3335,
      "anks": 3336,
      "Ġold": 3337,
      "Ġheart": 3338,
      "ĠTo": 3339,
      "Ġposition": 3340,
      "Ġplaying": 3341,
      "Ġbrain": 3342,
      "Ġpolitics": 3343,
      "Ġmessages": 3344,
      "Ġcombination": 3345,
      "Ġschools": 3346,
      "Ġcarefully": 3347,
      "Ġinspiration": 3348,
      "gr": 3349,
      "orage": 3350,
      "Ġwind": 3351,
      "iles": 3352,
      "ĠGet": 3353,
      "Ġmyself": 3354,
      "ĠYour": 3355,
      "Ġoffering": 3356,
      "ĠAdd": 3357,
      "Ġminimize": 3358,
      "Ġglad": 3359,
      "Ġsweet": 3360,
      "Ġsymptoms": 3361,
      "ese": 3362,
      "Ġfail": 3363,
      "idd": 3364,
      "Ġtend": 3365,
      "ĠEuro": 3366,
      "Ġregions": 3367,
      "Ġpatience": 3368,
      "Ġstudies": 3369,
      "Ġbeginners": 3370,
      "Ġfunction": 3371,
      "ĠSupport": 3372,
      "Ġnavigate": 3373,
      "eur": 3374,
      "Ġtim": 3375,
      "Ġstores": 3376,
      "Ġstakehold": 3377,
      "Ġjustice": 3378,
      "Ġenvironments": 3379,
      "ceptions": 3380,
      "Ġhistorical": 3381,
      "Ġfig": 3382,
      "Ġwarm": 3383,
      "Ġred": 3384,
      "Ġvers": 3385,
      "ĠFin": 3386,
      "Ġmedit": 3387,
      "nsive": 3388,
      "Ġanimals": 3389,
      "Ġlimitations": 3390,
      "ĠImpro": 3391,
      "Ġengineering": 3392,
      "Ġsmooth": 3393,
      "Ġcandidates": 3394,
      "fol": 3395,
      "po": 3396,
      "uments": 3397,
      "ream": 3398,
      "icians": 3399,
      "Ġreplace": 3400,
      "mental": 3401,
      "Ġexperts": 3402,
      "Ġexperienced": 3403,
      "ĠListen": 3404,
      "aper": 3405,
      "Ġeducational": 3406,
      "Ġminim": 3407,
      "Ġstrengthen": 3408,
      "Ġcouples": 3409,
      "Ġinjuries": 3410,
      "Ġattending": 3411,
      "Additionally": 3412,
      "ĠTwitter": 3413,
      "Ġwidely": 3414,
      "Ġsect": 3415,
      "ason": 3416,
      "Ġmoist": 3417,
      "oosing": 3418,
      "ĠBre": 3419,
      "Ġevolve": 3420,
      "Ġarch": 3421,
      "Ġguests": 3422,
      "Ġshowc": 3423,
      "Ġinteractions": 3424,
      "Ġbox": 3425,
      "Ġliter": 3426,
      "Ġanalyze": 3427,
      "Ġmerch": 3428,
      "ĠIdent": 3429,
      "aur": 3430,
      "vest": 3431,
      "orith": 3432,
      "Ġexh": 3433,
      "ief": 3434,
      "Ġsigns": 3435,
      "Ġeffectiveness": 3436,
      "Ġvalid": 3437,
      "rency": 3438,
      "lighten": 3439,
      "Ġassistance": 3440,
      "print": 3441,
      "Ġaccompl": 3442,
      "Ġstakeholders": 3443,
      "Ġcut": 3444,
      "Ġokay": 3445,
      "Ġthr": 3446,
      "Ġexpensive": 3447,
      "formation": 3448,
      "Ġinfrastructure": 3449,
      "ĠVis": 3450,
      "Ġcomplete": 3451,
      "porary": 3452,
      "Ġproduce": 3453,
      "Ġregardless": 3454,
      "Ġweek": 3455,
      "ĠCollabor": 3456,
      "lightenment": 3457,
      "word": 3458,
      "inations": 3459,
      "alized": 3460,
      "ifically": 3461,
      "Ġdishes": 3462,
      "Ġuseful": 3463,
      "Ġgenerations": 3464,
      "nother": 3465,
      "comp": 3466,
      "Ġmaterial": 3467,
      "Ġclasses": 3468,
      "Ġhabits": 3469,
      "Ġrunning": 3470,
      "Ġadvantage": 3471,
      "Ġalgorith": 3472,
      "building": 3473,
      "ror": 3474,
      "Ġver": 3475,
      "head": 3476,
      "Ġsav": 3477,
      "Ġdy": 3478,
      "room": 3479,
      "Ġleave": 3480,
      "Ġadm": 3481,
      "Ġrise": 3482,
      "Ġstudent": 3483,
      "Ġmonitoring": 3484,
      "Ġstreaming": 3485,
      "Ġbeauty": 3486,
      "Ġjuice": 3487,
      "crip": 3488,
      "eed": 3489,
      "tra": 3490,
      "Ġfans": 3491,
      "Ġeating": 3492,
      "enty": 3493,
      "Ġclients": 3494,
      "Ġspaces": 3495,
      "Ġscore": 3496,
      "Ġsignificantly": 3497,
      "Ġgrowing": 3498,
      "Ġgenerate": 3499,
      "Ġconfident": 3500,
      "Ġenjoyable": 3501,
      "Ġbehaviors": 3502,
      "Ġimmed": 3503,
      "Ġeye": 3504,
      "Ġcrypt": 3505,
      "ĠEurope": 3506,
      "Ġine": 3507,
      "icated": 3508,
      "eth": 3509,
      "Ġmeat": 3510,
      "Ġelectric": 3511,
      "Ġlittle": 3512,
      "Ġmistakes": 3513,
      "Ġprayer": 3514,
      "ĠIdentify": 3515,
      "pite": 3516,
      "Ġ7": 3517,
      "Ġframe": 3518,
      "Ġgrap": 3519,
      "Ġexpenses": 3520,
      "iled": 3521,
      "Ġinstance": 3522,
      "Ġdays": 3523,
      "Ġemergency": 3524,
      "Ġargue": 3525,
      "de": 3526,
      "ler": 3527,
      "itch": 3528,
      "itions": 3529,
      "Ġonce": 3530,
      "Ġsun": 3531,
      "Ġang": 3532,
      "Ġenc": 3533,
      "Ġvict": 3534,
      "osed": 3535,
      "Ġadvert": 3536,
      "ĠLinked": 3537,
      "reneur": 3538,
      "Ġvision": 3539,
      "istency": 3540,
      "Ġrequired": 3541,
      "Ġraise": 3542,
      "Ġreligion": 3543,
      "ternal": 3544,
      "Ġinteractive": 3545,
      "Ġstrengths": 3546,
      "Ġtemper": 3547,
      "repreneur": 3548,
      "Ġexpertise": 3549,
      "Ġcomprehensive": 3550,
      "ĠLinkedIn": 3551,
      "bal": 3552,
      "Ġtaste": 3553,
      "Ġcross": 3554,
      "Ġsac": 3555,
      "itam": 3556,
      "Ġpow": 3557,
      "Ġrich": 3558,
      "nesses": 3559,
      "Ġclassic": 3560,
      "Ġdeli": 3561,
      "Ġupdates": 3562,
      "Ġentertainment": 3563,
      "Ġconstantly": 3564,
      "Ġcitizens": 3565,
      "gs": 3566,
      "ply": 3567,
      "Ġdang": 3568,
      "oogle": 3569,
      "iences": 3570,
      "lications": 3571,
      "Ġproductive": 3572,
      "Ġmusical": 3573,
      "olutely": 3574,
      "conomic": 3575,
      "Ġmeeting": 3576,
      "Ġforest": 3577,
      "hics": 3578,
      "makers": 3579,
      "rict": 3580,
      "itect": 3581,
      "irs": 3582,
      "Ġsuitable": 3583,
      "Ġmood": 3584,
      "Ġchann": 3585,
      "Ġchoosing": 3586,
      "efore": 3587,
      "Ġprivate": 3588,
      "Ġcaused": 3589,
      "Ġappear": 3590,
      "Ġoutdoor": 3591,
      "iking": 3592,
      "Ġtail": 3593,
      "Ġmor": 3594,
      "Ġforward": 3595,
      "uly": 3596,
      "Ġstra": 3597,
      "Ġintim": 3598,
      "ĠCelebr": 3599,
      "Ġplenty": 3600,
      "ruption": 3601,
      "ensity": 3602,
      "Ġprovided": 3603,
      "Ġinvestments": 3604,
      "backs": 3605,
      "itudes": 3606,
      "ĠEngage": 3607,
      "ĠRegular": 3608,
      "Ġsocietal": 3609,
      "Ġauthentic": 3610,
      "To": 3611,
      "gest": 3612,
      "put": 3613,
      "Ġir": 3614,
      "Ġtens": 3615,
      "Ġpand": 3616,
      "iced": 3617,
      "ĠTV": 3618,
      "Ġshift": 3619,
      "rounds": 3620,
      "ĠGoogle": 3621,
      "Ġroom": 3622,
      "Ġpotentially": 3623,
      "Ġgameplay": 3624,
      "Ġfreed": 3625,
      "Ġmargin": 3626,
      "ĠâĢĵ": 3627,
      "Ġinstitutions": 3628,
      "ht": 3629,
      "par": 3630,
      "tics": 3631,
      "Ġhol": 3632,
      "iring": 3633,
      "Ġhands": 3634,
      "izz": 3635,
      "ibr": 3636,
      "Ġtechnical": 3637,
      "Ġparty": 3638,
      "Ġsoil": 3639,
      "Ġtransition": 3640,
      "Ġguides": 3641,
      "Ġbiases": 3642,
      "Ġrestaur": 3643,
      "forcement": 3644,
      "Ġdistractions": 3645,
      "Ġcrisis": 3646,
      "Ġborrow": 3647,
      "),": 3648,
      "ener": 3649,
      "Ġopp": 3650,
      "Ġdoc": 3651,
      "Ġreward": 3652,
      "Ġhours": 3653,
      "Ġstructure": 3654,
      "Ġabilities": 3655,
      "Ġtried": 3656,
      "Ġexperiencing": 3657,
      "Ġevaluation": 3658,
      "Ġtrading": 3659,
      "Ġacknowledge": 3660,
      "au": 3661,
      "right": 3662,
      "alent": 3663,
      "isms": 3664,
      "Ġchart": 3665,
      "ooks": 3666,
      "pected": 3667,
      "ception": 3668,
      "Ġfunds": 3669,
      "ĠSmart": 3670,
      "Ġprogramming": 3671,
      "Ġmobile": 3672,
      "ĠRevolution": 3673,
      "Ġtouch": 3674,
      "cles": 3675,
      "Ġtracking": 3676,
      "Ġpersonality": 3677,
      "Ġspecifically": 3678,
      "Ġimprovement": 3679,
      "ĠRec": 3680,
      "Ġnegot": 3681,
      "ĠEnlightenment": 3682,
      "Ġtreatments": 3683,
      "Ġtransparent": 3684,
      "Ġreading": 3685,
      "Ġstronger": 3686,
      "Ġconsumption": 3687,
      "Ġvolunte": 3688,
      "Ġsnacks": 3689,
      "ĠProvide": 3690,
      "Ġfootprint": 3691,
      "Ġarchitect": 3692,
      "ratic": 3693,
      "Ġwat": 3694,
      "ises": 3695,
      "Ġstim": 3696,
      "Ġstorage": 3697,
      "ĠAll": 3698,
      "Ġnear": 3699,
      "Ġplants": 3700,
      "Ġresil": 3701,
      "Ġallerg": 3702,
      "oyal": 3703,
      "Ġaudiences": 3704,
      "Ġinclusion": 3705,
      "Ġsensitive": 3706,
      "ĠPlan": 3707,
      "Ġfacial": 3708,
      "Ġbecomes": 3709,
      "Ġdestination": 3710,
      "Ġshaping": 3711,
      "Ġsand": 3712,
      "Ġnan": 3713,
      "sect": 3714,
      "Ġheat": 3715,
      "Ġexcess": 3716,
      "Ġenable": 3717,
      "ĠBrit": 3718,
      "Ġapply": 3719,
      "Ġrecovery": 3720,
      "Ġflu": 3721,
      "Ġdevice": 3722,
      "Ġtrend": 3723,
      "Ġmilitary": 3724,
      "Ġstatements": 3725,
      "Ġinfluencers": 3726,
      "Ġtrade": 3727,
      "Ġexisting": 3728,
      "Ġclubs": 3729,
      "Ġdemocra": 3730,
      "Ġjudgment": 3731,
      "Ġinterpret": 3732,
      "sh": 3733,
      "entle": 3734,
      "Ġconvey": 3735,
      "aker": 3736,
      "Ġmonth": 3737,
      "Ġrecognition": 3738,
      "Ġconsumers": 3739,
      "Ġcommitted": 3740,
      "Ġnutrit": 3741,
      "Ġevaluate": 3742,
      "Ġbackgrounds": 3743,
      "oT": 3744,
      "ters": 3745,
      "Ġrein": 3746,
      "Ġneuro": 3747,
      "Ġshop": 3748,
      "Ġcompat": 3749,
      "Ġtruly": 3750,
      "ĠOverall": 3751,
      "Ġattitudes": 3752,
      "Ġexplain": 3753,
      "Ġpoliticians": 3754,
      "Ġrevenue": 3755,
      "Ġsolar": 3756,
      "ĠIntern": 3757,
      "Ġmutual": 3758,
      "Ġbarriers": 3759,
      "can": 3760,
      "log": 3761,
      "und": 3762,
      "ym": 3763,
      "Ġtone": 3764,
      "Ġdark": 3765,
      "Ġreact": 3766,
      "ute": 3767,
      "Ġfear": 3768,
      "osplay": 3769,
      "iber": 3770,
      "Ġcontact": 3771,
      "Ġtechnological": 3772,
      "Ġpopularity": 3773,
      "Ġdecre": 3774,
      "ĠPlay": 3775,
      "Ġstruggling": 3776,
      "Ġreason": 3777,
      "Ġprepared": 3778,
      "Ġjournal": 3779,
      "Ġdiseases": 3780,
      "ocolate": 3781,
      "Ġhydrated": 3782,
      "free": 3783,
      "telling": 3784,
      "ina": 3785,
      "Ġwatch": 3786,
      "Ġloyal": 3787,
      "Ġhearing": 3788,
      "ocks": 3789,
      "que": 3790,
      "ously": 3791,
      "Ġunex": 3792,
      "Ġscal": 3793,
      "Ġsettings": 3794,
      "Ġdelicious": 3795,
      "Ġfields": 3796,
      "Ġdirectly": 3797,
      "fficient": 3798,
      "ĠGovern": 3799,
      "Ġaccomplish": 3800,
      "lines": 3801,
      "ufact": 3802,
      "Ġstore": 3803,
      "Ġreson": 3804,
      "Ġhealthier": 3805,
      "Ġclim": 3806,
      "Ġartwork": 3807,
      "Ġimproved": 3808,
      "Ġadding": 3809,
      "Ġrelease": 3810,
      "Ġapplication": 3811,
      "Ġjournaling": 3812,
      "Ġencouraging": 3813,
      "Ġadoption": 3814,
      "Ġdedicated": 3815,
      "Ġathletes": 3816,
      "cent": 3817,
      "til": 3818,
      "Ã©": 3819,
      "Ġgentle": 3820,
      "ulations": 3821,
      "ĠPerson": 3822,
      "Ġacad": 3823,
      "Ġdoct": 3824,
      "Ġpractical": 3825,
      "Ġadventure": 3826,
      "ried": 3827,
      "Ġmemor": 3828,
      "ission": 3829,
      "Ġdistance": 3830,
      "Ġhappen": 3831,
      "Ġsales": 3832,
      "ĠMindfulness": 3833,
      "Ġfragr": 3834,
      "Ġreliable": 3835,
      "Ġnetworking": 3836,
      "Ġcolleag": 3837,
      "Are": 3838,
      "Ġbit": 3839,
      "Ġeat": 3840,
      "roll": 3841,
      "Ġcoming": 3842,
      "ived": 3843,
      "ĠAss": 3844,
      "ĠSpe": 3845,
      "unch": 3846,
      "ĠBefore": 3847,
      "Ġcompon": 3848,
      "ptions": 3849,
      "ĠFollow": 3850,
      "Ġmedic": 3851,
      "Ġgamers": 3852,
      "ĠGree": 3853,
      "Ġartificial": 3854,
      "Ġremove": 3855,
      "Ġconnected": 3856,
      "Ġresponses": 3857,
      "Ġdetect": 3858,
      "Ġgrass": 3859,
      "Ġentrepreneur": 3860,
      "Ġcertainly": 3861,
      "Ġmeasure": 3862,
      "Ġphotos": 3863,
      "Ġadvisor": 3864,
      "Ġmitigate": 3865,
      "Ġlatest": 3866,
      "Ġunexpected": 3867,
      "bol": 3868,
      "man": 3869,
      "Ġwet": 3870,
      "Ġwider": 3871,
      "Ġdom": 3872,
      "rop": 3873,
      "Ġlands": 3874,
      "ĠAnd": 3875,
      "ury": 3876,
      "adow": 3877,
      "Ġhasht": 3878,
      "Ġdiscussions": 3879,
      "Ġpandemic": 3880,
      "ĠBritish": 3881,
      "awareness": 3882,
      "party": 3883,
      "onic": 3884,
      "Ġside": 3885,
      "Ġwords": 3886,
      "ĠPart": 3887,
      "Ġmedium": 3888,
      "Ġassum": 3889,
      "intage": 3890,
      "Ġparenting": 3891,
      "Ġobjectives": 3892,
      "Ġdepression": 3893,
      "Ġrepresentation": 3894,
      "Ġpieces": 3895,
      "Ġwait": 3896,
      "Ġcounseling": 3897,
      "rist": 3898,
      "the": 3899,
      "Ġwon": 3900,
      "Ġran": 3901,
      "ultural": 3902,
      "Ġincome": 3903,
      "ĠWar": 3904,
      "Ġapproaches": 3905,
      "Ġemployers": 3906,
      "Ġeveryday": 3907,
      "Ġperformances": 3908,
      "Ġchem": 3909,
      "Ġcontrovers": 3910,
      "Ġsupply": 3911,
      "Ġswimming": 3912,
      "Ġoils": 3913,
      "Ġfruits": 3914,
      "Ġoverwhelmed": 3915,
      "Ġalgorithms": 3916,
      "20": 3917,
      "ec": 3918,
      "idents": 3919,
      "Ġalone": 3920,
      "osing": 3921,
      "ĠWest": 3922,
      "Ġarise": 3923,
      "Ġoptim": 3924,
      "Ġvehic": 3925,
      "Ġextre": 3926,
      "Ġtopic": 3927,
      "ĠShare": 3928,
      "Ġserve": 3929,
      "Ġuniversities": 3930,
      "rel": 3931,
      "itivity": 3932,
      "Ġpush": 3933,
      "Ġtoler": 3934,
      "Ġbur": 3935,
      "ised": 3936,
      "icip": 3937,
      "sets": 3938,
      "amm": 3939,
      "Ġalt": 3940,
      "ĠSw": 3941,
      "ĠCar": 3942,
      "une": 3943,
      "ffect": 3944,
      "Ġmanip": 3945,
      "Ġspeaking": 3946,
      "Ġarr": 3947,
      "Ġcreates": 3948,
      "Ġanalytics": 3949,
      "Ġrestrict": 3950,
      "Ġtours": 3951,
      "Ġinspired": 3952,
      "Ġcompetition": 3953,
      "Ġobjects": 3954,
      "Ġsymbol": 3955,
      "Ġbasic": 3956,
      "ĠHealth": 3957,
      "Ġpiece": 3958,
      "Ġintrodu": 3959,
      "Ġmeditations": 3960,
      "ban": 3961,
      "book": 3962,
      "Ġtut": 3963,
      "Ġrely": 3964,
      "Ġasset": 3965,
      "Ġalle": 3966,
      "Ġvitam": 3967,
      "agram": 3968,
      "odc": 3969,
      "ĠOver": 3970,
      "Ġengra": 3971,
      "Ġprotecting": 3972,
      "Ġexploration": 3973,
      "Ġaffirm": 3974,
      "Ġsimply": 3975,
      "Ġworksh": 3976,
      "Ġnecessarily": 3977,
      "ĠLGBTQ": 3978,
      "ĠCelebrate": 3979,
      "Some": 3980,
      "bul": 3981,
      "cape": 3982,
      "Ġcam": 3983,
      "Ġcooking": 3984,
      "Ġsize": 3985,
      "Ġfat": 3986,
      "Ġinner": 3987,
      "Ġthird": 3988,
      "Ġhurt": 3989,
      "Ġproced": 3990,
      "Ġincent": 3991,
      "ĠEar": 3992,
      "ĠGod": 3993,
      "duction": 3994,
      "Ġactivism": 3995,
      "Ġinstru": 3996,
      "Ġdowns": 3997,
      "Ġexpected": 3998,
      "Ġpresence": 3999,
      "Ġ201": 4000,
      "ĠLearning": 4001,
      "Ġstatus": 4002,
      "Ġcolleagues": 4003,
      "You": 4004,
      "cip": 4005,
      "ees": 4006,
      "Ġz": 4007,
      "Ġsne": 4008,
      "eria": 4009,
      "Ġwed": 4010,
      "Ġgiving": 4011,
      "raid": 4012,
      "ĠIoT": 4013,
      "ĠCol": 4014,
      "ĠHigh": 4015,
      "Ġapplying": 4016,
      "erving": 4017,
      "Ġblock": 4018,
      "ognitive": 4019,
      "Ġcapable": 4020,
      "Ġinspire": 4021,
      "Ġseries": 4022,
      "Ġboard": 4023,
      "Ġproperly": 4024,
      "Ġhabitats": 4025,
      "load": 4026,
      "Ġmax": 4027,
      "etes": 4028,
      "Ġanc": 4029,
      "abetes": 4030,
      "Ġvac": 4031,
      "Ġshoes": 4032,
      "Ġadequ": 4033,
      "rencies": 4034,
      "Ġtraveling": 4035,
      "Ġafraid": 4036,
      "Ġstorytelling": 4037,
      "ĠEmploy": 4038,
      "Ġfaster": 4039,
      "Here": 4040,
      "Ġaugmented": 4041,
      "Ġcook": 4042,
      "Ġfar": 4043,
      "Ġmanufact": 4044,
      "Ġweak": 4045,
      "Ġmindset": 4046,
      "Ġhighlight": 4047,
      "ĠRead": 4048,
      "Ġdecide": 4049,
      "Ġcausing": 4050,
      "Ġprevious": 4051,
      "Ġyoung": 4052,
      "Ġcapture": 4053,
      "Ġadvertising": 4054,
      "eng": 4055,
      "Ġpar": 4056,
      "Ġhouse": 4057,
      "ras": 4058,
      "Ġsuff": 4059,
      "Ġvital": 4060,
      "Ġspend": 4061,
      "Ġcreation": 4062,
      "Ġprint": 4063,
      "orporate": 4064,
      "Ġmisu": 4065,
      "ĠInstagram": 4066,
      "Ġdemocratic": 4067,
      "Ġconstructive": 4068,
      "Ġsingle": 4069,
      "Ġcompromise": 4070,
      "Ġgiven": 4071,
      "Ġdead": 4072,
      "Ġclar": 4073,
      "ĠLoc": 4074,
      "Ġmentors": 4075,
      "Ġbreast": 4076,
      "rients": 4077,
      "Ġskincare": 4078,
      "Ġcarry": 4079,
      "Ġvoter": 4080,
      "Ġlighting": 4081,
      "Ġcontains": 4082,
      "ĠOnline": 4083,
      "yc": 4084,
      "olved": 4085,
      "oty": 4086,
      "ĠSk": 4087,
      "Ġchocolate": 4088,
      "Ġcontract": 4089,
      "ĠWor": 4090,
      "Ġunc": 4091,
      "Ġsole": 4092,
      "Ġcareers": 4093,
      "Ġcommonly": 4094,
      "Ġhappy": 4095,
      "Ġvoters": 4096,
      "Ġcompetitive": 4097,
      "Ġoperations": 4098,
      "Ġefficiently": 4099,
      "ĠSurreal": 4100,
      "Ġpursu": 4101,
      "Ġpregnancy": 4102,
      "Furthermore": 4103,
      "ship": 4104,
      "yam": 4105,
      "zz": 4106,
      "Ġdating": 4107,
      "Ġline": 4108,
      "iful": 4109,
      "Ġconfere": 4110,
      "Ġru": 4111,
      "Ġtheme": 4112,
      "asting": 4113,
      "aves": 4114,
      "Ġorganic": 4115,
      "Ġallowed": 4116,
      "Ġloan": 4117,
      "Ġpreference": 4118,
      "ĠAny": 4119,
      "Ġnumerous": 4120,
      "Ġincreasingly": 4121,
      "Ġwrong": 4122,
      "Moreover": 4123,
      "date": 4124,
      "ris": 4125,
      "Ġden": 4126,
      "Ġhor": 4127,
      "Ġgather": 4128,
      "ĠTaking": 4129,
      "Ġconven": 4130,
      "Ġseason": 4131,
      "ĠDes": 4132,
      "ĠRen": 4133,
      "Ġprices": 4134,
      "Ġcultivate": 4135,
      "rowd": 4136,
      "ĠNet": 4137,
      "Ġpath": 4138,
      "Ġbalanced": 4139,
      "Ġlimits": 4140,
      "Ġaffected": 4141,
      "Ġforeign": 4142,
      "uracy": 4143,
      "Ġbeautiful": 4144,
      "Ġfruit": 4145,
      "Ġpurchase": 4146,
      "Ġreputation": 4147,
      "Ġfaith": 4148,
      "Ġhobbies": 4149,
      "Ġprimary": 4150,
      "One": 4151,
      "Ġtough": 4152,
      "ioned": 4153,
      "vere": 4154,
      "rog": 4155,
      "ĠCo": 4156,
      "artial": 4157,
      "Ġsecon": 4158,
      "Ġunderlying": 4159,
      "Ġkit": 4160,
      "Ġbuying": 4161,
      "Ġagencies": 4162,
      "Ġguess": 4163,
      "Ġmarkets": 4164,
      "Ġsoul": 4165,
      "Ġeyes": 4166,
      "Ġembra": 4167,
      "Ġmarginalized": 4168,
      "fit": 4169,
      "Ġ$": 4170,
      "inate": 4171,
      "Ġcall": 4172,
      "Ġselling": 4173,
      "anch": 4174,
      "Ġfight": 4175,
      "Ġfarm": 4176,
      "Ġhate": 4177,
      "ads": 4178,
      "ĠCreat": 4179,
      "active": 4180,
      "ibly": 4181,
      "Ġpepp": 4182,
      "ĠFr": 4183,
      "ells": 4184,
      "Ġmodels": 4185,
      "Ġscreen": 4186,
      "Ġaccuracy": 4187,
      "Ġremote": 4188,
      "Ġpreventing": 4189,
      "Ġcritic": 4190,
      "Ġelection": 4191,
      "Ġattractions": 4192,
      "Ġcelebrate": 4193,
      "ĠEducation": 4194,
      "ĠTrans": 4195,
      "Ġbroader": 4196,
      "Ġhashtags": 4197,
      "na": 4198,
      "ĠZ": 4199,
      "orough": 4200,
      "eds": 4201,
      "stract": 4202,
      "Ġgas": 4203,
      "pping": 4204,
      "empt": 4205,
      "ĠPay": 4206,
      "ĠEven": 4207,
      "asters": 4208,
      "Ġtransform": 4209,
      "Ġresponsibilities": 4210,
      "Ġdiabetes": 4211,
      "Ġcontributions": 4212,
      "Ġinclusivity": 4213,
      "Ġbeginner": 4214,
      "Ġnutrients": 4215,
      "Ġcauses": 4216,
      "Ġmission": 4217,
      "Ġworkouts": 4218,
      "Ġfunctional": 4219,
      "Ġregarding": 4220,
      "Ġharass": 4221,
      "compassion": 4222,
      "Ġfreedom": 4223,
      "IP": 4224,
      "house": 4225,
      "ira": 4226,
      "Ġmass": 4227,
      "Ġthorough": 4228,
      "Ġhom": 4229,
      "Ġlater": 4230,
      "Ġexternal": 4231,
      "through": 4232,
      "Ġmanner": 4233,
      "Ġmeal": 4234,
      "ĠGP": 4235,
      "Ġbuilt": 4236,
      "Ġincred": 4237,
      "Ġinstall": 4238,
      "ĠChrist": 4239,
      "Ġcurious": 4240,
      "Ġregulation": 4241,
      "ĠTechnology": 4242,
      "ĠCommunication": 4243,
      "ĠJoin": 4244,
      "Ġstretching": 4245,
      "ĠOrgan": 4246,
      "Ġbackground": 4247,
      "Ġtemperature": 4248,
      "Ġchemical": 4249,
      "Ġahead": 4250,
      "Ġmort": 4251,
      "Ġfert": 4252,
      "Ġbab": 4253,
      "lear": 4254,
      "otics": 4255,
      "Ġforums": 4256,
      "uts": 4257,
      "Ġventure": 4258,
      "ushing": 4259,
      "Ġmakeup": 4260,
      "ĠInvest": 4261,
      "Ġunderstandable": 4262,
      "Ġbuy": 4263,
      "Ġpatients": 4264,
      "Ġbehind": 4265,
      "Ġdiffer": 4266,
      "Ġrace": 4267,
      "Ġcurrency": 4268,
      "Ġdistribut": 4269,
      "Ġsoup": 4270,
      "Ġmoments": 4271,
      "000": 4272,
      "Ġprinting": 4273,
      "ĠCompan": 4274,
      "Ġcopy": 4275,
      "ĠOffer": 4276,
      "Ġconsciousness": 4277,
      "Ġdynam": 4278,
      "ĠInternational": 4279,
      "Ġacademic": 4280,
      "Ġmemorable": 4281,
      ").": 4282,
      "ipe": 4283,
      "inary": 4284,
      "Ġpun": 4285,
      "Ġpodc": 4286,
      "Ġmen": 4287,
      "Ġmember": 4288,
      "Ġdiving": 4289,
      "Ġhiking": 4290,
      "andise": 4291,
      "Ġanyone": 4292,
      "ĠWrit": 4293,
      "Ġwealth": 4294,
      "ĠGreat": 4295,
      "Ġquant": 4296,
      "ought": 4297,
      "Ġorganized": 4298,
      "Ġoptimize": 4299,
      "Ġconsiderations": 4300,
      "Ġpriorities": 4301,
      "Ġcleaning": 4302,
      "phone": 4303,
      "known": 4304,
      "board": 4305,
      "Ġprincip": 4306,
      "Ġtutor": 4307,
      "Ġworkshops": 4308,
      "aust": 4309,
      "fast": 4310,
      "talk": 4311,
      "vable": 4312,
      "Ġwar": 4313,
      "Ġlog": 4314,
      "oph": 4315,
      "Ġvintage": 4316,
      "Ġleast": 4317,
      "ĠHol": 4318,
      "ĠDr": 4319,
      "ĠRef": 4320,
      "Ġmuscles": 4321,
      "ĠAdv": 4322,
      "Ġfactor": 4323,
      "Ġpossibilities": 4324,
      "Ġobst": 4325,
      "Ġearth": 4326,
      "Ġclothes": 4327,
      "ront": 4328,
      "Ġmask": 4329,
      "ĠGovernments": 4330,
      "Ġmisunderstand": 4331,
      "dration": 4332,
      "jud": 4333,
      "pet": 4334,
      "ricult": 4335,
      "orce": 4336,
      "ably": 4337,
      "Ġimages": 4338,
      "Ġimplications": 4339,
      "Ġchance": 4340,
      "istics": 4341,
      "Ġrom": 4342,
      "Ġplastic": 4343,
      "Ġcla": 4344,
      "Ġarts": 4345,
      "atively": 4346,
      "Ġroles": 4347,
      "Ġnovel": 4348,
      "Ġsatisf": 4349,
      "urable": 4350,
      "Ġinstructions": 4351,
      "otton": 4352,
      "Ġdemonstrate": 4353,
      "archers": 4354,
      "Ġchannels": 4355,
      "Ġtension": 4356,
      "Ġaffirmations": 4357,
      "Ġsolely": 4358,
      "cl": 4359,
      "mind": 4360,
      "inated": 4361,
      "nders": 4362,
      "ulpt": 4363,
      "Ġteac": 4364,
      "Ġmeals": 4365,
      "ĠUsing": 4366,
      "Ġengines": 4367,
      "Ġagricult": 4368,
      "Ġinsight": 4369,
      "Ġdesigners": 4370,
      "Ġcheese": 4371,
      "Ġgear": 4372,
      "ographic": 4373,
      "Ġvalued": 4374,
      "Ġfilm": 4375,
      "Ġdisease": 4376,
      "Ġpsychological": 4377,
      "Ġinequality": 4378,
      "Ġdemocracy": 4379,
      "Ġloyalty": 4380,
      "ma": 4381,
      "Ġterm": 4382,
      "Ġpa": 4383,
      "Ġwin": 4384,
      "Ġburn": 4385,
      "Ġrepl": 4386,
      "road": 4387,
      "Ġhealing": 4388,
      "Ġassets": 4389,
      "ĠShe": 4390,
      "antic": 4391,
      "Ġheld": 4392,
      "ĠBus": 4393,
      "Ġjum": 4394,
      "Ġjack": 4395,
      "Ġdisrupt": 4396,
      "ĠGl": 4397,
      "ĠGam": 4398,
      "Ġoffic": 4399,
      "Ġguard": 4400,
      "Ġdiscoura": 4401,
      "Ġfollowers": 4402,
      "Ġavoiding": 4403,
      "Ġrevolution": 4404,
      "ĠUnion": 4405,
      "Ġconstra": 4406,
      "ĠExper": 4407,
      "Ġmisc": 4408,
      "Ġreflection": 4409,
      "Ġdestinations": 4410,
      "ĠQA": 4411,
      "ĠQu": 4412,
      "Ġdrinks": 4413,
      "Ġdidn": 4414,
      "Ġcomputer": 4415,
      "Ġoriginal": 4416,
      "ĠIncreased": 4417,
      "iddle": 4418,
      "Ġshowcase": 4419,
      "ID": 4420,
      "Ġtalking": 4421,
      "Ġcognitive": 4422,
      "Ġsell": 4423,
      "orous": 4424,
      "Ġfall": 4425,
      "Ġinput": 4426,
      "Ġnerv": 4427,
      "verty": 4428,
      "Ġvast": 4429,
      "ipes": 4430,
      "izations": 4431,
      "ĠDis": 4432,
      "Ġgenres": 4433,
      "Ġwellness": 4434,
      "Ġteams": 4435,
      "Ġpoverty": 4436,
      "Ġtravelers": 4437,
      "Ġexpressing": 4438,
      "Ġsouven": 4439,
      "Ġagreement": 4440,
      "Ġfacil": 4441,
      "Ġappreciation": 4442,
      "Ġemerging": 4443,
      "Ġanimal": 4444,
      "Ġkindness": 4445,
      "ĠWear": 4446,
      "Ġtexture": 4447,
      "Ġnormal": 4448,
      "Ġwillingness": 4449,
      "Ġsnack": 4450,
      "Ġoverwhelming": 4451,
      "ĠAfric": 4452,
      "Ġindependent": 4453,
      "Ġentirely": 4454,
      "Ġsavings": 4455,
      "Ġappearance": 4456,
      "Abs": 4457,
      "aff": 4458,
      "bl": 4459,
      "mat": 4460,
      "water": 4461,
      "Ġgar": 4462,
      "Ġmoving": 4463,
      "Ġworry": 4464,
      "ĠFace": 4465,
      "ĠGu": 4466,
      "Ġrock": 4467,
      "Ġplays": 4468,
      "Ġintersect": 4469,
      "Ġemployer": 4470,
      "Ġinflation": 4471,
      "Ġbiod": 4472,
      "Ġdeeply": 4473,
      "azon": 4474,
      "Ġmessaging": 4475,
      "ĠRedu": 4476,
      "Ġsubjective": 4477,
      "Ġpeaceful": 4478,
      "Ġthreats": 4479,
      "Ġliterature": 4480,
      "Ġmerchandise": 4481,
      "cript": 4482,
      "Ġsandw": 4483,
      "Ġdownsides": 4484,
      "Ġwedding": 4485,
      "Ġobstac": 4486,
      "avery": 4487,
      "feed": 4488,
      "oving": 4489,
      "Ġcosplay": 4490,
      "Ġsil": 4491,
      "Ġpaper": 4492,
      "Ġbir": 4493,
      "Ġbond": 4494,
      "Ġdru": 4495,
      "security": 4496,
      "Ġstop": 4497,
      "Ġfees": 4498,
      "oses": 4499,
      "Ġteeth": 4500,
      "Ġindic": 4501,
      "Ġconsistency": 4502,
      "Ġclose": 4503,
      "Ġmyst": 4504,
      "Ġsaid": 4505,
      "Ġadded": 4506,
      "Ġpromotes": 4507,
      "Ġflav": 4508,
      "Ġ10": 4509,
      "ĠShow": 4510,
      "Ġamounts": 4511,
      "Ġacceptance": 4512,
      "Ġstretch": 4513,
      "Ġfestivals": 4514,
      "Ġgraphics": 4515,
      "Ġsacred": 4516,
      "Ġancient": 4517,
      "Ġharassment": 4518,
      "Absolutely": 4519,
      "eem": 4520,
      "gage": 4521,
      "hol": 4522,
      "Ġrap": 4523,
      "lets": 4524,
      "Ġlabor": 4525,
      "ays": 4526,
      "Ġhes": 4527,
      "ades": 4528,
      "Ġintent": 4529,
      "ĠBar": 4530,
      "ĠMus": 4531,
      "ume": 4532,
      "ĠEst": 4533,
      "Ġrecyc": 4534,
      "ĠGra": 4535,
      "ĠOther": 4536,
      "Ġcoop": 4537,
      "works": 4538,
      "Ġphysics": 4539,
      "Ġconsidering": 4540,
      "arents": 4541,
      "Ġ30": 4542,
      "Ġdrive": 4543,
      "Ġdiagn": 4544,
      "ĠExpl": 4545,
      "Ġsolve": 4546,
      "ĠEmp": 4547,
      "Ġvisitors": 4548,
      "Ġanti": 4549,
      "Ġemphasis": 4550,
      "Ġsongs": 4551,
      "ĠBreak": 4552,
      "Ġresilience": 4553,
      "ffective": 4554,
      "minded": 4555,
      "Ġconstraints": 4556,
      "chen": 4557,
      "Ġcotton": 4558,
      "Ġpair": 4559,
      "Ġutil": 4560,
      "ains": 4561,
      "ĠEns": 4562,
      "aps": 4563,
      "Ġmentoring": 4564,
      "fortable": 4565,
      "Ġpool": 4566,
      "Ġcalled": 4567,
      "Ġequal": 4568,
      "Ġfreel": 4569,
      "Ġcentral": 4570,
      "Ġconcepts": 4571,
      "Ġestablished": 4572,
      "Ġfulfilling": 4573,
      "Ġsurroundings": 4574,
      "Ġcompared": 4575,
      "bullying": 4576,
      "Another": 4577,
      "Int": 4578,
      "most": 4579,
      "made": 4580,
      "information": 4581,
      "orn": 4582,
      "Ġtot": 4583,
      "Ġreef": 4584,
      "Ġforget": 4585,
      "own": 4586,
      "igation": 4587,
      "ĠCO": 4588,
      "Ġabstract": 4589,
      "ĠRem": 4590,
      "Ġpersonally": 4591,
      "Ġgoes": 4592,
      "ĠLack": 4593,
      "Ġsculpt": 4594,
      "Ġgenu": 4595,
      "Ġbelieved": 4596,
      "Ġcomplement": 4597,
      "Ġprotected": 4598,
      "Ġdetails": 4599,
      "ĠProt": 4600,
      "ĠAmazon": 4601,
      "ĠExp": 4602,
      "Ġcapabilities": 4603,
      "Ġpassword": 4604,
      "Ġaccordingly": 4605,
      "Ġarchitecture": 4606,
      "Ġcompatibility": 4607,
      "related": 4608,
      "ĠCompanies": 4609,
      "Ġmisunderstandings": 4610,
      "iverse": 4611,
      "inct": 4612,
      "ont": 4613,
      "Ġmill": 4614,
      "ley": 4615,
      "Ġep": 4616,
      "ilos": 4617,
      "Ġste": 4618,
      "ipline": 4619,
      "Ġcontem": 4620,
      "Ġunf": 4621,
      "arning": 4622,
      "Ġdespite": 4623,
      "connect": 4624,
      "Ġcope": 4625,
      "Ġourselves": 4626,
      "Ġachievable": 4627,
      "Ġsurvey": 4628,
      "Ġglass": 4629,
      "Ġclassroom": 4630,
      "Ġsensors": 4631,
      "Ġeventually": 4632,
      "lusive": 4633,
      "Ġadvocacy": 4634,
      "cks": 4635,
      "oint": 4636,
      "Ġsizes": 4637,
      "oub": 4638,
      "Ġpen": 4639,
      "ceed": 4640,
      "esteem": 4641,
      "ĠCal": 4642,
      "unning": 4643,
      "ĠPark": 4644,
      "Ġrecover": 4645,
      "Ġclos": 4646,
      "Ġreduced": 4647,
      "Ġattempt": 4648,
      "ĠVIP": 4649,
      "Ġmentioned": 4650,
      "Ġmothers": 4651,
      "Ġplanet": 4652,
      "icken": 4653,
      "Ġloans": 4654,
      "Ġmemory": 4655,
      "issance": 4656,
      "Ġpainting": 4657,
      "ilarly": 4658,
      "phones": 4659,
      "Ġscientists": 4660,
      "Ġpurchasing": 4661,
      "Ġvulnerable": 4662,
      "Ġproperty": 4663,
      "Ġdangerous": 4664,
      "Ġrestaurants": 4665,
      "Ġrapid": 4666,
      "VID": 4667,
      "ik": 4668,
      "taking": 4669,
      "uis": 4670,
      "Ġtalent": 4671,
      "any": 4672,
      "alt": 4673,
      "Ġwel": 4674,
      "icles": 4675,
      "storm": 4676,
      "oles": 4677,
      "Ġsuits": 4678,
      "agement": 4679,
      "Ġintensity": 4680,
      "osition": 4681,
      "Ġteen": 4682,
      "ĠMe": 4683,
      "Ġartistic": 4684,
      "Ġregion": 4685,
      "Ġrealize": 4686,
      "Ġprofit": 4687,
      "Ġcold": 4688,
      "Ġmentee": 4689,
      "Ġsets": 4690,
      "Ġbreaking": 4691,
      "Ġinteraction": 4692,
      "Ġmiscon": 4693,
      "Ġpaying": 4694,
      "Ġobjective": 4695,
      "Ġconsistently": 4696,
      "Ġcode": 4697,
      "Ġencount": 4698,
      "Ġcopyright": 4699,
      "arge": 4700,
      "Ġrepe": 4701,
      "Ġhorm": 4702,
      "etry": 4703,
      "Ġmanag": 4704,
      "ĠWild": 4705,
      "Ġbutter": 4706,
      "Ġmedication": 4707,
      "ĠLim": 4708,
      "Ġsport": 4709,
      "Ġsignificance": 4710,
      "Ġowners": 4711,
      "couraging": 4712,
      "Ġresearchers": 4713,
      "Ġsites": 4714,
      "Ġidentifying": 4715,
      "Ġimmune": 4716,
      "Ġfix": 4717,
      "Ġconsumer": 4718,
      "Ġcombat": 4719,
      "Ġadvocate": 4720,
      "Ġanalyzing": 4721,
      "Ġqualities": 4722,
      "Ġfabrics": 4723,
      "Ġfunda": 4724,
      "Ġintimacy": 4725,
      "Ġshopping": 4726,
      "ĠGreek": 4727,
      "ĠBusiness": 4728,
      "Is": 4729,
      "ailed": 4730,
      "ports": 4731,
      "xid": 4732,
      "Ġcater": 4733,
      "Ġpet": 4734,
      "Ġbase": 4735,
      "omfort": 4736,
      "Ġreb": 4737,
      "ulated": 4738,
      "Ġstruct": 4739,
      "uration": 4740,
      "ocur": 4741,
      "Ġdealing": 4742,
      "Ġleft": 4743,
      "Ġusage": 4744,
      "ĠRel": 4745,
      "ĠNot": 4746,
      "Ġmusicians": 4747,
      "Ġpoints": 4748,
      "Ġresulting": 4749,
      "Ġphilos": 4750,
      "Ġgrill": 4751,
      "Ġfuel": 4752,
      "Ġsalt": 4753,
      "Ġstatement": 4754,
      "Ġpolicymakers": 4755,
      "Ġdocument": 4756,
      "Ġofficials": 4757,
      "ĠFacebook": 4758,
      "On": 4759,
      "aissance": 4760,
      "Ġaer": 4761,
      "Ġsold": 4762,
      "Ġbed": 4763,
      "ows": 4764,
      "Ġimpressive": 4765,
      "Ġintended": 4766,
      "ĠDif": 4767,
      "Ġdifferently": 4768,
      "Ġdiscomfort": 4769,
      "Ġchecking": 4770,
      "Ġdriving": 4771,
      "Ġregulate": 4772,
      "Ġslavery": 4773,
      "Ġcollaborate": 4774,
      "Ġleadership": 4775,
      "Ġvolcan": 4776,
      "Ġperiods": 4777,
      "Ġdivorce": 4778,
      "Ġgreenhouse": 4779,
      "Ġurban": 4780,
      "Ġfabric": 4781,
      "Ġlabel": 4782,
      "Ġextreme": 4783,
      "ĠRenaissance": 4784,
      "But": 4785,
      "So": 4786,
      "crib": 4787,
      "ched": 4788,
      "eal": 4789,
      "pression": 4790,
      "spe": 4791,
      "Ġic": 4792,
      "onom": 4793,
      "Ġcrowd": 4794,
      "Ġmuse": 4795,
      "Ġlic": 4796,
      "Ġstu": 4797,
      "igration": 4798,
      "ival": 4799,
      "usion": 4800,
      "Ġsevere": 4801,
      "ĠPh": 4802,
      "Ġresistance": 4803,
      "Ġtrained": 4804,
      "Ġtraffic": 4805,
      "aching": 4806,
      "Ġquiet": 4807,
      "ĠOnce": 4808,
      "Ġideal": 4809,
      "Ġblog": 4810,
      "Ġbreakfast": 4811,
      "Ġreaders": 4812,
      "Ġreturn": 4813,
      "Ġparticipating": 4814,
      "Ġbreaths": 4815,
      "ewel": 4816,
      "Ġcyberbullying": 4817,
      "ĠImproved": 4818,
      "Ġallergies": 4819,
      "ox": 4820,
      "inist": 4821,
      "ercial": 4822,
      "Ġtox": 4823,
      "Ġfiction": 4824,
      "Ġisn": 4825,
      "Ġisol": 4826,
      "Ġsusp": 4827,
      "ĠProm": 4828,
      "ĠPok": 4829,
      "Ġtrig": 4830,
      "ĠWork": 4831,
      "Ġdisag": 4832,
      "Ġbecame": 4833,
      "ĠVol": 4834,
      "Ġinterrupt": 4835,
      "Ġphysically": 4836,
      "Ġveter": 4837,
      "Ġviewers": 4838,
      "Ġholding": 4839,
      "Ġlandm": 4840,
      "Ġprogrammed": 4841,
      "Ġsurrounding": 4842,
      "Ġcryptocur": 4843,
      "Ġassumptions": 4844,
      "Ġprinciples": 4845,
      "ĠEstabl": 4846,
      "ewelry": 4847,
      "St": 4848,
      "col": 4849,
      "oke": 4850,
      "zy": 4851,
      "Ġign": 4852,
      "Ġsent": 4853,
      "Ġfal": 4854,
      "Ġbag": 4855,
      "Ġdeath": 4856,
      "Ġenforcement": 4857,
      "aced": 4858,
      "anges": 4859,
      "Ġemail": 4860,
      "ght": 4861,
      "aster": 4862,
      "Ġroot": 4863,
      "Ġimpacted": 4864,
      "Ġgenre": 4865,
      "Ġserved": 4866,
      "Ġsetbacks": 4867,
      "ĠBeing": 4868,
      "Ġdetailed": 4869,
      "Ġmatch": 4870,
      "Ġdiscussion": 4871,
      "Ġmarine": 4872,
      "Ġsaying": 4873,
      "Ġelim": 4874,
      "Ġcurrently": 4875,
      "Ġtargeted": 4876,
      "Ġaligns": 4877,
      "ĠJoh": 4878,
      "ĠPrior": 4879,
      "Ġcharts": 4880,
      "Ġwatching": 4881,
      "Ġcamer": 4882,
      "Ġadequate": 4883,
      "cons": 4884,
      "zing": 4885,
      "Ġcuis": 4886,
      "Ġmouth": 4887,
      "Ġdogs": 4888,
      "aris": 4889,
      "Ġegg": 4890,
      "ctu": 4891,
      "Ġlip": 4892,
      "Ġlost": 4893,
      "Ġorient": 4894,
      "Ġstates": 4895,
      "utral": 4896,
      "Ġaside": 4897,
      "ults": 4898,
      "Ġprec": 4899,
      "Ġdish": 4900,
      "Ġuns": 4901,
      "Ġimprovements": 4902,
      "arsh": 4903,
      "Ġsuccesses": 4904,
      "Ġteamwork": 4905,
      "Ġequality": 4906,
      "Ġcorruption": 4907,
      "Ġcamping": 4908,
      "Ġparticipation": 4909,
      "Ġmechanics": 4910,
      "ĠEnsure": 4911,
      "Have": 4912,
      "IY": 4913,
      "iating": 4914,
      "Ġast": 4915,
      "Ġpace": 4916,
      "Ġfits": 4917,
      "Ġlines": 4918,
      "Ġund": 4919,
      "Ġproactive": 4920,
      "verage": 4921,
      "Ġresolution": 4922,
      "ĠDIY": 4923,
      "ĠMicro": 4924,
      "Ġtraits": 4925,
      "ĠRob": 4926,
      "ĠWater": 4927,
      "Ġrecipes": 4928,
      "Ġdevelopments": 4929,
      "Ġsauce": 4930,
      "Ġfocuses": 4931,
      "Ġplayer": 4932,
      "Ġfranch": 4933,
      "Ġperformers": 4934,
      "Ġmemes": 4935,
      "Ġbright": 4936,
      "Ġaddressed": 4937,
      "Ġsurface": 4938,
      "Ġyear": 4939,
      "ograph": 4940,
      "ioxid": 4941,
      "Ġdigest": 4942,
      "cohol": 4943,
      "Ġcontinued": 4944,
      "ĠAfter": 4945,
      "Ġheavily": 4946,
      "iplom": 4947,
      "Ġmonths": 4948,
      "ai": 4949,
      "den": 4950,
      "Ġagg": 4951,
      "Ġrewards": 4952,
      "Ġlate": 4953,
      "idge": 4954,
      "Ġitself": 4955,
      "ereoty": 4956,
      "usi": 4957,
      "anting": 4958,
      "Ġlenders": 4959,
      "ĠPer": 4960,
      "Ġuncom": 4961,
      "Ġpricing": 4962,
      "Ġleads": 4963,
      "lection": 4964,
      "ifying": 4965,
      "Ġconcerts": 4966,
      "Ġcustody": 4967,
      "hysical": 4968,
      "Ġcustoms": 4969,
      "Ġmemo": 4970,
      "Ġgovernance": 4971,
      "Ġcontributed": 4972,
      "ĠExercis": 4973,
      "Ġtests": 4974,
      "Ġbringing": 4975,
      "Ġsummits": 4976,
      "Ġremains": 4977,
      "Ġmoistur": 4978,
      "Ġimmediate": 4979,
      "Ġdeliver": 4980,
      "ĠPersonal": 4981,
      "Ġbaby": 4982,
      "Ġcooperation": 4983,
      "husi": 4984,
      "onut": 4985,
      "Ġbold": 4986,
      "raft": 4987,
      "Ġbeach": 4988,
      "Ġexfol": 4989,
      "Ġcomments": 4990,
      "abling": 4991,
      "Ġchat": 4992,
      "Ġchronic": 4993,
      "emy": 4994,
      "ĠBuild": 4995,
      "Ġnoting": 4996,
      "ĠMar": 4997,
      "Ġcontrast": 4998,
      "ruit": 4999,
      "Ġuniverse": 5000,
      "ĠGr": 5001,
      "Ġseeing": 5002,
      "ube": 5003,
      "Ġbusy": 5004,
      "ĠEncouraging": 5005,
      "Ġfriendly": 5006,
      "Ġavailability": 5007,
      "text": 5008,
      "Ġachievements": 5009,
      "Ġhappiness": 5010,
      "Ġbattery": 5011,
      "Ġencourages": 5012,
      "Ġcoping": 5013,
      "Ġrobots": 5014,
      "Ġpursue": 5015,
      "Ġfragrance": 5016,
      "Ġsuffering": 5017,
      "Ġromantic": 5018,
      "Ġguardian": 5019,
      "Ġstructures": 5020,
      "Ġprecaut": 5021,
      "Ġuncomfortable": 5022,
      "che": 5023,
      "ky": 5024,
      "lish": 5025,
      "Ġtast": 5026,
      "Ġcore": 5027,
      "eries": 5028,
      "Ġpu": 5029,
      "Ġball": 5030,
      "icy": 5031,
      "Ġthree": 5032,
      "Ġstage": 5033,
      "Ġsuit": 5034,
      "gender": 5035,
      "ĠAir": 5036,
      "Ġvibr": 5037,
      "estic": 5038,
      "ection": 5039,
      "ustain": 5040,
      "Ġsepar": 5041,
      "ĠRep": 5042,
      "Ġcontest": 5043,
      "ĠEv": 5044,
      "Ġevolving": 5045,
      "Ġdisasters": 5046,
      "Ġscan": 5047,
      "weight": 5048,
      "Ġdiscount": 5049,
      "Ġcovers": 5050,
      "apan": 5051,
      "Ġinflamm": 5052,
      "Ġenthusi": 5053,
      "Ġjobs": 5054,
      "Ġbiotechnology": 5055,
      "Ġtrek": 5056,
      "Ġequitable": 5057,
      "ĠAlways": 5058,
      "Ġaccepting": 5059,
      "Ġstreams": 5060,
      "ĠProviding": 5061,
      "ipping": 5062,
      "Ġstimulate": 5063,
      "Ġcontroversial": 5064,
      "ength": 5065,
      "Ġdenim": 5066,
      "Ġtutorials": 5067,
      "Ġagriculture": 5068,
      "Ġdisagree": 5069,
      "economic": 5070,
      "Ġ&": 5071,
      "Ġcash": 5072,
      "orse": 5073,
      "ancial": 5074,
      "Ġmouse": 5075,
      "Ġmartial": 5076,
      "Ġovers": 5077,
      "Ġbul": 5078,
      "Ġbad": 5079,
      "Ġbrow": 5080,
      "Ġyet": 5081,
      "Ġlobb": 5082,
      "elt": 5083,
      "amond": 5084,
      "used": 5085,
      "Ġscale": 5086,
      "Ġperpet": 5087,
      "Ġenvironmentally": 5088,
      "Ġemployment": 5089,
      "Ġconcent": 5090,
      "Ġfacts": 5091,
      "Ġmemories": 5092,
      "Ġrare": 5093,
      "Ġdownload": 5094,
      "Ġcoral": 5095,
      "Ġschol": 5096,
      "Ġdirection": 5097,
      "ĠAlso": 5098,
      "Ġputting": 5099,
      "Ġsocieties": 5100,
      "Ġcertification": 5101,
      "Ġrewarding": 5102,
      "Ã©mon": 5103,
      "Ġprocedures": 5104,
      "ĠEarth": 5105,
      "ĠWorld": 5106,
      "Ġmortgage": 5107,
      "Ġflavors": 5108,
      "Ġhesitate": 5109,
      "Ġiconic": 5110,
      "ĠPokÃ©mon": 5111,
      "Ġveterans": 5112,
      "ole": 5113,
      "uition": 5114,
      "atural": 5115,
      "Ġfats": 5116,
      "Ġdess": 5117,
      "eder": 5118,
      "idal": 5119,
      "Ġstunning": 5120,
      "Ġsup": 5121,
      "ĠAut": 5122,
      "Ġenables": 5123,
      "ĠSov": 5124,
      "Ġchore": 5125,
      "pty": 5126,
      "ĠEach": 5127,
      "ĠGe": 5128,
      "Ġsched": 5129,
      "Ġdesire": 5130,
      "Ġdesired": 5131,
      "uba": 5132,
      "Ġprompt": 5133,
      "Ġagility": 5134,
      "Ġassign": 5135,
      "Ġnoise": 5136,
      "Ġcollage": 5137,
      "Ġcontributing": 5138,
      "Ġattraction": 5139,
      "Ġfulfill": 5140,
      "Ġreputable": 5141,
      "Ġentrepreneurs": 5142,
      "Ġtolerance": 5143,
      "Ġsneaker": 5144,
      "Ġkitchen": 5145,
      "Ġobstacles": 5146,
      "feeding": 5147,
      "Ġcontemporary": 5148,
      "ĠSoviet": 5149,
      "cel": 5150,
      "do": 5151,
      "pes": 5152,
      "inger": 5153,
      "iche": 5154,
      "Ġduration": 5155,
      "Ġstock": 5156,
      "abil": 5157,
      "oconut": 5158,
      "ĠHar": 5159,
      "ffee": 5160,
      "Ġresource": 5161,
      "ĠMuse": 5162,
      "ferent": 5163,
      "ĠFe": 5164,
      "cise": 5165,
      "ĠStud": 5166,
      "Ġpopulation": 5167,
      "ĠJapan": 5168,
      "Ġempower": 5169,
      "Ġsurv": 5170,
      "Ġdrones": 5171,
      "Ġretail": 5172,
      "Ġfacing": 5173,
      "Ġpayment": 5174,
      "Ġanimation": 5175,
      "Ġpreserve": 5176,
      "Ġinitial": 5177,
      "ĠReduce": 5178,
      "ĠClimate": 5179,
      "Ġresponding": 5180,
      "Ġappeal": 5181,
      "Ġadvisors": 5182,
      "Ġgardening": 5183,
      "Ġolder": 5184,
      "Ġfigures": 5185,
      "izza": 5186,
      "ĠParticip": 5187,
      "Ġvehicles": 5188,
      "Ġmiscarri": 5189,
      "Ġsouvenirs": 5190,
      "Ġscholars": 5191,
      "bor": 5192,
      "Ġsqu": 5193,
      "ither": 5194,
      "Ġmoral": 5195,
      "Ġrelying": 5196,
      "ction": 5197,
      "Ġstereoty": 5198,
      "Ġenabling": 5199,
      "ĠPublic": 5200,
      "ĠMo": 5201,
      "ĠMix": 5202,
      "Ġweb": 5203,
      "ĠLead": 5204,
      "Ġoutcome": 5205,
      "ĠUs": 5206,
      "ĠUnderstand": 5207,
      "Ġscent": 5208,
      "Ġlearners": 5209,
      "tenance": 5210,
      "Ġcommunicating": 5211,
      "ĠVirtual": 5212,
      "Ġbuildings": 5213,
      "Ġblack": 5214,
      "Ġachieved": 5215,
      "Ġmotivate": 5216,
      "Ġregulatory": 5217,
      "Ġreader": 5218,
      "ĠIndian": 5219,
      "Ġdebate": 5220,
      "ĠCommunity": 5221,
      "ĠApple": 5222,
      "Ġmechanisms": 5223,
      "Ġangels": 5224,
      "Ġholiness": 5225,
      "ĠRecogn": 5226,
      "Ġdecrease": 5227,
      "Ġscalp": 5228,
      "throughs": 5229,
      "Ġfacilitate": 5230,
      "Ġsandwich": 5231,
      "Ġlandmarks": 5232,
      "ĠPriorit": 5233,
      "Ġprecautions": 5234,
      "Fin": 5235,
      "distance": 5236,
      "oque": 5237,
      "Ġsam": 5238,
      "itical": 5239,
      "Ġpan": 5240,
      "Ġtopp": 5241,
      "ellect": 5242,
      "owered": 5243,
      "Ġstable": 5244,
      "adium": 5245,
      "ĠPre": 5246,
      "Ġnotice": 5247,
      "Ġcommercial": 5248,
      "Ġjoy": 5249,
      "Ġdisplay": 5250,
      "erved": 5251,
      "Ġsoon": 5252,
      "Ġroll": 5253,
      "Ġinvested": 5254,
      "Ġbread": 5255,
      "Ġexplo": 5256,
      "Ġmotion": 5257,
      "Ġrepair": 5258,
      "Ġeducate": 5259,
      "Ġdiamond": 5260,
      "Ġprioritizing": 5261,
      "Ġcalc": 5262,
      "Ġcalming": 5263,
      "Ġmeetings": 5264,
      "azz": 5265,
      "Ġretur": 5266,
      "Ġstandard": 5267,
      "Ġherbs": 5268,
      "ĠAmerica": 5269,
      "Ġpurposes": 5270,
      "Ġweeks": 5271,
      "ĠSpace": 5272,
      "Ġjoin": 5273,
      "ĠMonit": 5274,
      "Ġbiodiversity": 5275,
      "ĠBaroque": 5276,
      "oe": 5277,
      "iner": 5278,
      "alian": 5279,
      "Ġfish": 5280,
      "Ġbank": 5281,
      "Ġnar": 5282,
      "Ġstaff": 5283,
      "ams": 5284,
      "abras": 5285,
      "Ġvote": 5286,
      "ĠSn": 5287,
      "Ġneutral": 5288,
      "ester": 5289,
      "Ġritual": 5290,
      "anging": 5291,
      "ĠBra": 5292,
      "ĠBest": 5293,
      "Ġresist": 5294,
      "Ġempty": 5295,
      "Ġsocio": 5296,
      "odies": 5297,
      "ĠGen": 5298,
      "Ġsystemic": 5299,
      "ĠEnjoy": 5300,
      "reddit": 5301,
      "Ġpoor": 5302,
      "Ġsubreddit": 5303,
      "Ġobtain": 5304,
      "Ġagreements": 5305,
      "ĠPlus": 5306,
      "Ġfaced": 5307,
      "Ġsuccessfully": 5308,
      "Ġmarri": 5309,
      "Ġfoundation": 5310,
      "Thanks": 5311,
      "Ġacknowled": 5312,
      "Ġcorrectness": 5313,
      "Ġheavy": 5314,
      "ĠSurrealism": 5315,
      "Ġhorror": 5316,
      "Ġmystery": 5317,
      "Ġtotally": 5318,
      "ĠVolunte": 5319,
      "ball": 5320,
      "craft": 5321,
      "derm": 5322,
      "lies": 5323,
      "layer": 5324,
      "Ġtact": 5325,
      "Ġet": 5326,
      "Ġearn": 5327,
      "igating": 5328,
      "Ġasking": 5329,
      "Ġalb": 5330,
      "ocad": 5331,
      "acity": 5332,
      "ĠThat": 5333,
      "Ġjewelry": 5334,
      "ĠFost": 5335,
      "Ġpret": 5336,
      "Ġunint": 5337,
      "Ġsuggests": 5338,
      "Ġchanged": 5339,
      "ĠChina": 5340,
      "Ġcourt": 5341,
      "Ġpassion": 5342,
      "Ġintervention": 5343,
      "Ġnuts": 5344,
      "Ġcentury": 5345,
      "Ġantioxid": 5346,
      "Ġmasks": 5347,
      "Ġexhib": 5348,
      "Ġvitamins": 5349,
      "Ġquantum": 5350,
      "Ġbirth": 5351,
      "Ġfundamental": 5352,
      "Ġfalse": 5353,
      "Ġinflammation": 5354,
      "abrasion": 5355,
      "dermabrasion": 5356,
      "efficient": 5357,
      "oj": 5358,
      "oors": 5359,
      "Ġ8": 5360,
      "enger": 5361,
      "Ġtheat": 5362,
      "Ġpict": 5363,
      "Ġbot": 5364,
      "lements": 5365,
      "Ġlose": 5366,
      "Ġgre": 5367,
      "imp": 5368,
      "Ġalcohol": 5369,
      "Ġleather": 5370,
      "ustom": 5371,
      "Ġshadow": 5372,
      "ĠBroad": 5373,
      "Ġacqu": 5374,
      "Ġevolved": 5375,
      "Ġkept": 5376,
      "ĠNorth": 5377,
      "Ġprocessing": 5378,
      "Ġexclusive": 5379,
      "Ġformal": 5380,
      "Ġstruggles": 5381,
      "Ġwrite": 5382,
      "Ġvegetable": 5383,
      "Ġfrustration": 5384,
      "Ġhotel": 5385,
      "Ġposts": 5386,
      "Ġshapes": 5387,
      "Ġocc": 5388,
      "Ġscene": 5389,
      "Ġportray": 5390,
      "Ġyounger": 5391,
      "Ġaccommodations": 5392,
      "ĠVisual": 5393,
      "Ġtailored": 5394,
      "Ġnanotechnology": 5395,
      "Ġexcessive": 5396,
      "Ġcomponents": 5397,
      "ĠExperiment": 5398,
      "ĠCOVID": 5399,
      "Ġsurveys": 5400,
      "ellectual": 5401,
      "fits": 5402,
      "Ġcere": 5403,
      "Ġcells": 5404,
      "Ġpitch": 5405,
      "Ġfiber": 5406,
      "oman": 5407,
      "Ġreform": 5408,
      "Ġretain": 5409,
      "Ġlon": 5410,
      "eli": 5411,
      "charge": 5412,
      "ocaust": 5413,
      "ĠSouth": 5414,
      "acing": 5415,
      "Ġtech": 5416,
      "kept": 5417,
      "ĠBi": 5418,
      "Ġresolve": 5419,
      "ĠMy": 5420,
      "Ġprem": 5421,
      "Ġdisp": 5422,
      "Ġrecipe": 5423,
      "asted": 5424,
      "Ġoutl": 5425,
      "Ġoutlets": 5426,
      "ĠGame": 5427,
      "Ġoffice": 5428,
      "Ġpolling": 5429,
      "Ġupcoming": 5430,
      "Ġattitude": 5431,
      "Ġplayful": 5432,
      "Ġremed": 5433,
      "Ġhumor": 5434,
      "Ġgeneration": 5435,
      "Ġmother": 5436,
      "ĠKnow": 5437,
      "Ġblogs": 5438,
      "Ġrad": 5439,
      "Ġsubtext": 5440,
      "Ġaffecting": 5441,
      "Ġclearly": 5442,
      "Ġhardware": 5443,
      "Ġconsume": 5444,
      "Ġlessons": 5445,
      "exic": 5446,
      "Ġreaching": 5447,
      "Ġcenters": 5448,
      "ĠTravel": 5449,
      "Ġcyberst": 5450,
      "Ġslowly": 5451,
      "ipped": 5452,
      "Ġwrink": 5453,
      "Ġnetworks": 5454,
      "Ġfestival": 5455,
      "ĠAcc": 5456,
      "Ġproperties": 5457,
      "Ġclimbing": 5458,
      "Ġclarity": 5459,
      "Ġhomes": 5460,
      "Ġpodcasts": 5461,
      "ealous": 5462,
      "Ġcuisine": 5463,
      "lier": 5464,
      "ze": 5465,
      "itar": 5466,
      "ana": 5467,
      "Ġhous": 5468,
      "Ġhiring": 5469,
      "Ġstig": 5470,
      "ĠTre": 5471,
      "Ġcomment": 5472,
      "ĠAccess": 5473,
      "ateful": 5474,
      "Ġwhite": 5475,
      "ĠCent": 5476,
      "Ġlender": 5477,
      "iller": 5478,
      "ositive": 5479,
      "ĠTheir": 5480,
      "ĠThink": 5481,
      "Ġmoder": 5482,
      "Ġactors": 5483,
      "ologist": 5484,
      "Ġwearing": 5485,
      "ĠGerm": 5486,
      "Ġperm": 5487,
      "rench": 5488,
      "ĠYoga": 5489,
      "Ġcoffee": 5490,
      "Ġfloss": 5491,
      "ĠEnergy": 5492,
      "ĠJust": 5493,
      "Ġgrand": 5494,
      "Ġgrace": 5495,
      "Ġopenly": 5496,
      "Ġmulti": 5497,
      "Ġcalories": 5498,
      "Ġdevot": 5499,
      "Ġextensive": 5500,
      "Ġrelaxing": 5501,
      "Ġspecialized": 5502,
      "Ġoneself": 5503,
      "Ġindeed": 5504,
      "Ġcompassionate": 5505,
      "ĠReview": 5506,
      "Ġdoctor": 5507,
      "Ġrestrictions": 5508,
      "Ġincentives": 5509,
      "Ġvacation": 5510,
      "Ġweaknesses": 5511,
      "Ġconvenient": 5512,
      "ĠHolocaust": 5513,
      "Ġnervous": 5514,
      "Ġintersectional": 5515,
      "Ġmisconceptions": 5516,
      "ĠExercise": 5517,
      "ĠBroadway": 5518,
      "Tube": 5519,
      "iately": 5520,
      "like": 5521,
      "nic": 5522,
      "Ġple": 5523,
      "Ġdiplom": 5524,
      "roc": 5525,
      "stood": 5526,
      "stream": 5527,
      "Ġname": 5528,
      "Ġhaz": 5529,
      "Ġhaven": 5530,
      "Ġchain": 5531,
      "Ġchances": 5532,
      "Ġintense": 5533,
      "ĠCultural": 5534,
      "key": 5535,
      "Ġabuse": 5536,
      "Ġnotable": 5537,
      "Ġoffensive": 5538,
      "Ġscar": 5539,
      "Ġperceptions": 5540,
      "angered": 5541,
      "Ġattacks": 5542,
      "Ġwellbeing": 5543,
      "Ġagency": 5544,
      "Ġdiscipline": 5545,
      "Ġassert": 5546,
      "ventional": 5547,
      "Ġsimpl": 5548,
      "Ġtrusted": 5549,
      "ĠConnect": 5550,
      "Ġmisinformation": 5551,
      "Ġmultiplayer": 5552,
      "Ġharder": 5553,
      "Ġencouragement": 5554,
      "Ġhappening": 5555,
      "Ġemerged": 5556,
      "Ġlux": 5557,
      "Ġfostering": 5558,
      "Ġhabitat": 5559,
      "Ġqualified": 5560,
      "Ġconducted": 5561,
      "Ġvulnerability": 5562,
      "Ġauthority": 5563,
      "Ġfrequently": 5564,
      "Ġhobby": 5565,
      "ĠSimilarly": 5566,
      "Ġlabels": 5567,
      "Ġmorning": 5568,
      "Ġteachers": 5569,
      "Interest": 5570,
      "Ġfranchise": 5571,
      "iers": 5572,
      "ield": 5573,
      "person": 5574,
      "Ġsib": 5575,
      "Ġpizza": 5576,
      "Ġdental": 5577,
      "Ġeither": 5578,
      "rol": 5579,
      "Ġlength": 5580,
      "ili": 5581,
      "Ġnative": 5582,
      "Ġniche": 5583,
      "chain": 5584,
      "Ġpros": 5585,
      "ĠAg": 5586,
      "Ġadults": 5587,
      "ĠParents": 5588,
      "ĠPhysical": 5589,
      "Ġworked": 5590,
      "ĠMexic": 5591,
      "Ġmodifications": 5592,
      "Ġhowever": 5593,
      "Ġleader": 5594,
      "Ġorganize": 5595,
      "ishment": 5596,
      "ometric": 5597,
      "ĠYouTube": 5598,
      "Ġbrush": 5599,
      "Ġblocks": 5600,
      "Ġcomplexity": 5601,
      "Ġsupplements": 5602,
      "ĠAnaly": 5603,
      "Ġcollection": 5604,
      "Ġrobotics": 5605,
      "Ġreporting": 5606,
      "Ġlasting": 5607,
      "Ġdiscoveries": 5608,
      "Ġseriously": 5609,
      "Ġtimel": 5610,
      "Ġversat": 5611,
      "ymn": 5612,
      "Ġmedicine": 5613,
      "Ġengraving": 5614,
      "Ġmanufacturing": 5615,
      "ĠAfrican": 5616,
      "Ġreefs": 5617,
      "Ġvolcanic": 5618,
      "Ġtoxic": 5619,
      "ealousy": 5620,
      "ey": 5621,
      "fu": 5622,
      "lin": 5623,
      "off": 5624,
      "pread": 5625,
      "inars": 5626,
      "itting": 5627,
      "Ġban": 5628,
      "ision": 5629,
      "Ġdram": 5630,
      "ara": 5631,
      "Ġreduction": 5632,
      "Ġharsh": 5633,
      "Ġcancer": 5634,
      "Ġord": 5635,
      "Ġonto": 5636,
      "ĠTreat": 5637,
      "ĠSustain": 5638,
      "Ġneck": 5639,
      "Ġintake": 5640,
      "though": 5641,
      "ĠFrench": 5642,
      "ĠLet": 5643,
      "Ġcred": 5644,
      "Ġquite": 5645,
      "Ġperce": 5646,
      "Ġadvances": 5647,
      "Ġdesert": 5648,
      "orders": 5649,
      "itement": 5650,
      "Ġtransgender": 5651,
      "Ġshowing": 5652,
      "Ġminer": 5653,
      "Ġdifficulty": 5654,
      "Ġmonuments": 5655,
      "Ġsubst": 5656,
      "Ġemotionally": 5657,
      "Ġready": 5658,
      "Ġinnovations": 5659,
      "Ġearlier": 5660,
      "idespread": 5661,
      "Ġcrime": 5662,
      "Ġlosses": 5663,
      "Therefore": 5664,
      "ĠIncorporate": 5665,
      "Ġmissions": 5666,
      "Ġpartnerships": 5667,
      "Ġcomputing": 5668,
      "Ġintegrity": 5669,
      "Ġindependence": 5670,
      "Ġblend": 5671,
      "ĠFinancial": 5672,
      "Ġimmediately": 5673,
      "Ġforests": 5674,
      "Ġinterpretation": 5675,
      "Ġallev": 5676,
      "ĠLocal": 5677,
      "Ġrule": 5678,
      "Ġgenuine": 5679,
      "ĠJohn": 5680,
      "Ġvibrant": 5681,
      "Ġfulfillment": 5682,
      "faces": 5683,
      "lied": 5684,
      "nal": 5685,
      "itors": 5686,
      "alf": 5687,
      "leg": 5688,
      "Ġrent": 5689,
      "Ġrecharge": 5690,
      "Ġlayer": 5691,
      "Ġnest": 5692,
      "chool": 5693,
      "Ġforce": 5694,
      "Ġsubs": 5695,
      "Ġitem": 5696,
      "uth": 5697,
      "Ġlean": 5698,
      "Ġseeds": 5699,
      "iene": 5700,
      "ĠDisc": 5701,
      "Ġemoj": 5702,
      "ĠMarket": 5703,
      "ĠEconomic": 5704,
      "ĠItalian": 5705,
      "ĠGreen": 5706,
      "Ġlearned": 5707,
      "Ġstrive": 5708,
      "Ġstrict": 5709,
      "ĠNeg": 5710,
      "Ġpottery": 5711,
      "Ġgoods": 5712,
      "ĠYork": 5713,
      "Ġlocated": 5714,
      "uclear": 5715,
      "Ġsafely": 5716,
      "Ġstudying": 5717,
      "Ġvisually": 5718,
      "Ġnegatively": 5719,
      "Ġrefer": 5720,
      "Ġpoetry": 5721,
      "Ġdrills": 5722,
      "Ġbias": 5723,
      "Ġviewpo": 5724,
      "Ġgrateful": 5725,
      "Ġrelaxed": 5726,
      "ĠRespect": 5727,
      "Ġdepth": 5728,
      "Ġphotography": 5729,
      "Ġmachines": 5730,
      "Ġsmoking": 5731,
      "Ġreminders": 5732,
      "Ġabsor": 5733,
      "Ġbrainstorm": 5734,
      "Ġmoisture": 5735,
      "Ġunfair": 5736,
      "ĠPrioritize": 5737,
      "Finally": 5738,
      "ares": 5739,
      "cap": 5740,
      "dy": 5741,
      "la": 5742,
      "rome": 5743,
      "ug": 5744,
      "Ġaw": 5745,
      "reg": 5746,
      "Ġcalls": 5747,
      "iti": 5748,
      "Ġwidespread": 5749,
      "Ġyog": 5750,
      "oler": 5751,
      "owers": 5752,
      "Ġstorm": 5753,
      "Ġexec": 5754,
      "ĠSelf": 5755,
      "ĠHy": 5756,
      "ĠHaving": 5757,
      "Ġfeet": 5758,
      "Ġabove": 5759,
      "ĠBud": 5760,
      "ĠBuilding": 5761,
      "ĠMet": 5762,
      "ĠThrough": 5763,
      "umes": 5764,
      "ĠIns": 5765,
      "Ġreduces": 5766,
      "rapy": 5767,
      "Ġmanageable": 5768,
      "Ġparticles": 5769,
      "Ġexcitement": 5770,
      "Ġrefres": 5771,
      "Ġrecognizing": 5772,
      "Ġreleases": 5773,
      "Ġempathetic": 5774,
      "Ġendangered": 5775,
      "Ġattractive": 5776,
      "Ġhydration": 5777,
      "Ġpasta": 5778,
      "Ġcollective": 5779,
      "ĠReddit": 5780,
      "Ġexistence": 5781,
      "Ġdedication": 5782,
      "grad": 5783,
      "Ġgardens": 5784,
      "Ġfrequency": 5785,
      "ĠCollaboration": 5786,
      "Ġirrit": 5787,
      "Ġwetlands": 5788,
      "ĠDesign": 5789,
      "Ġteenage": 5790,
      "Ġmarriage": 5791,
      "ĠFoster": 5792,
      "Ġbottle": 5793,
      "App": 5794,
      "bre": 5795,
      "dh": 5796,
      "pack": 5797,
      "rient": 5798,
      "Ġtomat": 5799,
      "Ġfold": 5800,
      "Ġbars": 5801,
      "Ġdurable": 5802,
      "Ġreve": 5803,
      "Ġthrow": 5804,
      "Ġstadium": 5805,
      "ifts": 5806,
      "Ġsuc": 5807,
      "Ġsuper": 5808,
      "ĠTime": 5809,
      "advant": 5810,
      "Ġintellectual": 5811,
      "ressing": 5812,
      "Ġworkwear": 5813,
      "Ġtrial": 5814,
      "Ġspeakers": 5815,
      "ĠLeg": 5816,
      "Ġsupports": 5817,
      "Ġcoord": 5818,
      "Ġperforming": 5819,
      "Ġmaintenance": 5820,
      "expression": 5821,
      "Ġtemporary": 5822,
      "Ġpackaging": 5823,
      "ĠCommunicate": 5824,
      "Ġautomation": 5825,
      "Ġscenes": 5826,
      "Ġspeaker": 5827,
      "scale": 5828,
      "ĠWhich": 5829,
      "iosity": 5830,
      "Ġframework": 5831,
      "Ġaccomplishments": 5832,
      "Ġresonates": 5833,
      "Ġarrange": 5834,
      "Ġhousehold": 5835,
      "Ġembrace": 5836,
      "ĠWrite": 5837,
      "Ġburnout": 5838,
      "ĠMusic": 5839,
      "alties": 5840,
      "ĠEstablish": 5841,
      "Ġmiscarriage": 5842,
      "Ġsocioeconomic": 5843,
      "Ġremedies": 5844,
      "AN": 5845,
      "bi": 5846,
      "ev": 5847,
      "habil": 5848,
      "live": 5849,
      "oking": 5850,
      "wide": 5851,
      "where": 5852,
      "Ġcat": 5853,
      "ened": 5854,
      "ouble": 5855,
      "ancers": 5856,
      "Ġfan": 5857,
      "arant": 5858,
      "eterm": 5859,
      "Ġintric": 5860,
      "oget": 5861,
      "ĠParty": 5862,
      "ĠBring": 5863,
      "ĠMult": 5864,
      "Ġjazz": 5865,
      "Ġjealousy": 5866,
      "ĠWhy": 5867,
      "ĠFl": 5868,
      "Ġalloc": 5869,
      "Ġincluded": 5870,
      "Ġspices": 5871,
      "ĠStr": 5872,
      "Ġtransfer": 5873,
      "ĠBegin": 5874,
      "Ġmainstream": 5875,
      "ĠJour": 5876,
      "Ġpriority": 5877,
      "Ġautonom": 5878,
      "Ġextended": 5879,
      "Ġcapacity": 5880,
      "Ġevaluations": 5881,
      "Ġcandles": 5882,
      "Ġalternatives": 5883,
      "Ġinvolvement": 5884,
      "Ġaccurately": 5885,
      "Ġinstructor": 5886,
      "ĠSecurity": 5887,
      "Ġportfol": 5888,
      "Ġadvantages": 5889,
      "Ġfailure": 5890,
      "Ġdelivery": 5891,
      "Ġdeadlines": 5892,
      "yamory": 5893,
      "Ġcriticism": 5894,
      "Ġthoroughly": 5895,
      "Ġfertility": 5896,
      "Ġdistribution": 5897,
      "Ġdynamic": 5898,
      "ĠDrink": 5899,
      "Ġpaid": 5900,
      "Ġlicens": 5901,
      "Interesting": 5902,
      "Ġalleviate": 5903,
      "Ġsucceed": 5904,
      "When": 5905,
      "effective": 5906,
      "lasting": 5907,
      "ned": 5908,
      "rig": 5909,
      "rich": 5910,
      "wise": 5911,
      "Ġtroll": 5912,
      "Ġcards": 5913,
      "Ġtow": 5914,
      "Ġtoward": 5915,
      "Ġfelt": 5916,
      "Ġbott": 5917,
      "aration": 5918,
      "oting": 5919,
      "Ġoral": 5920,
      "owl": 5921,
      "ĠTur": 5922,
      "Ġchanting": 5923,
      "ung": 5924,
      "Ġrat": 5925,
      "Ġshot": 5926,
      "ĠBer": 5927,
      "ĠMain": 5928,
      "ĠFore": 5929,
      "Ġrecon": 5930,
      "ĠGener": 5931,
      "Ġbelong": 5932,
      "ployment": 5933,
      "Ġmentor": 5934,
      "Ġsurpr": 5935,
      "Ġrecognized": 5936,
      "Ġimplementation": 5937,
      "Ġapart": 5938,
      "Ġenhancing": 5939,
      "Ġcycle": 5940,
      "Ġswitch": 5941,
      "ĠInter": 5942,
      "Ġeru": 5943,
      "Ġillnesses": 5944,
      "Ġcounselor": 5945,
      "Ġconstruction": 5946,
      "Ġselecting": 5947,
      "Ġobserve": 5948,
      "ĠContin": 5949,
      "ĠFinally": 5950,
      "Ġpowder": 5951,
      "Ġlandscape": 5952,
      "Ġpursuing": 5953,
      "Ġincredible": 5954,
      "Ġearthqu": 5955,
      "Ġclaims": 5956,
      "Ġstereotypes": 5957,
      "Ġrituals": 5958,
      "Ġtactics": 5959,
      "Ġantioxidants": 5960,
      "habilitation": 5961,
      "cal": 5962,
      "ued": 5963,
      "ĠX": 5964,
      "Ġtack": 5965,
      "ony": 5966,
      "Ġcas": 5967,
      "ndrome": 5968,
      "Ġpose": 5969,
      "Ġwish": 5970,
      "Ġbanks": 5971,
      "isk": 5972,
      "Ġdivers": 5973,
      "level": 5974,
      "entions": 5975,
      "Ġhoney": 5976,
      "station": 5977,
      "ils": 5978,
      "rad": 5979,
      "ĠTour": 5980,
      "Ġdeals": 5981,
      "Ġneigh": 5982,
      "Ġchair": 5983,
      "Ġchicken": 5984,
      "Ġleaves": 5985,
      "ared": 5986,
      "Ġworship": 5987,
      "Ġresent": 5988,
      "ĠMost": 5989,
      "Ġtraum": 5990,
      "Ġtrains": 5991,
      "ologies": 5992,
      "Ġunp": 5993,
      "rought": 5994,
      "plement": 5995,
      "Ġprofiles": 5996,
      "Ġidentities": 5997,
      "Ġdemands": 5998,
      "Ġcuriosity": 5999,
      "Ġmetrics": 6000,
      "Ġobl": 6001,
      "Ġaffects": 6002,
      "Ġcollaborative": 6003,
      "Ġsensitivity": 6004,
      "Ġwriters": 6005,
      "Ġdressing": 6006,
      "Ġinspiring": 6007,
      "Ġemphasizes": 6008,
      "Ġwaiting": 6009,
      "lik": 6010,
      "Ġdrawing": 6011,
      "Ġmicrodermabrasion": 6012,
      "Ġmaximize": 6013,
      "Ġrecycled": 6014,
      "Ġsculpture": 6015,
      "Ġmuseums": 6016,
      "ogether": 6017,
      "'d": 6018,
      "love": 6019,
      "ton": 6020,
      "athy": 6021,
      "Ġsite": 6022,
      "Ġmag": 6023,
      "Ġtown": 6024,
      "icking": 6025,
      "Ġdut": 6026,
      "Ġlooks": 6027,
      "ilant": 6028,
      "Ġnour": 6029,
      "Ġann": 6030,
      "Ġanger": 6031,
      "ivating": 6032,
      "Ġimage": 6033,
      "ĠSE": 6034,
      "ĠCustom": 6035,
      "Ġrig": 6036,
      "ĠHum": 6037,
      "ĠBr": 6038,
      "ĠBoth": 6039,
      "Ġmoderation": 6040,
      "Ġrelief": 6041,
      "Ġrecruit": 6042,
      "ĠLangu": 6043,
      "Ġuniversity": 6044,
      "ĠGoth": 6045,
      "Ġspark": 6046,
      "ubs": 6047,
      "Ġsyndrome": 6048,
      "Ġguarant": 6049,
      "Ġlocations": 6050,
      "Ġpositively": 6051,
      "Ġfinal": 6052,
      "Ġwashing": 6053,
      "Ġcompleting": 6054,
      "world": 6055,
      "ĠChange": 6056,
      "Ġenjoying": 6057,
      "Ġminor": 6058,
      "Ġcriteria": 6059,
      "Ġrestoration": 6060,
      "Ġcollaborations": 6061,
      "Ġendurance": 6062,
      "Ġsensations": 6063,
      "Ġpassport": 6064,
      "Ġpayments": 6065,
      "Ġhyg": 6066,
      "Ġdepart": 6067,
      "Ġdestruct": 6068,
      "Ġsubjects": 6069,
      "Ġsession": 6070,
      "Ġvoices": 6071,
      "ĠEducate": 6072,
      "Ġselection": 6073,
      "Ġteaching": 6074,
      "Ġteachings": 6075,
      "Ġaimed": 6076,
      "ĠEuropean": 6077,
      "Ġvolunteer": 6078,
      "Ġvolunteering": 6079,
      "Ġconferences": 6080,
      "Ġfarmers": 6081,
      "Ġchemicals": 6082,
      "Ġintentional": 6083,
      "ĠDifferent": 6084,
      "Ġaggressive": 6085,
      "Ġperpetu": 6086,
      "ederal": 6087,
      "Ġcyberstalking": 6088,
      "Ġstigma": 6089,
      "Ġintricate": 6090,
      "50": 6091,
      "Of": 6092,
      "WS": 6093,
      "sApp": 6094,
      "yle": 6095,
      "ini": 6096,
      "Ġcars": 6097,
      "Ġcrim": 6098,
      "Ġpul": 6099,
      "Ġphen": 6100,
      "Ġfalls": 6101,
      "Ġdog": 6102,
      "Ġetern": 6103,
      "Ġrehabilitation": 6104,
      "iling": 6105,
      "ĠAnother": 6106,
      "ĠSal": 6107,
      "Ġride": 6108,
      "Ġshops": 6109,
      "ĠBal": 6110,
      "ĠDep": 6111,
      "ĠDuring": 6112,
      "fully": 6113,
      "ightly": 6114,
      "Ġclin": 6115,
      "Ġunw": 6116,
      "Ġarticles": 6117,
      "Ġstartups": 6118,
      "Ġconcert": 6119,
      "ĠReach": 6120,
      "ĠEnh": 6121,
      "Ġfinances": 6122,
      "Ġconsideration": 6123,
      "Ġstressed": 6124,
      "Ġrefers": 6125,
      "Ġsurrog": 6126,
      "Ġbreakthroughs": 6127,
      "Ġlikeli": 6128,
      "ĠWhatsApp": 6129,
      "Ġmilest": 6130,
      "Ġreflects": 6131,
      "Ġhotels": 6132,
      "Ġdrinking": 6133,
      "Ġbasis": 6134,
      "Ġadvocating": 6135,
      "Ġencouraged": 6136,
      "Ġerr": 6137,
      "Ġmobility": 6138,
      "Ġfluctu": 6139,
      "Ġneurod": 6140,
      "ĠNetwork": 6141,
      "Ġownership": 6142,
      "Ġyogurt": 6143,
      "Ġeternity": 6144,
      "Ġlikelihood": 6145,
      "SA": 6146,
      "bur": 6147,
      "cific": 6148,
      "comm": 6149,
      "cling": 6150,
      "tles": 6151,
      "Ġaest": 6152,
      "hether": 6153,
      "erge": 6154,
      "Ġpub": 6155,
      "Ġinh": 6156,
      "Ġlay": 6157,
      "ette": 6158,
      "ĠTalk": 6159,
      "Ġleaving": 6160,
      "ĠHel": 6161,
      "Ġtex": 6162,
      "anda": 6163,
      "ĠPositive": 6164,
      "Ġtruth": 6165,
      "ĠFam": 6166,
      "ĠFurthermore": 6167,
      "Ġapplied": 6168,
      "Ġdisconnect": 6169,
      "Ġprints": 6170,
      "Ġperception": 6171,
      "Ġsupported": 6172,
      "Ġgreatly": 6173,
      "Ġdesk": 6174,
      "Ġavocad": 6175,
      "Ġincreases": 6176,
      "Ġinfring": 6177,
      "Ġmetal": 6178,
      "Ġtreating": 6179,
      "ossible": 6180,
      "Ġescape": 6181,
      "Ġnutrient": 6182,
      "Ġoperate": 6183,
      "Ġcollected": 6184,
      "Ġsoundtra": 6185,
      "ĠSmall": 6186,
      "Ġurg": 6187,
      "Ġcomponent": 6188,
      "Ġmaxim": 6189,
      "Ġbreastfeeding": 6190,
      "Ġuncertain": 6191,
      "ĠReflect": 6192,
      "Ġjacket": 6193,
      "Ġgarlic": 6194,
      "Ġacknowledging": 6195,
      "impact": 6196,
      "Ġportfolio": 6197,
      "ĠLanguage": 6198,
      "Ġphenomen": 6199,
      "Oh": 6200,
      "PN": 6201,
      "iov": 6202,
      "Ġ.": 6203,
      "itness": 6204,
      "Ġtheory": 6205,
      "Ġwoman": 6206,
      "Ġbags": 6207,
      "sec": 6208,
      "irl": 6209,
      "ĠAck": 6210,
      "ĠAWS": 6211,
      "pending": 6212,
      "Ġdeg": 6213,
      "Ġsend": 6214,
      "ander": 6215,
      "acteria": 6216,
      "ĠPop": 6217,
      "Ġnotifications": 6218,
      "ĠMem": 6219,
      "ĠMoreover": 6220,
      "ĠFood": 6221,
      "Ġdisability": 6222,
      "elfare": 6223,
      "ĠUp": 6224,
      "Ġunderstood": 6225,
      "necess": 6226,
      "Ġprofits": 6227,
      "Ġvisibility": 6228,
      "Ġvisiting": 6229,
      "Ġnaturally": 6230,
      "Ġstrategic": 6231,
      "Ġethics": 6232,
      "Ġcritically": 6233,
      "Ġgeographic": 6234,
      "ĠExam": 6235,
      "ĠConf": 6236,
      "Ġelectronic": 6237,
      "Ġcompete": 6238,
      "Ġlightweight": 6239,
      "Ġgained": 6240,
      "ĠResp": 6241,
      "Ġadaptable": 6242,
      "Ġbiggest": 6243,
      "Ġcharacterized": 6244,
      "Ġbatter": 6245,
      "Ġinstructors": 6246,
      "Ġwearable": 6247,
      "Ġdivine": 6248,
      "This": 6249,
      "Ġflowers": 6250,
      "Ġconducting": 6251,
      "Ġuniversal": 6252,
      "Ġaccommodate": 6253,
      "Ġnegotiate": 6254,
      "Ġpepper": 6255,
      "ĠOrganizations": 6256,
      "Ġsatisfying": 6257,
      "Ġstuck": 6258,
      "Ġeggs": 6259,
      "Ġmemoirs": 6260,
      "ĠSustainable": 6261,
      "Ġminerals": 6262,
      "Ġtexts": 6263,
      "ĠAcknow": 6264,
      "hav": 6265,
      "income": 6266,
      "Ġoce": 6267,
      "Ġolive": 6268,
      "Ġbar": 6269,
      "Ġbacteria": 6270,
      "icks": 6271,
      "Ġdough": 6272,
      "iments": 6273,
      "Ġnuclear": 6274,
      "olk": 6275,
      "otely": 6276,
      "Ġherit": 6277,
      "Ġalter": 6278,
      "Ġimpossible": 6279,
      "ĠCity": 6280,
      "ĠPC": 6281,
      "ĠPat": 6282,
      "Ġemerge": 6283,
      "Ġacne": 6284,
      "uming": 6285,
      "ĠRest": 6286,
      "althy": 6287,
      "Ġunnecess": 6288,
      "Ġensures": 6289,
      "Ġdiscovery": 6290,
      "Ġremotely": 6291,
      "Ġworldwide": 6292,
      "working": 6293,
      "Ġresponsibly": 6294,
      "Ġcounter": 6295,
      "Ġbalancing": 6296,
      "ĠManagement": 6297,
      "Ġmeets": 6298,
      "Ġafterlife": 6299,
      "otech": 6300,
      "Ġappropriately": 6301,
      "Ġappealing": 6302,
      "Ġintegration": 6303,
      "Ġhonesty": 6304,
      "Ġvisuals": 6305,
      "Ġdistracted": 6306,
      "Ġcybersecurity": 6307,
      "Ġinterviews": 6308,
      "Ġshaped": 6309,
      "Ġcontinuously": 6310,
      "Ġscenar": 6311,
      "Ġcandidate": 6312,
      "appro": 6313,
      "Ġgarden": 6314,
      "Ġtrailers": 6315,
      "Ġcrypto": 6316,
      "Ġreinforce": 6317,
      "Ġneurolog": 6318,
      "Ġreactions": 6319,
      "Ġgrasslands": 6320,
      "Ġranching": 6321,
      "Ġblockchain": 6322,
      "judgment": 6323,
      "Ġpasswords": 6324,
      "Ġcryptocurrencies": 6325,
      "Ġlobbying": 6326,
      "Ġversatile": 6327,
      "Ġhygiene": 6328,
      "Ġheritage": 6329,
      "\".": 6330,
      "bit": 6331,
      "bra": 6332,
      "gy": 6333,
      "rate": 6334,
      "atically": 6335,
      "Ġmiddle": 6336,
      "Ġfire": 6337,
      "Ġwelfare": 6338,
      "Ġbrought": 6339,
      "sem": 6340,
      "Ġconv": 6341,
      "Ġvoc": 6342,
      "Ġintuition": 6343,
      "ĠCost": 6344,
      "Ġword": 6345,
      "ourse": 6346,
      "ĠBody": 6347,
      "Ġpersist": 6348,
      "Ġnoticed": 6349,
      "ĠMay": 6350,
      "ĠMod": 6351,
      "ĠRock": 6352,
      "Ġindoor": 6353,
      "Ġacts": 6354,
      "Ġweap": 6355,
      "ĠGive": 6356,
      "Ġpotat": 6357,
      "conf": 6358,
      "Ġprotocol": 6359,
      "Ġprofound": 6360,
      "Ġvaries": 6361,
      "Ġ200": 6362,
      "Ġcustomized": 6363,
      "Ġseverity": 6364,
      "Ġwants": 6365,
      "Ġlimiting": 6366,
      "Ġvegg": 6367,
      "Ġclassical": 6368,
      "Ġequipped": 6369,
      "ĠPracticing": 6370,
      "Ġretention": 6371,
      "Ġcorrupt": 6372,
      "Ġsmartphone": 6373,
      "Ġdetermining": 6374,
      "Ġbeginning": 6375,
      "Ġcenter": 6376,
      "Ġfrustrated": 6377,
      "ascular": 6378,
      "Ġreceived": 6379,
      "ĠImplement": 6380,
      "ĠEngaging": 6381,
      "Ġcontinuous": 6382,
      "Ġcraf": 6383,
      "ĠTrust": 6384,
      "Ġimagine": 6385,
      "Ġtrails": 6386,
      "idden": 6387,
      "Ġframeworks": 6388,
      "Ġpowers": 6389,
      "Ġnutrition": 6390,
      "Ġseconds": 6391,
      "ĠChristian": 6392,
      "Ġdrug": 6393,
      "Ġmillion": 6394,
      "ointment": 6395,
      "ĠVolunteer": 6396,
      "Ġhousing": 6397,
      "iovascular": 6398,
      "Ġneurological": 6399,
      "pan": 6400,
      "ped": 6401,
      "powered": 6402,
      "iny": 6403,
      "Ġcro": 6404,
      "Ġskept": 6405,
      "Ġmel": 6406,
      "Ġfirm": 6407,
      "Ġwal": 6408,
      "Ġbodies": 6409,
      "Ġelement": 6410,
      "vement": 6411,
      "Ġgives": 6412,
      "Ġgymn": 6413,
      "Ġnu": 6414,
      "Ġmos": 6415,
      "utious": 6416,
      "ames": 6417,
      "ĠAugmented": 6418,
      "ĠSl": 6419,
      "ĠSaf": 6420,
      "Ġplot": 6421,
      "Ġcompost": 6422,
      "ĠData": 6423,
      "ĠMaking": 6424,
      "Ġmanaged": 6425,
      "ellow": 6426,
      "Ġclient": 6427,
      "Ġouter": 6428,
      "Ġpositivity": 6429,
      "Ġscuba": 6430,
      "Ġpercent": 6431,
      "Ġski": 6432,
      "ateral": 6433,
      "Ġrooms": 6434,
      "Ġaccidents": 6435,
      "Ġcautious": 6436,
      "Ġprotests": 6437,
      "Ġinfect": 6438,
      "Ġlocally": 6439,
      "Ġpopulations": 6440,
      "curities": 6441,
      "redict": 6442,
      "Ġdefensive": 6443,
      "Ġcharging": 6444,
      "Ġdecor": 6445,
      "ĠIndividual": 6446,
      "ĠConst": 6447,
      "ĠSetting": 6448,
      "Ġinterventions": 6449,
      "Ġsalary": 6450,
      "Ġspecialize": 6451,
      "Ġdamaged": 6452,
      "Ġcycling": 6453,
      "Ġphoto": 6454,
      "Ġproduced": 6455,
      "Ġtargets": 6456,
      "Ġcrazy": 6457,
      "Ġassessments": 6458,
      "Ġcollege": 6459,
      "Ġsinging": 6460,
      "Ġdrawbacks": 6461,
      "Ġfrequent": 6462,
      "Ġfigure": 6463,
      "Ġboxing": 6464,
      "Ġintimid": 6465,
      "Ġdoctors": 6466,
      "Ġdomestic": 6467,
      "Ġencounter": 6468,
      "Ġmanager": 6469,
      "Ġpuzz": 6470,
      "Ġetc": 6471,
      "Ġbrainstorming": 6472,
      "Ġrefreshing": 6473,
      "Ġcasual": 6474,
      "Ġunnecessary": 6475,
      "cation": 6476,
      "chers": 6477,
      "iated": 6478,
      "mit": 6479,
      "ref": 6480,
      "Ġcup": 6481,
      "Ġcoconut": 6482,
      "Ġwood": 6483,
      "Ġbored": 6484,
      "veill": 6485,
      "Ġreject": 6486,
      "Ġloud": 6487,
      "chat": 6488,
      "ula": 6489,
      "ĠServ": 6490,
      "Ġotherwise": 6491,
      "ĠPil": 6492,
      "ĠPrep": 6493,
      "ĠBel": 6494,
      "ĠMental": 6495,
      "Ġanywhere": 6496,
      "fered": 6497,
      "ĠEl": 6498,
      "ĠWall": 6499,
      "ĠWhether": 6500,
      "ansion": 6501,
      "Ġupon": 6502,
      "hydr": 6503,
      "ĠOp": 6504,
      "ĠOut": 6505,
      "Ġsaw": 6506,
      "forestation": 6507,
      "apchat": 6508,
      "Ġpossibility": 6509,
      "Ġexercising": 6510,
      "Ġprevention": 6511,
      "Ġblue": 6512,
      "Ġraising": 6513,
      "Ġsurger": 6514,
      "Ġcurric": 6515,
      "Ġaudio": 6516,
      "Ġgrilled": 6517,
      "Ġtourna": 6518,
      "Ġdecline": 6519,
      "Ġelected": 6520,
      "Ġpreserving": 6521,
      "Ġdebates": 6522,
      "Ġfilter": 6523,
      "Ġpropag": 6524,
      "Ġreceiving": 6525,
      "Ġproducing": 6526,
      "Ġautomated": 6527,
      "Ġpreferred": 6528,
      "Ġimagery": 6529,
      "Ġprimarily": 6530,
      "Ġadminist": 6531,
      "Ġelectricity": 6532,
      "Ġencry": 6533,
      "Ġvictims": 6534,
      "Ġstraight": 6535,
      "Ġinstrument": 6536,
      "Ġinstruments": 6537,
      "Ġpunishment": 6538,
      "ĠAdvoc": 6539,
      "Ġjumping": 6540,
      "Ġindicators": 6541,
      "ĠProtect": 6542,
      "Ġcameras": 6543,
      "Ġdiscounts": 6544,
      "Ġconcentration": 6545,
      "ĠLeaders": 6546,
      "Ġpretty": 6547,
      "Ġneighbor": 6548,
      "Ġerrors": 6549,
      "Ġprotocols": 6550,
      "veillance": 6551,
      "ael": 6552,
      "epend": 6553,
      "giveness": 6554,
      "Ġsad": 6555,
      "Ġpushing": 6556,
      "ishes": 6557,
      "Ġoffered": 6558,
      "impro": 6559,
      "ulating": 6560,
      "igital": 6561,
      "orthy": 6562,
      "ĠSun": 6563,
      "urer": 6564,
      "Ġrice": 6565,
      "Ġrural": 6566,
      "Ġrhy": 6567,
      "ĠMil": 6568,
      "Ġindicate": 6569,
      "agon": 6570,
      "ĠFirst": 6571,
      "Ġuncon": 6572,
      "ĠVPN": 6573,
      "Ġprotective": 6574,
      "ĠReal": 6575,
      "Ġconnecting": 6576,
      "Ġconfront": 6577,
      "Ġreports": 6578,
      "Ġviewer": 6579,
      "Ġstylish": 6580,
      "ossil": 6581,
      "Ġendorse": 6582,
      "Ġholds": 6583,
      "Ġcommitments": 6584,
      "setting": 6585,
      "Ġsupplies": 6586,
      "Ġoperating": 6587,
      "Ġaccepted": 6588,
      "ackson": 6589,
      "Ġperfectly": 6590,
      "Ġauthentication": 6591,
      "ĠBlack": 6592,
      "Ġbarrier": 6593,
      "Ġcertifications": 6594,
      "Ġsector": 6595,
      "cripts": 6596,
      "Ġborrowing": 6597,
      "Ġnearby": 6598,
      "Ġmanipulate": 6599,
      "Ġmentorship": 6600,
      "yamorous": 6601,
      "Ġtastes": 6602,
      "Ġscholarships": 6603,
      "ĠSnapchat": 6604,
      "Ġalbum": 6605,
      "Ġpicture": 6606,
      "Ġmilestones": 6607,
      "Ġcurricul": 6608,
      "Ġneighborhood": 6609,
      "improvement": 6610,
      "En": 6611,
      "fessional": 6612,
      "list": 6613,
      "mond": 6614,
      "night": 6615,
      "uge": 6616,
      "Ġi": 6617,
      "Ġsnow": 6618,
      "erce": 6619,
      "alities": 6620,
      "icting": 6621,
      "Ġdil": 6622,
      "omics": 6623,
      "style": 6624,
      "Ġlately": 6625,
      "raw": 6626,
      "Ġaren": 6627,
      "Ġexact": 6628,
      "aked": 6629,
      "ĠAnt": 6630,
      "ĠCold": 6631,
      "unk": 6632,
      "ĠHead": 6633,
      "ighter": 6634,
      "indu": 6635,
      "ĠBu": 6636,
      "ibert": 6637,
      "ĠMach": 6638,
      "Ġunlik": 6639,
      "ountain": 6640,
      "Ġpracticed": 6641,
      "Ġspray": 6642,
      "ductive": 6643,
      "Ġdescrib": 6644,
      "Ġfewer": 6645,
      "Ġaddiction": 6646,
      "Ġremoving": 6647,
      "Ġlock": 6648,
      "Ġfinish": 6649,
      "Ġrepro": 6650,
      "Ġbrings": 6651,
      "Ġ100": 6652,
      "Ġresulted": 6653,
      "Ġtrees": 6654,
      "Ġpassed": 6655,
      "Ġdelicate": 6656,
      "Ġfacilities": 6657,
      "Ġgaining": 6658,
      "Ġpreparing": 6659,
      "Ġtextiles": 6660,
      "Ġbath": 6661,
      "Ġrecently": 6662,
      "Ġillness": 6663,
      "Ġcooling": 6664,
      "Ġjoining": 6665,
      "ĠActive": 6666,
      "Ġdocuments": 6667,
      "Ġmediums": 6668,
      "Ġaltogether": 6669,
      "Ġintroduced": 6670,
      "Ġvitamin": 6671,
      "Ġfatig": 6672,
      "ĠEmployees": 6673,
      "Ġpreviously": 6674,
      "Ġfunctionality": 6675,
      "Ġdiscouraged": 6676,
      "Ġfreelancers": 6677,
      "Ġepic": 6678,
      "Ġwelcome": 6679,
      "ĠBusinesses": 6680,
      "Ġisolation": 6681,
      "Ġtrekking": 6682,
      "Ġschedules": 6683,
      "Ġreturns": 6684,
      "Ġoccas": 6685,
      "Ġceremon": 6686,
      "Ġassertive": 6687,
      "Ġlicensed": 6688,
      "Ġresentment": 6689,
      "Ġbatteries": 6690,
      "Ġunlikely": 6691,
      "60": 6692,
      "AI": 6693,
      "iations": 6694,
      "Ġaims": 6695,
      "Ġtang": 6696,
      "ino": 6697,
      "healthy": 6698,
      "Ġsod": 6699,
      "inging": 6700,
      "Ġfant": 6701,
      "Ġfour": 6702,
      "Ġfine": 6703,
      "Ġwarning": 6704,
      "Ġderm": 6705,
      "eding": 6706,
      "Ġhind": 6707,
      "sts": 6708,
      "Ġlibr": 6709,
      "Ġgay": 6710,
      "see": 6711,
      "otional": 6712,
      "ĠID": 6713,
      "ulin": 6714,
      "Ġonions": 6715,
      "iff": 6716,
      "ĠAwareness": 6717,
      "Ġdegrad": 6718,
      "izer": 6719,
      "izers": 6720,
      "ĠHis": 6721,
      "ĠHold": 6722,
      "ĠPot": 6723,
      "ĠBreat": 6724,
      "ĠRisk": 6725,
      "ĠEat": 6726,
      "ĠEvery": 6727,
      "Ġliqu": 6728,
      "Ġdispar": 6729,
      "Ġdisorders": 6730,
      "Ġoutfit": 6731,
      "Ġpositions": 6732,
      "obic": 6733,
      "lla": 6734,
      "Ġserves": 6735,
      "Ġkeeps": 6736,
      "Ġpossess": 6737,
      "ĠChallen": 6738,
      "ĠJackson": 6739,
      "Ġdetail": 6740,
      "Ġentang": 6741,
      "Ġvend": 6742,
      "Ġmatches": 6743,
      "Ġimmigration": 6744,
      "Ġdeciding": 6745,
      "Ġslightly": 6746,
      "ĠIndepend": 6747,
      "Ġstanding": 6748,
      "Ġhappens": 6749,
      "Ġcombines": 6750,
      "Ġswit": 6751,
      "ĠDec": 6752,
      "Ġwritten": 6753,
      "ĠTechn": 6754,
      "Ġcharacteristics": 6755,
      "Ġbattles": 6756,
      "liance": 6757,
      "Ġheadphones": 6758,
      "Ġcolonial": 6759,
      "Ġrestaurant": 6760,
      "enerated": 6761,
      "ĠReduced": 6762,
      "Ġphilosop": 6763,
      "Ġcontestants": 6764,
      "Ġtheatre": 6765,
      "ĠAcknowledge": 6766,
      "Ġweapons": 6767,
      "Pop": 6768,
      "crast": 6769,
      "des": 6770,
      "generated": 6771,
      "rative": 6772,
      "uit": 6773,
      "vity": 6774,
      "view": 6775,
      "Ġice": 6776,
      "Ġcues": 6777,
      "attle": 6778,
      "Ġsour": 6779,
      "erb": 6780,
      "Ġox": 6781,
      "Ġbaking": 6782,
      "Ġdream": 6783,
      "omic": 6784,
      "Ġlag": 6785,
      "Ġlights": 6786,
      "idential": 6787,
      "Ġvine": 6788,
      "usable": 6789,
      "ĠCare": 6790,
      "ĠParis": 6791,
      "umb": 6792,
      "ĠRet": 6793,
      "ĠEp": 6794,
      "ĠWill": 6795,
      "Ġrelatively": 6796,
      "Ġarc": 6797,
      "Ġconsoles": 6798,
      "Ġunderm": 6799,
      "Ġspot": 6800,
      "cism": 6801,
      "lecting": 6802,
      "ĠNe": 6803,
      "Ġpromotions": 6804,
      "Ġprofile": 6805,
      "ucum": 6806,
      "Ġdesigning": 6807,
      "Ġsimulations": 6808,
      "Ġresearching": 6809,
      "Ġenjoyed": 6810,
      "Ġenter": 6811,
      "Ġsurveillance": 6812,
      "Ġinfluential": 6813,
      "Ġtherapists": 6814,
      "Ġrespected": 6815,
      "Ġcarro": 6816,
      "Ġbiotech": 6817,
      "Ġcalend": 6818,
      "Ġethnic": 6819,
      "Ġelections": 6820,
      "Ġelectoral": 6821,
      "Ġdiscussing": 6822,
      "unting": 6823,
      "Ġspirituality": 6824,
      "Ġupdated": 6825,
      "Ġexposed": 6826,
      "Ġhostels": 6827,
      "Ġabsolutely": 6828,
      "Ġturning": 6829,
      "ĠVisit": 6830,
      "Ġstructured": 6831,
      "ĠCreating": 6832,
      "Ġincredibly": 6833,
      "ĠEmpathy": 6834,
      "Ġrapidly": 6835,
      "ĠLimit": 6836,
      "Ġdigestive": 6837,
      "Ġtoppings": 6838,
      "Ġpubl": 6839,
      "Ġscenarios": 6840,
      "ĠPilates": 6841,
      "Why": 6842,
      "bn": 6843,
      "iar": 6844,
      "mer": 6845,
      "val": 6846,
      "Ġtight": 6847,
      "Ġtidal": 6848,
      "Ġcateg": 6849,
      "era": 6850,
      "erly": 6851,
      "ounds": 6852,
      "Ġther": 6853,
      "Ġpage": 6854,
      "Ġfive": 6855,
      "Ġfem": 6856,
      "Ġfossil": 6857,
      "Ġbowl": 6858,
      "Ġinac": 6859,
      "lete": 6860,
      "Ġease": 6861,
      "Ġhosp": 6862,
      "Ġhidden": 6863,
      "Ġlas": 6864,
      "Ġlosing": 6865,
      "Ġnations": 6866,
      "asm": 6867,
      "irus": 6868,
      "iratory": 6869,
      "igrap": 6870,
      "Ġcond": 6871,
      "atever": 6872,
      "uries": 6873,
      "Ġenfor": 6874,
      "Ġenforce": 6875,
      "using": 6876,
      "ĠSchool": 6877,
      "ada": 6878,
      "ured": 6879,
      "ĠCamp": 6880,
      "ĠCivil": 6881,
      "Ġexpansion": 6882,
      "Ġshade": 6883,
      "ĠPur": 6884,
      "ĠDeterm": 6885,
      "ĠMass": 6886,
      "ĠMiddle": 6887,
      "Ġtrips": 6888,
      "umin": 6889,
      "Ġmanus": 6890,
      "ĠEating": 6891,
      "ĠWatch": 6892,
      "Ġunity": 6893,
      "Ġovercoming": 6894,
      "ava": 6895,
      "Ġkne": 6896,
      "Ġspin": 6897,
      "Ġwhenever": 6898,
      "osem": 6899,
      "Ġattack": 6900,
      "ĠNature": 6901,
      "Ġfinance": 6902,
      "Ġsafer": 6903,
      "Ġconfusion": 6904,
      "Ġdefine": 6905,
      "Ġsurreal": 6906,
      "Ġsurfaces": 6907,
      "Ġ18": 6908,
      "Ġexpressions": 6909,
      "Ġroutines": 6910,
      "Ġextent": 6911,
      "Ġequally": 6912,
      "Ġdecl": 6913,
      "Ġreleased": 6914,
      "aluate": 6915,
      "proof": 6916,
      "Ġswims": 6917,
      "Ġpaintings": 6918,
      "ĠAltern": 6919,
      "Ġspirit": 6920,
      "Ġacceptable": 6921,
      "Ġeyel": 6922,
      "Ġvisualization": 6923,
      "ĠSurround": 6924,
      "Ġvulnerabilities": 6925,
      "Ġfraud": 6926,
      "Ġhostel": 6927,
      "Ġsheet": 6928,
      "Ġminimal": 6929,
      "Ġsection": 6930,
      "Ġsacr": 6931,
      "Ġtailor": 6932,
      "Ġvehicle": 6933,
      "Ġmanufacturer": 6934,
      "Ġprinted": 6935,
      "Ġsecond": 6936,
      "ĠGames": 6937,
      "cription": 6938,
      "Ġinterrupting": 6939,
      "Ġeliminate": 6940,
      "Ġshadowing": 6941,
      "ĠGermany": 6942,
      "Ġviewpoints": 6943,
      "Ġcriminal": 6944,
      "ĠExamples": 6945,
      "reflection": 6946,
      "15": 6947,
      "Fi": 6948,
      "aic": 6949,
      "cue": 6950,
      "disc": 6951,
      "lam": 6952,
      "lud": 6953,
      "meric": 6954,
      "vings": 6955,
      "Ġtides": 6956,
      "inatory": 6957,
      "Ġcatch": 6958,
      "erate": 6959,
      "Ġmap": 6960,
      "Ġfill": 6961,
      "Ġfake": 6962,
      "Ġda": 6963,
      "vered": 6964,
      "Ġgently": 6965,
      "eling": 6966,
      "Ġnails": 6967,
      "asy": 6968,
      "ifting": 6969,
      "Ġsuns": 6970,
      "amb": 6971,
      "ĠAustr": 6972,
      "ading": 6973,
      "ĠCou": 6974,
      "osure": 6975,
      "Ġsea": 6976,
      "ĠPres": 6977,
      "ĠBet": 6978,
      "Ġnotes": 6979,
      "ĠMas": 6980,
      "ĠMich": 6981,
      "ĠEth": 6982,
      "ĠEast": 6983,
      "ĠEgy": 6984,
      "Ġprejud": 6985,
      "Ġunable": 6986,
      "ireless": 6987,
      "Ġspicy": 6988,
      "berries": 6989,
      "Ġsocially": 6990,
      "Ġregist": 6991,
      "ĠStreng": 6992,
      "Ġfront": 6993,
      "Ġaccessories": 6994,
      "Ġinterfere": 6995,
      "Ġtransact": 6996,
      "Ġconfirm": 6997,
      "Ġprofessionally": 6998,
      "ĠChild": 6999,
      "Ġfollows": 7000,
      "Ġgrazing": 7001,
      "Ġdifficulties": 7002,
      "Ġmetap": 7003,
      "ĠProfessional": 7004,
      "Ġmatters": 7005,
      "Ġdecades": 7006,
      "Ġfilms": 7007,
      "Ġpackage": 7008,
      "Ġbrok": 7009,
      "ĠSchedule": 7010,
      "Ġfamiliar": 7011,
      "Ġera": 7012,
      "Ġ199": 7013,
      "box": 7014,
      "Ġanswers": 7015,
      "Ġelev": 7016,
      "ĠApply": 7017,
      "Ġexperimenting": 7018,
      "Ġauthorities": 7019,
      "Ġintegrated": 7020,
      "Ġpsychology": 7021,
      "ĠMeditation": 7022,
      "ĠArtificial": 7023,
      "aught": 7024,
      "Ġnutritional": 7025,
      "Ġaccomplishment": 7026,
      "Ġresonate": 7027,
      "Ġmedications": 7028,
      "ĠGPA": 7029,
      "Ġdrugs": 7030,
      "Ġbloggers": 7031,
      "Ġenthusiasts": 7032,
      "ĠMoist": 7033,
      "ĠRecognize": 7034,
      "appropri": 7035,
      "Ġcrafts": 7036,
      "Ġpercentage": 7037,
      "Ġpropaganda": 7038,
      "Ġrhyth": 7039,
      "Ġdisparities": 7040,
      "igraphy": 7041,
      "Ġsunsc": 7042,
      "ĠEgypt": 7043,
      "oves": 7044,
      "riller": 7045,
      "ys": 7046,
      "Ġ9": 7047,
      "inc": 7048,
      "reet": 7049,
      "Ġsaving": 7050,
      "ingu": 7051,
      "Ġfederal": 7052,
      "Ġdat": 7053,
      "Ġhour": 7054,
      "Ġlinked": 7055,
      "Ġgest": 7056,
      "imed": 7057,
      "eliness": 7058,
      "rain": 7059,
      "idel": 7060,
      "Ġprocrast": 7061,
      "Ġconcise": 7062,
      "Ġcomed": 7063,
      "Ġash": 7064,
      "Ġintoler": 7065,
      "Ġrid": 7066,
      "izable": 7067,
      "andal": 7068,
      "Ġpersistent": 7069,
      "Ġcomposition": 7070,
      "ĠDeep": 7071,
      "ĠMess": 7072,
      "ĠRather": 7073,
      "ĠWi": 7074,
      "Ġacting": 7075,
      "Ġactual": 7076,
      "Ġevoke": 7077,
      "ĠInv": 7078,
      "Ġadvent": 7079,
      "Ġrealized": 7080,
      "Ġcovered": 7081,
      "Ġlocals": 7082,
      "ĠVal": 7083,
      "Ġexplores": 7084,
      "Ġcollateral": 7085,
      "Ġrestore": 7086,
      "Ġtourists": 7087,
      "Ġextract": 7088,
      "ĠConsistency": 7089,
      "Ġincorporated": 7090,
      "ĠShop": 7091,
      "Ġinfluencer": 7092,
      "Ġairpl": 7093,
      "overed": 7094,
      "Ġemergencies": 7095,
      "Ġdepict": 7096,
      "Ġoperational": 7097,
      "Ġmomentum": 7098,
      "ĠCloud": 7099,
      "Ġcontainers": 7100,
      "ĠTraining": 7101,
      "Ġstretches": 7102,
      "Ġrecords": 7103,
      "Ġintegrate": 7104,
      "ĠMonument": 7105,
      "Ġcolonies": 7106,
      "Ġcolonists": 7107,
      "Ġexpanded": 7108,
      "Ġcardiovascular": 7109,
      "aws": 7110,
      "Ġsectors": 7111,
      "Ġreinforcement": 7112,
      "ĠAssoci": 7113,
      "Ġburden": 7114,
      "ĠExplore": 7115,
      "specific": 7116,
      "Ġorientations": 7117,
      "ĠUnderstanding": 7118,
      "Ġunintended": 7119,
      "Ġmoderators": 7120,
      "ĠBuddh": 7121,
      "Ġduty": 7122,
      "Ġdestruction": 7123,
      "Ġencryption": 7124,
      "Ġcurriculum": 7125,
      "Ġfatigue": 7126,
      "Ġdermat": 7127,
      "bnb": 7128,
      "ĠDetermine": 7129,
      "30": 7130,
      "Ugh": 7131,
      "Wh": 7132,
      "cultural": 7133,
      "front": 7134,
      "hop": 7135,
      "iant": 7136,
      "lings": 7137,
      "ny": 7138,
      "worthy": 7139,
      "Ġtaught": 7140,
      "Ġcorporate": 7141,
      "att": 7142,
      "atures": 7143,
      "ativity": 7144,
      "Ġmail": 7145,
      "Ġfile": 7146,
      "Ġfolk": 7147,
      "Ġwall": 7148,
      "Ġdin": 7149,
      "Ġdent": 7150,
      "Ġhire": 7151,
      "Ġupl": 7152,
      "uting": 7153,
      "ĠAb": 7154,
      "ocking": 7155,
      "ĠSwit": 7156,
      "unction": 7157,
      "ieve": 7158,
      "Ġshares": 7159,
      "abled": 7160,
      "angers": 7161,
      "ffiti": 7162,
      "ĠBost": 7163,
      "uality": 7164,
      "ĠDem": 7165,
      "ĠDigital": 7166,
      "ĠMis": 7167,
      "formance": 7168,
      "places": 7169,
      "ĠEle": 7170,
      "soft": 7171,
      "Ġweigh": 7172,
      "Ġdism": 7173,
      "orship": 7174,
      "ĠUd": 7175,
      "Ġspr": 7176,
      "Ġscores": 7177,
      "Ġstrike": 7178,
      "ĠState": 7179,
      "vironmental": 7180,
      "Ġampl": 7181,
      "cond": 7182,
      "Ġdiscourse": 7183,
      "Ġserving": 7184,
      "Ġinterface": 7185,
      "Ġwash": 7186,
      "Ġprotections": 7187,
      "Ġflight": 7188,
      "Ġcontinually": 7189,
      "Ġvisits": 7190,
      "Ġrain": 7191,
      "Ġdistinct": 7192,
      "Ġrespecting": 7193,
      "Ġconcerned": 7194,
      "Ġinternal": 7195,
      "ĠIndia": 7196,
      "Ġshorter": 7197,
      "Ġsalad": 7198,
      "Ġsolo": 7199,
      "Ġmissing": 7200,
      "Ġbigger": 7201,
      "Ġpolls": 7202,
      "Ġforgive": 7203,
      "Ġautomate": 7204,
      "liances": 7205,
      "Ġimagination": 7206,
      "Ġcodes": 7207,
      "ĠPolitical": 7208,
      "Ġminimizing": 7209,
      "Ġthrive": 7210,
      "Ġlandscap": 7211,
      "ĠWestern": 7212,
      "Ġoptimal": 7213,
      "Ġconvenience": 7214,
      "Ġpeppers": 7215,
      "Ġfertil": 7216,
      "Ġjackets": 7217,
      "consuming": 7218,
      "funding": 7219,
      "Ġreveal": 7220,
      "ĠGothic": 7221,
      "Ġavocado": 7222,
      "ĠMichael": 7223,
      "idelity": 7224,
      "iver": 7225,
      "iable": 7226,
      "oom": 7227,
      "oam": 7228,
      "Ġtable": 7229,
      "requ": 7230,
      "reens": 7231,
      "Ġsan": 7232,
      "ndom": 7233,
      "ene": 7234,
      "Ġtooth": 7235,
      "Ġlists": 7236,
      "Ġgold": 7237,
      "Ġbeings": 7238,
      "ola": 7239,
      "ulf": 7240,
      "Ġstages": 7241,
      "iforn": 7242,
      "Ġheels": 7243,
      "igations": 7244,
      "ĠTest": 7245,
      "Ġexac": 7246,
      "Ġalmond": 7247,
      "ĠCross": 7248,
      "ĠClear": 7249,
      "Ġincom": 7250,
      "Ġincidents": 7251,
      "ĠPo": 7252,
      "Ġcompens": 7253,
      "Ġunhealthy": 7254,
      "Ġscary": 7255,
      "Ġindividuality": 7256,
      "ckers": 7257,
      "Ġbugs": 7258,
      "ĠYosem": 7259,
      "ĠVe": 7260,
      "Ġinstant": 7261,
      "Ġinstability": 7262,
      "Ġpattern": 7263,
      "Ġexplan": 7264,
      "Ġvisible": 7265,
      "Ġfeaturing": 7266,
      "Ġrandom": 7267,
      "Ġbike": 7268,
      "Ġcontroll": 7269,
      "ĠProg": 7270,
      "Ġkeyword": 7271,
      "ĠConsult": 7272,
      "Ġlargest": 7273,
      "Ġserver": 7274,
      "ographics": 7275,
      "Ġsuppression": 7276,
      "Ġsolid": 7277,
      "Ġfavorites": 7278,
      "Ġcenturies": 7279,
      "factor": 7280,
      "Ġadjustments": 7281,
      "Ġcontainer": 7282,
      "Ġpackages": 7283,
      "Ġbasics": 7284,
      "Ġcelebrated": 7285,
      "Ġcelebrating": 7286,
      "Ġjudge": 7287,
      "Ġsearching": 7288,
      "Ġemphasize": 7289,
      "Ġrobust": 7290,
      "Ġroadside": 7291,
      "Ġfailures": 7292,
      "ĠCollaborate": 7293,
      "Ġverify": 7294,
      "Ġfragrances": 7295,
      "Ġdomin": 7296,
      "Ġranchers": 7297,
      "Ġalleg": 7298,
      "Ġprocedure": 7299,
      "rogen": 7300,
      "Ġclaim": 7301,
      "ĠCaliforn": 7302,
      "Ġclosely": 7303,
      "Ġhormones": 7304,
      "Ġphilosoph": 7305,
      "ĠMicrosoft": 7306,
      "Ġseparate": 7307,
      "Ġdessert": 7308,
      "ĠParticipate": 7309,
      "Ġdevotion": 7310,
      "Ġabsorb": 7311,
      "breaking": 7312,
      "ĠBerlin": 7313,
      "Ġreconc": 7314,
      "Ġtackle": 7315,
      "Ġguarantee": 7316,
      "confidence": 7317,
      "Ġunconventional": 7318,
      "Ġvendors": 7319,
      "Ġmanuscripts": 7320,
      "ĠBoston": 7321,
      "Ġexacerb": 7322,
      "ĠYosemite": 7323,
      "ĠCalifornia": 7324,
      "hand": 7325,
      "rum": 7326,
      "ught": 7327,
      "Ġtal": 7328,
      "Ġtag": 7329,
      "Ġcin": 7330,
      "atin": 7331,
      "Ġslic": 7332,
      "orrent": 7333,
      "engers": 7334,
      "Ġpick": 7335,
      "Ġmild": 7336,
      "ica": 7337,
      "imens": 7338,
      "Ġnice": 7339,
      "Ġbeans": 7340,
      "Ġforced": 7341,
      "uling": 7342,
      "etitive": 7343,
      "Ġsus": 7344,
      "ĠTom": 7345,
      "ĠTim": 7346,
      "akening": 7347,
      "Ġvig": 7348,
      "ĠCount": 7349,
      "ĠHome": 7350,
      "osen": 7351,
      "Ġtele": 7352,
      "Ġabus": 7353,
      "Ġacid": 7354,
      "ĠEnd": 7355,
      "ĠElect": 7356,
      "ĠWalking": 7357,
      "Ġexperiments": 7358,
      "Ġmeant": 7359,
      "aterials": 7360,
      "ĠInfl": 7361,
      "ĠObs": 7362,
      "ĠSte": 7363,
      "ĠNo": 7364,
      "Ġsynt": 7365,
      "Ġaging": 7366,
      "conform": 7367,
      "Ġrespiratory": 7368,
      "Ġinstances": 7369,
      "Ġdesignated": 7370,
      "Ġinvolving": 7371,
      "Ġflat": 7372,
      "inese": 7373,
      "Ġsimulate": 7374,
      "Ġracism": 7375,
      "Ġ15": 7376,
      "Ġmonument": 7377,
      "Ġcharge": 7378,
      "Ġparental": 7379,
      "Ġescal": 7380,
      "profit": 7381,
      "Ġairports": 7382,
      "Ġvolume": 7383,
      "Ġfunctions": 7384,
      "Ġassessment": 7385,
      "Ġillustr": 7386,
      "afood": 7387,
      "Ġoutdoors": 7388,
      "ĠBlue": 7389,
      "Ġflavorful": 7390,
      "Ġcreamy": 7391,
      "Ġchannel": 7392,
      "ĠSpeak": 7393,
      "ĠSwimming": 7394,
      "ĠFrance": 7395,
      "Ġdynamics": 7396,
      "Ġpenalties": 7397,
      "ĠAirbnb": 7398,
      "Ġchoreography": 7399,
      "ĠCenter": 7400,
      "Ġhazards": 7401,
      "Ġsiblings": 7402,
      "ĠLegal": 7403,
      "ĠJournal": 7404,
      "Ġneurodiversity": 7405,
      "havior": 7406,
      "Ġocean": 7407,
      "Ġdegradation": 7408,
      "appropriate": 7409,
      "Se": 7410,
      "aith": 7411,
      "cost": 7412,
      "ka": 7413,
      "long": 7414,
      "lights": 7415,
      "rated": 7416,
      "size": 7417,
      "such": 7418,
      "uing": 7419,
      "Ġ#": 7420,
      "Ġtables": 7421,
      "held": 7422,
      "Ġpal": 7423,
      "Ġber": 7424,
      "Ġbone": 7425,
      "Ġdining": 7426,
      "Ġends": 7427,
      "Ġhip": 7428,
      "Ġhike": 7429,
      "Ġgall": 7430,
      "rape": 7431,
      "sex": 7432,
      "Ġstain": 7433,
      "Ġstocks": 7434,
      "utic": 7435,
      "Ġdeforestation": 7436,
      "Ġimpression": 7437,
      "Ġchosen": 7438,
      "Ġlemon": 7439,
      "ĠHer": 7440,
      "ĠHot": 7441,
      "ĠHell": 7442,
      "illa": 7443,
      "osis": 7444,
      "Ġshipping": 7445,
      "Ġseam": 7446,
      "Ġseafood": 7447,
      "ĠPack": 7448,
      "ĠDef": 7449,
      "Ġworkforce": 7450,
      "ĠMin": 7451,
      "Ġevolution": 7452,
      "Ġarms": 7453,
      "Ġappliances": 7454,
      "Ġthereby": 7455,
      "ĠLike": 7456,
      "Ġposes": 7457,
      "Ġcultivating": 7458,
      "Ġskilled": 7459,
      "Ġcreators": 7460,
      "Ġimproves": 7461,
      "Ġcaught": 7462,
      "obal": 7463,
      "Ġdesires": 7464,
      "rown": 7465,
      "ĠStress": 7466,
      "ĠStick": 7467,
      "ĠNA": 7468,
      "Ġpromising": 7469,
      "Ġadds": 7470,
      "Ġemotion": 7471,
      "Ġcoast": 7472,
      "Ġgenerating": 7473,
      "ĠEnvironmental": 7474,
      "Ġchest": 7475,
      "ĠChinese": 7476,
      "Ġwanted": 7477,
      "Ġdistur": 7478,
      "Ġphra": 7479,
      "Ġhandling": 7480,
      "Ġviewed": 7481,
      "Ġlapt": 7482,
      "Ġmeanings": 7483,
      "Ġempath": 7484,
      "Ġsenses": 7485,
      "exist": 7486,
      "Ġanxious": 7487,
      "ĠDepending": 7488,
      "Ġtraders": 7489,
      "Ġadapted": 7490,
      "Ġletting": 7491,
      "Ġdiscriminatory": 7492,
      "Ġadopting": 7493,
      "Ġgroundbreaking": 7494,
      "Ġupdate": 7495,
      "Ġcontinuing": 7496,
      "space": 7497,
      "Ġqualifications": 7498,
      "Ġathlete": 7499,
      "Ġreminder": 7500,
      "aneously": 7501,
      "Ġcertified": 7502,
      "Ġmerchant": 7503,
      "training": 7504,
      "Ġmusicals": 7505,
      "Ġresilient": 7506,
      "iracial": 7507,
      "ĠGaming": 7508,
      "oubt": 7509,
      "Ġwelcoming": 7510,
      "ĠMeet": 7511,
      "Ġorientation": 7512,
      "Ġsuperv": 7513,
      "Ġsubreddits": 7514,
      "Ġloneliness": 7515,
      "Ġpremium": 7516,
      "Ġdiplomacy": 7517,
      "Ġneckl": 7518,
      "Ġeruption": 7519,
      "Ġveggies": 7520,
      "Ġinfections": 7521,
      "ĠMachine": 7522,
      "Ġvinegar": 7523,
      "Ġcarrots": 7524,
      "ĠBetter": 7525,
      "Ġsunscreen": 7526,
      "Ġdermatologist": 7527,
      "Hmm": 7528,
      "OS": 7529,
      "bots": 7530,
      "gments": 7531,
      "ugs": 7532,
      "wood": 7533,
      "Ġtick": 7534,
      "rest": 7535,
      "erse": 7536,
      "itening": 7537,
      "arian": 7538,
      "Ġthin": 7539,
      "Ġhur": 7540,
      "olester": 7541,
      "ashing": 7542,
      "Ġcongest": 7543,
      "verbal": 7544,
      "Ġasp": 7545,
      "istle": 7546,
      "ĠCle": 7547,
      "una": 7548,
      "Ġrust": 7549,
      "ached": 7550,
      "ĠPa": 7551,
      "Ġcomplications": 7552,
      "ĠDress": 7553,
      "Ġemails": 7554,
      "ĠWomen": 7555,
      "agers": 7556,
      "ĠFund": 7557,
      "Ġdisapp": 7558,
      "ĠGrou": 7559,
      "Ġpolar": 7560,
      "Ġpolice": 7561,
      "Ġinvent": 7562,
      "Ġscr": 7563,
      "cision": 7564,
      "ĠOpt": 7565,
      "Ġpromotion": 7566,
      "Ġcareg": 7567,
      "Ġbreaches": 7568,
      "Ġstressful": 7569,
      "Ġentry": 7570,
      "Ġrisky": 7571,
      "Ġmonet": 7572,
      "Ġbiased": 7573,
      "ĠProgra": 7574,
      "Ġlaun": 7575,
      "Ġcritics": 7576,
      "Ġextend": 7577,
      "Ġendless": 7578,
      "Ġconsuming": 7579,
      "rones": 7580,
      "Ġgains": 7581,
      "Ġadvancement": 7582,
      "Ġevaluating": 7583,
      "ĠIntelligence": 7584,
      "Ġpastoral": 7585,
      "Ġelig": 7586,
      "Ġpredicting": 7587,
      "Ġadjusting": 7588,
      "Ġdietary": 7589,
      "Ġvarying": 7590,
      "Ġviolent": 7591,
      "Ġ202": 7592,
      "Ġtextures": 7593,
      "Ġpredictions": 7594,
      "Ġargument": 7595,
      "bohydr": 7596,
      "Ġcomputers": 7597,
      "ĠOffers": 7598,
      "Ġprevalent": 7599,
      "Ġorigin": 7600,
      "Ġturns": 7601,
      "ĠIncrease": 7602,
      "Ġversion": 7603,
      "Ġminimum": 7604,
      "Ġvalidation": 7605,
      "ĠRegularly": 7606,
      "Ġcompatible": 7607,
      "Ġdecreased": 7608,
      "Ġincentiv": 7609,
      "Ġwealthy": 7610,
      "Ġrevolutionize": 7611,
      "Ġmanagers": 7612,
      "ĠWildlife": 7613,
      "oxide": 7614,
      "Ġsuspicious": 7615,
      "ĠPromote": 7616,
      "Ġastron": 7617,
      "Ġcommentary": 7618,
      "Ġintersectionality": 7619,
      "ĠMexico": 7620,
      "Ġarrangements": 7621,
      "Ġtrolls": 7622,
      "ĠMaintain": 7623,
      "Ġbelonging": 7624,
      "Ġtrauma": 7625,
      "Ġfluctuations": 7626,
      "Ġinfringe": 7627,
      "ĠSafety": 7628,
      "ĠPrepare": 7629,
      "ĠOpen": 7630,
      "olesterol": 7631,
      "AR": 7632,
      "All": 7633,
      "gen": 7634,
      "hors": 7635,
      "hadow": 7636,
      "sen": 7637,
      "Ġtap": 7638,
      "Ġcucum": 7639,
      "enities": 7640,
      "alia": 7641,
      "Ġmark": 7642,
      "Ġband": 7643,
      "Ġbands": 7644,
      "Ġinqu": 7645,
      "Ġhim": 7646,
      "Ġhuge": 7647,
      "Ġlibert": 7648,
      "Ġgap": 7649,
      "elong": 7650,
      "idity": 7651,
      "asive": 7652,
      "Ġstains": 7653,
      "ĠTurn": 7654,
      "uter": 7655,
      "ivities": 7656,
      "uses": 7657,
      "ĠSol": 7658,
      "Ġcholesterol": 7659,
      "ĠCy": 7660,
      "ĠCur": 7661,
      "Ġworn": 7662,
      "ĠPers": 7663,
      "Ġacids": 7664,
      "Ġspect": 7665,
      "Ġappointment": 7666,
      "Ġmeditate": 7667,
      "rup": 7668,
      "ĠLand": 7669,
      "ode": 7670,
      "Ġoutwe": 7671,
      "Ġroasted": 7672,
      "ĠStret": 7673,
      "ĠNative": 7674,
      "Ġideologies": 7675,
      "Ġactivists": 7676,
      "Ġdiscl": 7677,
      "Ġfridge": 7678,
      "Ġmentees": 7679,
      "Ġinvestor": 7680,
      "Ġflights": 7681,
      "Ġfloor": 7682,
      "Ġidentification": 7683,
      "currencies": 7684,
      "Ġresponsive": 7685,
      "Ġbrid": 7686,
      "Ġraised": 7687,
      "Ġfuels": 7688,
      "Ġtourist": 7689,
      "Ġequity": 7690,
      "Ġexplored": 7691,
      "Ġcombine": 7692,
      "Ġpreparation": 7693,
      "Ġappreciated": 7694,
      "Ġsuppress": 7695,
      "Ġswim": 7696,
      "Ġcrust": 7697,
      "Ġassociations": 7698,
      "Ġvolat": 7699,
      "ĠSociety": 7700,
      "covery": 7701,
      "represent": 7702,
      "Ġarguments": 7703,
      "Ġjuic": 7704,
      "Ġautomatically": 7705,
      "Ġreported": 7706,
      "Ġstraw": 7707,
      "Ġauthenticity": 7708,
      "Ġwetland": 7709,
      "ĠEmployers": 7710,
      "Ġrevolutionized": 7711,
      "Ġsteak": 7712,
      "Ġfixed": 7713,
      "Ġsoldiers": 7714,
      "speed": 7715,
      "Ġsuspense": 7716,
      "Ġoversight": 7717,
      "Ġexploitation": 7718,
      "ĠMonitoring": 7719,
      "Ġacquire": 7720,
      "Ġwrinkles": 7721,
      "Ġscarf": 7722,
      "Ġluxury": 7723,
      "Ġawakening": 7724,
      "Ġthrowing": 7725,
      "Ġtowel": 7726,
      "Ġunpredict": 7727,
      "Ġnuanced": 7728,
      "Ġouterwear": 7729,
      "ĠIndividuals": 7730,
      "Ġeyeliner": 7731,
      "ĠAssociation": 7732,
      "ĠUdemy": 7733,
      "Ġkeywords": 7734,
      "Ġphilosophical": 7735,
      "Ġcongestion": 7736,
      "First": 7737,
      "ault": 7738,
      "dom": 7739,
      "iance": 7740,
      "kes": 7741,
      "mp": 7742,
      "mates": 7743,
      "nc": 7744,
      "ncing": 7745,
      "writ": 7746,
      "Ġiron": 7747,
      "inter": 7748,
      "Ġcast": 7749,
      "Ġcorpor": 7750,
      "athe": 7751,
      "Ġspl": 7752,
      "Ġsought": 7753,
      "Ġtherape": 7754,
      "Ġflying": 7755,
      "Ġbill": 7756,
      "Ġinequ": 7757,
      "Ġder": 7758,
      "Ġreusable": 7759,
      "Ġthus": 7760,
      "Ġhat": 7761,
      "ster": 7762,
      "Ġliv": 7763,
      "Ġgum": 7764,
      "Ġgone": 7765,
      "ided": 7766,
      "Ġnost": 7767,
      "Ġbeef": 7768,
      "seen": 7769,
      "otic": 7770,
      "Ġham": 7771,
      "ami": 7772,
      "amed": 7773,
      "Ġalert": 7774,
      "Ġalmost": 7775,
      "Ġchop": 7776,
      "Ġchun": 7777,
      "Ġintention": 7778,
      "Ġranging": 7779,
      "osm": 7780,
      "ĠPy": 7781,
      "ĠPar": 7782,
      "Ġresolving": 7783,
      "ĠDark": 7784,
      "fulness": 7785,
      "ĠRa": 7786,
      "Ġcontex": 7787,
      "Ġpeak": 7788,
      "Ġbutt": 7789,
      "Ġconsent": 7790,
      "ĠGO": 7791,
      "Ġsoot": 7792,
      "Ġsoap": 7793,
      "Ġrot": 7794,
      "Ġcaution": 7795,
      "ĠNon": 7796,
      "Ġgene": 7797,
      "Ġpromises": 7798,
      "ployed": 7799,
      "Ġinside": 7800,
      "ĠReward": 7801,
      "Ġediting": 7802,
      "ĠChar": 7803,
      "ĠKing": 7804,
      "Ġblame": 7805,
      "Ġdemographic": 7806,
      "Ġgraffiti": 7807,
      "Ġ12": 7808,
      "Ġmotivations": 7809,
      "Ġopening": 7810,
      "orporating": 7811,
      "Ġcarbohydr": 7812,
      "Ġ40": 7813,
      "ĠConduct": 7814,
      "Ġlesser": 7815,
      "Ġpassions": 7816,
      "Ġpassengers": 7817,
      "Ġdelays": 7818,
      "ronics": 7819,
      "Ġchores": 7820,
      "Ġinfluences": 7821,
      "Ġruns": 7822,
      "ĠAng": 7823,
      "Ġnumbers": 7824,
      "ĠEmotional": 7825,
      "Ġmapping": 7826,
      "Ġagend": 7827,
      "Ġspreading": 7828,
      "oursera": 7829,
      "grade": 7830,
      "namon": 7831,
      "Ġinterpre": 7832,
      "ĠControl": 7833,
      "Ġexpanding": 7834,
      "ĠDeveloping": 7835,
      "Ġconditioner": 7836,
      "ĠListening": 7837,
      "Ġstrengthening": 7838,
      "Ġvictories": 7839,
      "ĠAllow": 7840,
      "Ġnutritious": 7841,
      "risk": 7842,
      "ĠTransp": 7843,
      "Ġinstallation": 7844,
      "Ġsatisfied": 7845,
      "ĠGlobal": 7846,
      "Ġbonds": 7847,
      "incts": 7848,
      "Ġglasses": 7849,
      "Ġhormone": 7850,
      "Ġdesserts": 7851,
      "Ġwebinars": 7852,
      "Ġsample": 7853,
      "ĠMonitor": 7854,
      "Ġpermission": 7855,
      "Ġtimeline": 7856,
      "Ġtomatoes": 7857,
      "Ġcoordination": 7858,
      "ĠHuman": 7859,
      "ĠFamily": 7860,
      "Ġsoundtrack": 7861,
      "judgmental": 7862,
      "Ġpotatoes": 7863,
      "Ġtournaments": 7864,
      "ĠHeadspace": 7865,
      "ĠEthical": 7866,
      "Ġtransactions": 7867,
      "Ġdentist": 7868,
      "Ġlandscapes": 7869,
      "Second": 7870,
      "Ġcontexts": 7871,
      "With": 7872,
      "ae": 7873,
      "iary": 7874,
      "mal": 7875,
      "oil": 7876,
      "ships": 7877,
      "uous": 7878,
      "watch": 7879,
      "reach": 7880,
      "Ġcens": 7881,
      "atches": 7882,
      "Ġshel": 7883,
      "orrect": 7884,
      "Ġdancing": 7885,
      "Ġdried": 7886,
      "Ġthick": 7887,
      "Ġnation": 7888,
      "olf": 7889,
      "Ġheal": 7890,
      "Ġwhitening": 7891,
      "Ġvan": 7892,
      "ĠSystem": 7893,
      "ĠCoursera": 7894,
      "Ġrush": 7895,
      "Ġworried": 7896,
      "ĠHist": 7897,
      "ĠHost": 7898,
      "ĠHindu": 7899,
      "Ġsequ": 7900,
      "ĠPR": 7901,
      "ĠMove": 7902,
      "Ġproven": 7903,
      "ago": 7904,
      "ĠIts": 7905,
      "Ġmode": 7906,
      "ĠFound": 7907,
      "achment": 7908,
      "Ġtherefore": 7909,
      "Ġspent": 7910,
      "Ġspots": 7911,
      "ĠInf": 7912,
      "Ġaccident": 7913,
      "Ġjustify": 7914,
      "ĠNan": 7915,
      "Ġsyrup": 7916,
      "Ġinfidelity": 7917,
      "Ġrequest": 7918,
      "Ġconnectivity": 7919,
      "Ġcustomize": 7920,
      "Ġcountless": 7921,
      "Ġculturally": 7922,
      "Ġbrushing": 7923,
      "Ġrefine": 7924,
      "Ġgrains": 7925,
      "Ġeconomies": 7926,
      "Ġdioxide": 7927,
      "Ġmultif": 7928,
      "Ġgrief": 7929,
      "Ġregulators": 7930,
      "Ġmatching": 7931,
      "Ġslices": 7932,
      "Ġfreely": 7933,
      "Ġlotion": 7934,
      "ĠLeave": 7935,
      "ĠAmericans": 7936,
      "Ġassistants": 7937,
      "ĠComb": 7938,
      "Ġcandle": 7939,
      "ĠArr": 7940,
      "Ġappropriation": 7941,
      "Ġtempt": 7942,
      "Ġbattle": 7943,
      "Ġfashionable": 7944,
      "ĠJoining": 7945,
      "Ġcraft": 7946,
      "itute": 7947,
      "ĠFinding": 7948,
      "Ġmistake": 7949,
      "Ġillum": 7950,
      "afe": 7951,
      "Ġreliability": 7952,
      "Ġtaxes": 7953,
      "Ġcrisp": 7954,
      "Ġmixed": 7955,
      "Ġcoding": 7956,
      "Ġvera": 7957,
      "Ġoptimization": 7958,
      "Ġextrem": 7959,
      "Ġmanipulation": 7960,
      "Ġintroduce": 7961,
      "Ġzone": 7962,
      "Ġparking": 7963,
      "ĠSkills": 7964,
      "Ġdiscourage": 7965,
      "ĠReducing": 7966,
      "Ġpairs": 7967,
      "Ġpools": 7968,
      "Ġrepeat": 7969,
      "ĠPromoting": 7970,
      "Ġunsure": 7971,
      "Ġsurvival": 7972,
      "Ġreforms": 7973,
      "Ġemojis": 7974,
      "Ġmaximum": 7975,
      "Ġdegree": 7976,
      "Ġcrops": 7977,
      "ĠChallenge": 7978,
      "ĠMessenger": 7979,
      "Ġdismiss": 7980,
      "Ġoutweigh": 7981,
      "12": 7982,
      "Des": 7983,
      "Many": 7984,
      "PF": 7985,
      "cot": 7986,
      "eine": 7987,
      "uation": 7988,
      "vis": 7989,
      "Ġil": 7990,
      "Ġaverage": 7991,
      "inting": 7992,
      "Ġsen": 7993,
      "Ġsem": 7994,
      "Ġsick": 7995,
      "Ġsoph": 7996,
      "Ġtheater": 7997,
      "Ġmagn": 7998,
      "Ġmaster": 7999,
      "isl": 8000,
      "rooms": 8001,
      "aming": 8002,
      "respect": 8003,
      "Ġvia": 8004,
      "Ġvenue": 8005,
      "anted": 8006,
      "estock": 8007,
      "Ġcharm": 8008,
      "Ġchili": 8009,
      "lderly": 8010,
      "Ġteas": 8011,
      "Ġresolved": 8012,
      "ĠRuss": 8013,
      "ĠFrom": 8014,
      "ĠLast": 8015,
      "Ġovernight": 8016,
      "everal": 8017,
      "erves": 8018,
      "ervations": 8019,
      "Ġscreens": 8020,
      "Ġmyth": 8021,
      "Ġroomm": 8022,
      "ĠStand": 8023,
      "ĠNatural": 8024,
      "Ġgenet": 8025,
      "Ġknows": 8026,
      "Ġamenities": 8027,
      "llo": 8028,
      "Ġorganisms": 8029,
      "Ġofferings": 8030,
      "Ġprofess": 8031,
      "Ġinstincts": 8032,
      "Ġdesigner": 8033,
      "Ġthank": 8034,
      "Ġgenerated": 8035,
      "Ġrepay": 8036,
      "Ġeducators": 8037,
      "Ġcheaper": 8038,
      "Ġblind": 8039,
      "Ġwatercol": 8040,
      "Ġcertainty": 8041,
      "Ġdrone": 8042,
      "Ġaudi": 8043,
      "Ġformats": 8044,
      "Ġformula": 8045,
      "Ġmultiracial": 8046,
      "Ġlistener": 8047,
      "insp": 8048,
      "brid": 8049,
      "Ġmeasurable": 8050,
      "Ġcapability": 8051,
      "ustrial": 8052,
      "Ġreflecting": 8053,
      "Ġhyd": 8054,
      "Ġenhanced": 8055,
      "ĠAlthough": 8056,
      "Ġcentered": 8057,
      "Ġfilled": 8058,
      "Ġ2019": 8059,
      "Ġestablishing": 8060,
      "ĠTeam": 8061,
      "driven": 8062,
      "Ġanticip": 8063,
      "Ġdivide": 8064,
      "Ġportion": 8065,
      "Ġhonestly": 8066,
      "Ġobserving": 8067,
      "Ġcorrectly": 8068,
      "ĠContact": 8069,
      "ĠMedia": 8070,
      "Ġstrain": 8071,
      "Ġreaction": 8072,
      "Ġreasonable": 8073,
      "ĠHealthcare": 8074,
      "ĠWriting": 8075,
      "Ġteacher": 8076,
      "Ġcloser": 8077,
      "ikes": 8078,
      "Ġignore": 8079,
      "Ġsentiment": 8080,
      "Ġcamera": 8081,
      "Ġchatbots": 8082,
      "Ġscented": 8083,
      "Ġpleas": 8084,
      "legal": 8085,
      "Ġmosaic": 8086,
      "Ġhinder": 8087,
      "Ġrhythm": 8088,
      "Ġdinner": 8089,
      "Ġberries": 8090,
      "Ġaspir": 8091,
      "Ġcorporations": 8092,
      "Ġtherapeutic": 8093,
      "Ġcarbohydrates": 8094,
      "80": 8095,
      "Ar": 8096,
      "Ch": 8097,
      "PI": 8098,
      "car": 8099,
      "camp": 8100,
      "fall": 8101,
      "gain": 8102,
      "ground": 8103,
      "hib": 8104,
      "iator": 8105,
      "kind": 8106,
      "ran": 8107,
      "uits": 8108,
      "vation": 8109,
      "worth": 8110,
      "ðŁ": 8111,
      "reed": 8112,
      "herent": 8113,
      "Ġcow": 8114,
      "Ġcul": 8115,
      "atching": 8116,
      "Ġsides": 8117,
      "ancies": 8118,
      "Ġpra": 8119,
      "Ġmining": 8120,
      "Ġbooking": 8121,
      "Ġinappropriate": 8122,
      "ison": 8123,
      "ications": 8124,
      "omaterials": 8125,
      "entive": 8126,
      "Ġthous": 8127,
      "Ġhop": 8128,
      "Ġlun": 8129,
      "Ġlunch": 8130,
      "Ġgut": 8131,
      "eles": 8132,
      "Ġnor": 8133,
      "Ġnob": 8134,
      "Ġexists": 8135,
      "uten": 8136,
      "resents": 8137,
      "Ġalike": 8138,
      "Ġvirt": 8139,
      "ĠSuch": 8140,
      "ĠSpend": 8141,
      "ĠSPF": 8142,
      "ister": 8143,
      "acco": 8144,
      "Ġfeas": 8145,
      "Ġseas": 8146,
      "Ġnothing": 8147,
      "ĠDrones": 8148,
      "ĠMor": 8149,
      "ĠMore": 8150,
      "Ġmodify": 8151,
      "Ġprecise": 8152,
      "Ġpersonalize": 8153,
      "Ġdisadvant": 8154,
      "ĠLa": 8155,
      "ĠLong": 8156,
      "Ġuneth": 8157,
      "ĠUtil": 8158,
      "Ġoverly": 8159,
      "Ġunderwater": 8160,
      "Ġartworks": 8161,
      "Ġroots": 8162,
      "Ġcaff": 8163,
      "Ġattain": 8164,
      "ĠStar": 8165,
      "Ġgenomics": 8166,
      "foreseen": 8167,
      "Ġdiscovered": 8168,
      "Ġcoach": 8169,
      "Ġcohes": 8170,
      "Ġinterf": 8171,
      "Ġtransformation": 8172,
      "Ġbreach": 8173,
      "Ġwhereas": 8174,
      "interest": 8175,
      "Ġsuggested": 8176,
      "Ġrepresents": 8177,
      "Ġvisa": 8178,
      "Ġcleans": 8179,
      "Ġdemographics": 8180,
      "avender": 8181,
      "Ġbiometric": 8182,
      "Ġimmerse": 8183,
      "Ġkeyboard": 8184,
      "Ġroutes": 8185,
      "azer": 8186,
      "Ġconstit": 8187,
      "Ġelectronics": 8188,
      "Ġcontrolled": 8189,
      "Ġachievement": 8190,
      "Ġcruise": 8191,
      "Ġdelay": 8192,
      "Ġcompetitors": 8193,
      "Ġtrackers": 8194,
      "Ġdetermined": 8195,
      "ĠAnim": 8196,
      "Ġdresses": 8197,
      "Ġrepresentative": 8198,
      "Ġrepresentatives": 8199,
      "Ġcolorful": 8200,
      "Ġintegral": 8201,
      "Ġforgiving": 8202,
      "ĠIslam": 8203,
      "Ġinterviewer": 8204,
      "Ġaids": 8205,
      "Ġfairs": 8206,
      "ĠEducating": 8207,
      "Ġdemonstrated": 8208,
      "Ġaccommodation": 8209,
      "Ġcardio": 8210,
      "ĠAttending": 8211,
      "ĠSupporting": 8212,
      "Ġexhaust": 8213,
      "Ġvictim": 8214,
      "Ġmorale": 8215,
      "Ġtransitioning": 8216,
      "Ġdemocracies": 8217,
      "Ġclimb": 8218,
      "Ġintroducing": 8219,
      "Ġsneakers": 8220,
      "Ġadequately": 8221,
      "Ġfighting": 8222,
      "Ġinstallations": 8223,
      "ĠInvesting": 8224,
      "ĠAfrica": 8225,
      "ĠOthers": 8226,
      "Ġtriggers": 8227,
      "Ġretailers": 8228,
      "ĠNegative": 8229,
      "Ġstorms": 8230,
      "ĠStrong": 8231,
      "Ġautonomy": 8232,
      "Ġobligations": 8233,
      "ĠDepression": 8234,
      "Ġcomposting": 8235,
      "Ġceremonies": 8236,
      "Ġfantastic": 8237,
      "Ġundermine": 8238,
      "Ġcalendar": 8239,
      "Ġthermost": 8240,
      "Ġcompensation": 8241,
      "Ġvigilant": 8242,
      "Ġunpredictable": 8243,
      "Ġillegal": 8244,
      "Ġsophistic": 8245,
      "Ġaspirations": 8246,
      "Ġunethical": 8247,
      "even": 8248,
      "lay": 8249,
      "nel": 8250,
      "yl": 8251,
      "Ġtit": 8252,
      "inse": 8253,
      "onym": 8254,
      "atable": 8255,
      "esides": 8256,
      "Ġpages": 8257,
      "Ġmasc": 8258,
      "Ġfishing": 8259,
      "Ġwine": 8260,
      "isure": 8261,
      "Ġelderly": 8262,
      "Ġreass": 8263,
      "Ġhit": 8264,
      "stage": 8265,
      "stick": 8266,
      "Ġbegan": 8267,
      "sever": 8268,
      "olitical": 8269,
      "ĠImm": 8270,
      "Ġhero": 8271,
      "Ġsufficient": 8272,
      "Ġconform": 8273,
      "Ġmoves": 8274,
      "ama": 8275,
      "ĠAp": 8276,
      "ĠAid": 8277,
      "Ġimbal": 8278,
      "pped": 8279,
      "Ġchips": 8280,
      "employment": 8281,
      "aint": 8282,
      "Ġexpense": 8283,
      "acific": 8284,
      "Ġfee": 8285,
      "osion": 8286,
      "Ġads": 8287,
      "anger": 8288,
      "ĠPost": 8289,
      "ĠPower": 8290,
      "Ġcompliance": 8291,
      "ĠThriller": 8292,
      "ump": 8293,
      "Ġmodes": 8294,
      "ĠFlex": 8295,
      "ĠFashion": 8296,
      "ĠFestiv": 8297,
      "Ġrelieve": 8298,
      "Ġclay": 8299,
      "rub": 8300,
      "Ġunforeseen": 8301,
      "aceted": 8302,
      "Ġdifferentiate": 8303,
      "Ġkids": 8304,
      "Ġspa": 8305,
      "Ġscents": 8306,
      "ending": 8307,
      "enders": 8308,
      "Ġperks": 8309,
      "Ġregain": 8310,
      "ommun": 8311,
      "ernatural": 8312,
      "ggage": 8313,
      "Ġattentive": 8314,
      "ĠStore": 8315,
      "ĠNike": 8316,
      "Ġages": 8317,
      "Ġstaycation": 8318,
      "ĠVot": 8319,
      "ventions": 8320,
      "ĠChanges": 8321,
      "Ġfollowed": 8322,
      "xture": 8323,
      "Ġ17": 8324,
      "Ġfeeding": 8325,
      "Ġapproaching": 8326,
      "Ġformer": 8327,
      "Ġgrates": 8328,
      "ĠUnivers": 8329,
      "Ġtrustworthy": 8330,
      "Ġcostly": 8331,
      "Ġhomemade": 8332,
      "egrad": 8333,
      "ĠConsum": 8334,
      "Ġsensation": 8335,
      "Ġlegit": 8336,
      "ĠShould": 8337,
      "Ġcombining": 8338,
      "Ġdiscussed": 8339,
      "Ġsupplement": 8340,
      "ĠWithout": 8341,
      "ĠEmbra": 8342,
      "Ġtextile": 8343,
      "Ġphotograph": 8344,
      "Ġtells": 8345,
      "ĠQuality": 8346,
      "Ġinstruction": 8347,
      "Ġ197": 8348,
      "Ġjuices": 8349,
      "Ġthoughtful": 8350,
      "ĠOffering": 8351,
      "Ġharvest": 8352,
      "Ġmicrophone": 8353,
      "ĠAcad": 8354,
      "Ġathletic": 8355,
      "Ġsexuality": 8356,
      "Ġsmoothly": 8357,
      "Ġcutting": 8358,
      "Ġtemperatures": 8359,
      "Ġtensions": 8360,
      "Ġhighlighting": 8361,
      "Ġhighlighted": 8362,
      "Ġcalligraphy": 8363,
      "ĠFrank": 8364,
      "Ġpodcast": 8365,
      "ĠEmpire": 8366,
      "Ġmillions": 8367,
      "Ġprofitability": 8368,
      "Ġstuff": 8369,
      "Ġtrigger": 8370,
      "Ġcryptocurrency": 8371,
      "conscious": 8372,
      "ĠGrilled": 8373,
      "Ġsupernatural": 8374,
      "Ġwrinkle": 8375,
      "ĠTrello": 8376,
      "ĠAnalyze": 8377,
      "Ġirritation": 8378,
      "Ġratings": 8379,
      "Ġnourish": 8380,
      "ĠSES": 8381,
      "Ġdepartment": 8382,
      "commerce": 8383,
      "Ġaesthetic": 8384,
      "Ġsurgery": 8385,
      "ĠAustralia": 8386,
      "Ġdatab": 8387,
      "Ġprocrastination": 8388,
      "Ġsliced": 8389,
      "istlebl": 8390,
      "Ġmultifaceted": 8391,
      "egradable": 8392,
      "AA": 8393,
      "ED": 8394,
      "No": 8395,
      "books": 8396,
      "dep": 8397,
      "ften": 8398,
      "oon": 8399,
      "oved": 8400,
      "wash": 8401,
      "inely": 8402,
      "rete": 8403,
      "Ġsix": 8404,
      "Ġpad": 8405,
      "Ġpine": 8406,
      "Ġfly": 8407,
      "Ġwent": 8408,
      "Ġbou": 8409,
      "iches": 8410,
      "Ġdoll": 8411,
      "Ġending": 8412,
      "Ġrebuilding": 8413,
      "Ġlips": 8414,
      "Ġgaps": 8415,
      "raising": 8416,
      "igr": 8417,
      "Ġhacking": 8418,
      "utants": 8419,
      "orting": 8420,
      "Ġalerts": 8421,
      "Ġintimate": 8422,
      "Ġlever": 8423,
      "Ġleverage": 8424,
      "unct": 8425,
      "arella": 8426,
      "Ġsending": 8427,
      "ultaneously": 8428,
      "duce": 8429,
      "ĠPast": 8430,
      "ĠPacific": 8431,
      "ĠBattle": 8432,
      "Ġcompl": 8433,
      "Ġcomplic": 8434,
      "ĠMal": 8435,
      "platform": 8436,
      "Ġtradition": 8437,
      "ĠRoll": 8438,
      "ĠRights": 8439,
      "ĠWind": 8440,
      "ĠWood": 8441,
      "ĠFort": 8442,
      "Ġconsens": 8443,
      "Ġconserve": 8444,
      "odes": 8445,
      "Ġpolyamory": 8446,
      "Ġpride": 8447,
      "Ġprone": 8448,
      "ubb": 8449,
      "ĠStreet": 8450,
      "Ġrequiring": 8451,
      "Ġhighlights": 8452,
      "Ġinterconnect": 8453,
      "Ġtransl": 8454,
      "Ġconcrete": 8455,
      "Ġeducating": 8456,
      "Ġcheating": 8457,
      "Ġbrief": 8458,
      "Ġraises": 8459,
      "Ġdriven": 8460,
      "Ġtravels": 8461,
      "Ġformulated": 8462,
      "Ġsubtle": 8463,
      "ĠProper": 8464,
      "Ġlau": 8465,
      "Ġroute": 8466,
      "Ġinteracting": 8467,
      "Ġcreatively": 8468,
      "bris": 8469,
      "Ġsensory": 8470,
      "ĠPlace": 8471,
      "Ġfriendship": 8472,
      "Ġcompeting": 8473,
      "Ġsalads": 8474,
      "Ġdamaging": 8475,
      "Ġcouple": 8476,
      "Ġwriter": 8477,
      "Ġforec": 8478,
      "Ġlifelong": 8479,
      "Ġviolate": 8480,
      "Ġposture": 8481,
      "ĠTrain": 8482,
      "ĠTraditional": 8483,
      "Ġhonor": 8484,
      "Ġbroth": 8485,
      "ĠScience": 8486,
      "Ġerosion": 8487,
      "Ġmobil": 8488,
      "apple": 8489,
      "Ġmitigating": 8490,
      "Ġtrainer": 8491,
      "Ġclouds": 8492,
      "Ġcitizen": 8493,
      "flow": 8494,
      "Ġpregnancies": 8495,
      "Ġspeeds": 8496,
      "ĠImprove": 8497,
      "Ġsmoothie": 8498,
      "poon": 8499,
      "ĠBreast": 8500,
      "Ġliteracy": 8501,
      "Ġcuts": 8502,
      "Ġsunlight": 8503,
      "Ġfreedoms": 8504,
      "Ġnanomaterials": 8505,
      "ĠCarbon": 8506,
      "zzarella": 8507,
      "Ġconferencing": 8508,
      "Ġreplicate": 8509,
      "ĠShea": 8510,
      "ĠGrand": 8511,
      "ĠExplain": 8512,
      "Ġutilize": 8513,
      "Ġrebuild": 8514,
      "Ġballots": 8515,
      "Ġassignments": 8516,
      "Ġempowering": 8517,
      "Ġpanels": 8518,
      "Ġresistant": 8519,
      "Ġoutlook": 8520,
      "itarian": 8521,
      "Ġperceive": 8522,
      "Ġearthquake": 8523,
      "Ġrecruitment": 8524,
      "Ġurgency": 8525,
      "Ġphenomenon": 8526,
      "ĠChristianity": 8527,
      "Ġgymnasts": 8528,
      "Ġswitches": 8529,
      "Ġswimsuit": 8530,
      "Ġairplane": 8531,
      "Ġallegory": 8532,
      "Ġgalleries": 8533,
      "ĠCyber": 8534,
      "Ġinequalities": 8535,
      "Ġlivestock": 8536,
      "Ġsophisticated": 8537,
      "depth": 8538,
      "Ġinterconnected": 8539,
      "?\"": 8540,
      "NA": 8541,
      "Sim": 8542,
      "cro": 8543,
      "def": 8544,
      "ear": 8545,
      "gely": 8546,
      "nuts": 8547,
      "pot": 8548,
      "rial": 8549,
      "rust": 8550,
      "rators": 8551,
      "table": 8552,
      "uitive": 8553,
      "Ġtree": 8554,
      "Ġtorrent": 8555,
      "hest": 8556,
      "onest": 8557,
      "atibility": 8558,
      "orge": 8559,
      "orry": 8560,
      "Ġmi": 8561,
      "Ġfib": 8562,
      "Ġfather": 8563,
      "Ġwireless": 8564,
      "Ġbills": 8565,
      "Ġdates": 8566,
      "Ġhunt": 8567,
      "rab": 8568,
      "olves": 8569,
      "ĠIT": 8570,
      "ull": 8571,
      "uls": 8572,
      "Ġstif": 8573,
      "irical": 8574,
      "Ġonion": 8575,
      "Ġheight": 8576,
      "Ġconventions": 8577,
      "Ġmozzarella": 8578,
      "uted": 8579,
      "resp": 8580,
      "Ġdebris": 8581,
      "ĠSit": 8582,
      "Ġintr": 8583,
      "ĠCor": 8584,
      "ĠCult": 8585,
      "ĠHam": 8586,
      "ĠHapp": 8587,
      "Ġshades": 8588,
      "ĠTherapy": 8589,
      "Ġadhere": 8590,
      "ĠPoll": 8591,
      "ĠParks": 8592,
      "Ġcomparing": 8593,
      "ĠDivers": 8594,
      "ĠDiversity": 8595,
      "Ġcommute": 8596,
      "Ġcommission": 8597,
      "ĠRV": 8598,
      "ĠEnt": 8599,
      "Ġpeers": 8600,
      "Ġunl": 8601,
      "Ġunus": 8602,
      "Ġunemployment": 8603,
      "ĠUr": 8604,
      "ĠUber": 8605,
      "Ġoffset": 8606,
      "Ġspons": 8607,
      "ĠInn": 8608,
      "Ġimpactful": 8609,
      "Ġaccel": 8610,
      "Ġinformative": 8611,
      "obi": 8612,
      "ĠNight": 8613,
      "Ġguitar": 8614,
      "Ġdiscipl": 8615,
      "Ġcoal": 8616,
      "Ġinsulin": 8617,
      "apse": 8618,
      "ĠAdvent": 8619,
      "Ġconnects": 8620,
      "Ġflour": 8621,
      "fortun": 8622,
      "Ġsimultaneously": 8623,
      "Ġrail": 8624,
      "Ġdownt": 8625,
      "Ġbackpack": 8626,
      "Ġformat": 8627,
      "Ġvegan": 8628,
      "Ġcharges": 8629,
      "ĠAsia": 8630,
      "Ġrecognizes": 8631,
      "Ġecological": 8632,
      "ĠIndustrial": 8633,
      "ĠExcel": 8634,
      "Ġlargely": 8635,
      "ographers": 8636,
      "Ġparticipants": 8637,
      "author": 8638,
      "Ġapolog": 8639,
      "Ġcrimes": 8640,
      "ĠInteg": 8641,
      "Ġterrain": 8642,
      "ĠEmerg": 8643,
      "Ġadapting": 8644,
      "Ġluggage": 8645,
      "Ġlifes": 8646,
      "ewable": 8647,
      "ĠTea": 8648,
      "Ġaligned": 8649,
      "ĠImp": 8650,
      "Ġpollutants": 8651,
      "Ġrespectfully": 8652,
      "Ġscenery": 8653,
      "sports": 8654,
      "Ġhistoric": 8655,
      "Ġalongside": 8656,
      "Ġmitigation": 8657,
      "Ġentertaining": 8658,
      "ĠAddressing": 8659,
      "Ġexhale": 8660,
      "Ġborrowers": 8661,
      "Ġinterpretations": 8662,
      "Ġscales": 8663,
      "management": 8664,
      "Ġaltitude": 8665,
      "Ġcontracts": 8666,
      "ĠSurrealist": 8667,
      "Ġpursuit": 8668,
      "ĠCreative": 8669,
      "ĠGPU": 8670,
      "Ġnerves": 8671,
      "ĠLimited": 8672,
      "ĠAutom": 8673,
      "ĠUser": 8674,
      "Ġnarrative": 8675,
      "ĠVisualize": 8676,
      "ĠAccording": 8677,
      "Ġflossing": 8678,
      "rocery": 8679,
      "Ġtimeless": 8680,
      "Ġdrama": 8681,
      "Ġcredibility": 8682,
      "Ġemoji": 8683,
      "ĠDrinking": 8684,
      "ĠTurkey": 8685,
      "Ġearthquakes": 8686,
      "Ġperpetuate": 8687,
      "ĠEnhanced": 8688,
      "Ġsurrogate": 8689,
      "Ġlayers": 8690,
      "Ġsoda": 8691,
      "Ġpublished": 8692,
      "ĠEleven": 8693,
      "Ġempathize": 8694,
      "Ġcaregivers": 8695,
      "ĠPrograms": 8696,
      "ĠTransparency": 8697,
      "ĠHinduism": 8698,
      "campus": 8699,
      "Ġcaffeine": 8700,
      "severance": 8701,
      "ĠFestival": 8702,
      "ĠEmbrace": 8703,
      "17": 8704,
      "AC": 8705,
      "Com": 8706,
      "body": 8707,
      "bacco": 8708,
      "cul": 8709,
      "cult": 8710,
      "ded": 8711,
      "door": 8712,
      "dden": 8713,
      "top": 8714,
      "uff": 8715,
      "vance": 8716,
      "ona": 8717,
      "onents": 8718,
      "Ġcure": 8719,
      "Ġcake": 8720,
      "Ġcame": 8721,
      "Ġcosm": 8722,
      "eners": 8723,
      "enues": 8724,
      "Ġpit": 8725,
      "Ġpiv": 8726,
      "Ġtobacco": 8727,
      "Ġfires": 8728,
      "Ġinsecurity": 8729,
      "Ġinherent": 8730,
      "isan": 8731,
      "Ġlime": 8732,
      "Ġloose": 8733,
      "Ġgrocery": 8734,
      "Ġnose": 8735,
      "Ġnurt": 8736,
      "Ġstro": 8737,
      "Ġstations": 8738,
      "Ġprohib": 8739,
      "Ġisland": 8740,
      "Ġsudden": 8741,
      "ĠAges": 8742,
      "urch": 8743,
      "urious": 8744,
      "Ġwhatever": 8745,
      "pper": 8746,
      "ĠSub": 8747,
      "ĠCut": 8748,
      "ĠCap": 8749,
      "ĠCosplay": 8750,
      "ĠPet": 8751,
      "ĠPort": 8752,
      "ĠBit": 8753,
      "Ġcompelling": 8754,
      "ressed": 8755,
      "ĠMat": 8756,
      "Ġtrouble": 8757,
      "ĠThings": 8758,
      "ĠRo": 8759,
      "ĠEd": 8760,
      "ĠEss": 8761,
      "Ġmodification": 8762,
      "Ġrelate": 8763,
      "ĠLight": 8764,
      "oday": 8765,
      "ĠGard": 8766,
      "ietnam": 8767,
      "Ġskip": 8768,
      "Ġlearner": 8769,
      "obile": 8770,
      "Ġbelow": 8771,
      "Ġbug": 8772,
      "Ġamb": 8773,
      "cont": 8774,
      "Ġrequests": 8775,
      "Ġstays": 8776,
      "Ġchallenged": 8777,
      "uccess": 8778,
      "Ġflood": 8779,
      "Ġidentified": 8780,
      "adequ": 8781,
      "Ġchildhood": 8782,
      "Ġrepetitive": 8783,
      "Ġsustained": 8784,
      "curric": 8785,
      "Ġcounts": 8786,
      "Ġaccounting": 8787,
      "Ġbehavi": 8788,
      "Ġdrivers": 8789,
      "Ġdistingu": 8790,
      "behavior": 8791,
      "Ġcharged": 8792,
      "ĠProject": 8793,
      "Ġcontributes": 8794,
      "ĠManage": 8795,
      "Ġgran": 8796,
      "Ġmath": 8797,
      "placement": 8798,
      "Ġcorn": 8799,
      "ĠSharing": 8800,
      "Ġsalvation": 8801,
      "Ġherbal": 8802,
      "ĠKeeping": 8803,
      "Ġtrades": 8804,
      "Ġcovering": 8805,
      "Ġprophe": 8806,
      "Ġsummer": 8807,
      "Ġletters": 8808,
      "ĠStaying": 8809,
      "ĠSec": 8810,
      "Ġautomatic": 8811,
      "Ġconsulting": 8812,
      "Ġproteins": 8813,
      "ĠGoals": 8814,
      "realistic": 8815,
      "Ġintegrating": 8816,
      "Ġthreatened": 8817,
      "Ġintroduction": 8818,
      "Ġcompromising": 8819,
      "Ġtimely": 8820,
      "Ġdangers": 8821,
      "Ġnegotiating": 8822,
      "Ġstimul": 8823,
      "Ġhappened": 8824,
      "Ġcarrying": 8825,
      "Ġeyeshadow": 8826,
      "Ġfalling": 8827,
      "criptions": 8828,
      "Ġsilver": 8829,
      "Ġintentions": 8830,
      "Ġrecycling": 8831,
      "Ġsculptures": 8832,
      "Ġgenuinely": 8833,
      "ĠPhot": 8834,
      "Ġdigestion": 8835,
      "ĠEvaluate": 8836,
      "Ġdisagreements": 8837,
      "Ġbrown": 8838,
      "Ġscheduling": 8839,
      "Ġnarrow": 8840,
      "ĠBiotechnology": 8841,
      "Ġplayfulness": 8842,
      "Ġluxurious": 8843,
      "ĠMexican": 8844,
      "Ġperceived": 8845,
      "Ġbottles": 8846,
      "ĠForest": 8847,
      "ĠCustomer": 8848,
      "ĠHelp": 8849,
      "Ġpersistence": 8850,
      "Ġboredom": 8851,
      "Ġsadness": 8852,
      "Ġreproductive": 8853,
      "Ġoxy": 8854,
      "Ġlaser": 8855,
      "Ġsacrific": 8856,
      "Ġmanufacturers": 8857,
      "Ġdaunting": 8858,
      "Ġsynthetic": 8859,
      "Ġphrases": 8860,
      "Ġinfringement": 8861,
      "Ġthousands": 8862,
      "Ġmixture": 8863,
      "Ġunusual": 8864,
      "ĠUrban": 8865,
      "authorized": 8866,
      "curricular": 8867,
      "II": 8868,
      "ait": 8869,
      "ament": 8870,
      "gent": 8871,
      "gate": 8872,
      "oice": 8873,
      "ooth": 8874,
      "part": 8875,
      "pose": 8876,
      "parents": 8877,
      "sk": 8878,
      "sized": 8879,
      "uct": 8880,
      "ĊĠ": 8881,
      "Ġ'": 8882,
      "Ġtiles": 8883,
      "Ġcel": 8884,
      "itis": 8885,
      "Ġpants": 8886,
      "Ġmant": 8887,
      "Ġmountain": 8888,
      "Ġwrap": 8889,
      "Ġoven": 8890,
      "Ġbones": 8891,
      "icies": 8892,
      "icago": 8893,
      "Ġdirt": 8894,
      "Ġeternal": 8895,
      "entional": 8896,
      "Ġlamp": 8897,
      "Ġnur": 8898,
      "Ġfort": 8899,
      "Ġforces": 8900,
      "Ġstoring": 8901,
      "Ġprose": 8902,
      "Ġproof": 8903,
      "Ġsuited": 8904,
      "ĠTem": 8905,
      "Ġwithd": 8906,
      "verages": 8907,
      "ivic": 8908,
      "ivacy": 8909,
      "Ġalthough": 8910,
      "outs": 8911,
      "Ġimper": 8912,
      "ĠCry": 8913,
      "ĠCook": 8914,
      "Ġleisure": 8915,
      "ĠHouse": 8916,
      "Ġfears": 8917,
      "ogam": 8918,
      "Ġtends": 8919,
      "ĠBur": 8920,
      "ĠBill": 8921,
      "ĠDi": 8922,
      "ĠMars": 8923,
      "Ġanytime": 8924,
      "ĠRun": 8925,
      "Ġpersonnel": 8926,
      "Ġindirect": 8927,
      "ĠEsports": 8928,
      "Ġarm": 8929,
      "Ġdiss": 8930,
      "ĠLife": 8931,
      "ĠLower": 8932,
      "ĠLond": 8933,
      "Ġunauthorized": 8934,
      "Ġpoly": 8935,
      "Ġpolyamorous": 8936,
      "Ġartic": 8937,
      "berg": 8938,
      "hydration": 8939,
      "Ġcreatives": 8940,
      "Ġadvancing": 8941,
[...]
